#version: 0.2
Ġ Ġ
ĠĠ ĠĠ
ĠĠ Ġ
ĠĠĠĠ ĠĠĠĠ
ĠĠĠĠ ĠĠĠ
i n
s e
r e
Ċ ĠĠĠĠĠĠĠ
Ċ ĠĠĠĠĠĠĠĠ
o n
a t
Ġ t
e r
o r
s t
e n
Ġ a
Ċ ĠĠĠ
Ġ =
Ġ i
d e
h e
a r
a l
l e
m e
ĊĠĠĠĠĠĠĠĠ ĠĠĠ
Ġ f
Ġ c
" "
i on
Ġ re
l f
se lf
Ġ p
u r
i t
Ġ n
Ġ in
a n
c t
Ġt he
c e
Ġ o
Ġ s
r o
g e
Ġ e
a me
Ġi f
u t
in g
l o
Ġ '
u e
Ġ b
Ġ d
Ġ self
- -
) :
en t
p e
ĊĠĠĠĠĠĠĠĠ ĠĠĠĠĠĠĠĠ
ur n
l i
"" "
t urn
at e
Ġ w
ĊĠĠĠĠĠĠĠĠ ĠĠĠĠĠĠĠ
f i
Ġ m
o t
s s
u n
Ġ """
r a
Ġt o
Ġ #
i d
de f
Ġf or
c o
Ċ ĊĠĠĠĠĠĠĠ
m p
Ġi s
e d
Ġre turn
a d
on e
u l
l a
v al
Ġ (
Ġa n
Ġo f
Ġ :
Ċ ĊĠĠĠ
p t
Ġ st
c h
at a
r i
i s
y pe
c k
u m
( )
i l
ge t
n ame
N one
t er
e s
Ġ T
a m
d i
k e
e x
Ġ "
e l
at ion
o l
. _
Ġn ot
' ,
u p
Ġ se
p ar
t h
m a
g s
v er
at h
Ġan d
a s
Ġc on
val ue
) )
Ġt h
ul t
ct ion
-- --
o de
[ '
( '
' ]
Ġe x
c on
v e
Ġ l
Ġ h
r or
ke y
ĊĠĠĠĠĠĠĠĠĠĠĠĠĠĠĠĠ ĠĠĠ
Ġb e
t ype
b le
ĊĠĠĠĠĠĠĠĠĠĠĠĠĠĠĠĠ ĠĠĠĠĠĠĠĠ
en d
se r
li st
Ġ None
Ġ g
Ġf i
t a
or m
Ġ +
i me
in t
Ġ or
e ct
p p
it h
Ġ u
Ġc o
b j
e t
Ġ 1
Ġ A
o d
' )
par am
s p
i g
pt ion
ex t
' :
an d
i z
Ġ [
t o
Ġ *
Ġ _
m ent
q u
Ġ I
Ġ de
Ġ -
or t
Ġ lo
R e
t e
a ge
p ath
se t
Ġe l
Ġd i
Ġ `
Ġ {
f orm
Ġel se
st r
ar gs
Ġst r
ro m
Ġ r
v i
Ġ me
fi le
p o
l y
Ġd ata
i se
Ġ S
( "
Ġ 0
Ġa s
an ce
Ġ %
d ata
re n
Ġ C
p ut
Ġ value
ĠĠĠĠ Ġ
r ue
Ġ= =
r ror
E rror
Ġn ame
re s
Ġp ro
Ġp ar
r y
Ġw ith
in e
or d
u b
a se
Ġa l
Ġa r
q ue
c al
a ble
Ġ ra
Ġ P
Ġ F
it e
p er
Ġre s
e w
i st
a ck
Ġm a
st ance
u s
Ġfi le
bj ect
iz e
c he
c i
" ,
> >
al se
o ut
Ġ v
) ,
o w
f o
fi g
Ġ list
Ġf rom
er s
re d
p ro
a pp
mp le
t s
ĠT he
t r
el d
t ime
Ġra ise
a ult
ĠĠĠĠĠĠĠĠ ĠĠĠĠĠĠĠĠ
k w
Ġ def
o ur
form at
m s
Ġ on
Ġ Re
que st
Ġ y
u re
. .
Ġ key
d ate
Ġ D
de x
" )
Ġ E
f f
ĊĠĠĠĠĠĠĠĠĠĠĠĠĠĠĠĠ ĠĠĠĠĠĠĠ
ar t
h a
kw args
] )
i c
s ion
al l
la ss
0 0
ra y
ren t
Ġth at
Ġw h
Ġ x
in d
Ċ ĠĠĠĠĠ
an ge
] ,
Ġth is
Ġ get
our ce
Ġ 2
Ġl en
co de
Ġo ut
Ġc h
h t
se d
il l
un d
l en
t ext
t ri
Ġlo g
u st
i v
` `
ce ss
at ch
= '
p re
ad d
ur l
m m
ame ter
Ġ N
er ror
Ġp o
Ġ at
app end
Ġse t
it y
ce pt
Ġb y
j o
th od
i m
ode l
h o
un t
' '
g er
co l
Ġ` `
i p
ct or
i le
re ate
d d
p y
Ġp a
u g
Ġ en
it ion
Ġa re
Ġres ult
c l
Ċ ĊĠĠĠĠĠĠĠĠĠĠĠ
m o
i ve
lo w
turn s
p a
s c
li f
Ġd o
um ent
b er
b o
p i
un ction
Ġo bject
= =
ce s
_ _
Ġt ime
ar y
ĠT rue
) .
Ġ M
Ġ he
---- ----
di ct
sp on
Ġi t
Ġn p
in stance
Ċ Ġ
re ad
ut e
Ġc ol
a mple
Ġe lif
d er
Ġt ype
ro up
ĠI f
ss age
p s
Ġn ew
Ġw e
Ġ ro
Ġ V
Ġt ry
r int
Ġ la
o m
Ġw ill
Ġp re
in fo
an s
lo g
u le
Ġ <
de d
Ġ* *
val id
Ġex cept
Ġp ath
ig n
Ġstr ing
Ġn um
ss ion
Ġ R
p ort
ver sion
Ġ un
pe ci
Ċ ĉ
Ġal l
Ġ L
ar i
di r
Ġ )
T rue
at or
v ent
Ġ{ }
c a
Ġ >>
or k
o p
Ġ O
# #
" :
spon se
c ation
Ġ' ''
ĠF alse
b el
c lass
ĠĠĠĠ ĠĠ
er y
Ġin t
Ġ>> >
il d
a ve
Ġ U
Ġ G
ta in
m b
ce ption
[ "
o re
I n
f e
y s
up date
m in
lo ad
F alse
s ize
Ġcon t
k en
ate d
ameter s
p h
Ġdef ault
con fig
f a
' .
ĠRe turns
ma ge
lo ck
Ġre quest
ha pe
le ment
Ġ k
Ġis instance
lo at
p la
se n
g ument
t i
Ġc ur
Ġ >
Ġf unction
Ġ W
al ue
n e
s on
Ġo s
he ck
c ur
l ine
o s
Ġme thod
: `
str ing
Ġo ption
l it
Ġi d
vi ce
in dex
m at
ĊĠĠĠĠĠĠĠĠĠĠĠĠĠĠĠĠĠĠĠĠĠĠĠĠ ĠĠĠĠĠĠĠĠ
qu ery
um n
Ġb o
en er
Ġh as
č ĊĠĠĠĠĠĠĠ
Ġa dd
Ġu ser
jo in
Ġp rint
" ]
Ġs peci
Ġ B
Ġ j
ar ray
t ra
ul d
r ite
Ġ[ ]
ĠT h
re turn
ar get
st e
Ġf il
Ġ+ =
E R
li ent
tri b
Ġc an
mm and
( ):
th er
Ġdi ct
at tr
a g
Ġu se
o k
Ġl ine
y n
i al
s h
._ _
n um
b ack
i f
Ġcon fig
at us
ĊĠĠĠĠĠĠĠĠĠĠĠĠĠĠĠĠĠĠĠĠĠĠĠĠ ĠĠĠĠĠĠĠĠĠĠĠĠĠĠĠĠ
as k
sc ri
Ġs ub
Ġ le
Ġout put
ut h
t ing
i r
un c
d o
iv en
Ġco mp
Ġn ode
g th
Ġt e
an t
Ġ /
ar d
mp ort
w ord
O N
n ode
ĠTh is
l in
b ase
Ġ \
t y
re ss
l l
Ġs o
Ġn e
C on
ma x
n ot
Ġfi eld
] .
ĠE x
* *
od ule
ow n
ate s
Ġvalue s
Ġ H
= "
ĊĠĠĠĠĠĠĠĠĠĠĠĠĠĠĠĠĠĠĠĠĠĠĠĠ ĠĠĠ
fi x
co unt
qu i
Ġ 3
c s
mp l
o bj
Ġg iven
lo t
Ġ ..
m it
Ġa pp
Ġ error
b ug
. """
r ame
ĊĠĠĠĠĠĠĠĠ Ġ
b y
ĠV alue
u ser
ad er
" .
c ord
e c
i ch
g ra
d a
Ġre t
m l
Ġ li
Ġma x
fi eld
Ġre sponse
Ġn o
fi ed
po s
I N
u mp
po int
Ġi te
re e
st art
ar ch
Ġc all
g roup
up le
li c
Ġst art
ĠI n
ter n
a ch
v el
b s
Ġ !
Ġin put
r st
n ing
ma p
ĠValue Error
u de
( [
A T
Ġ |
w ork
w a
Ġnum ber
Ġm odel
Ġar gs
a ct
sp lit
Ġ! =
l s
Ġt r
s ub
an g
Ġa c
en ce
a c
Ġcon tain
Ġ kwargs
or y
Ġwh ich
res ult
Ġc heck
Ġ z
ser t
m d
w e
Ġme ssage
Ġin dex
ari able
E x
Ġu sed
Ġin stance
u ct
S T
ul l
param s
Ġcur rent
def ault
m odel
ation s
b u
Ġar ray
o und
{ }
e p
co mp
Ġc reate
f rom
' s
Ġse r
Ġ end
a k
R E
it s
d ing
se s
i es
st ate
Ġ one
Ġi mport
Ġ --------
ho uld
i fi
ĠA r
d s
Ġp er
value s
Ġpar am
Ġf a
ĠP ar
re quest
r on
it er
Ġf loat
Ġa x
n el
Ġpa ss
ig ht
j ect
l at
s ing
st ri
Ġr ange
pla ce
o ption
de bug
s hape
() )
sp a
il s
f or
mo ve
ctor y
[ :
la bel
Ġ }
o bject
pe ct
Ġb ase
w rite
t en
t ent
a x
u al
Ġm ust
== ==
Ċĉ ĉ
ro w
re am
p en
Ġfor mat
t p
0 1
Ġon ly
Ġdi re
' ):
co m
Ġs hould
w ith
Ġar gument
Ġc al
Ġr un
Ġ url
s o
ver t
Ġc a
at ure
Ġb u
ite ms
s or
b e
in ter
Ġh ave
Ġc ode
e f
Ġ version
Ġ ent
Ġs u
Ġd is
o st
' t
Ġre g
Ġt ext
j son
le d
g n
t es
o g
re g
Ġm in
ot e
n p
Ġ valid
o u
Ġst ate
Ġs h
Ġe ach
ction s
T ype
in al
Ġ query
r un
ig h
## ##
Ġex ist
i eld
Ġs up
Ġin ter
Ġi mage
a b
spa ce
Ġe vent
key s
Ġan y
f unc
Ġlog ger
Ġm at
Ġre ad
n d
Ġite m
la y
'] ,
K e
l er
Ġcol umn
Ġm atch
fe ren
re f
Ġ @
ar g
th on
d f
/ /
ad ata
] [
mpl ate
ment s
len ame
i x
i cal
id th
Ġt arget
Ġl in
Ġro w
en ame
ck et
Ġp y
ut ion
L E
trib ute
I D
Ġo ther
ad ers
Ġ up
Ġs ource
out put
name s
and le
me ssage
Ġspeci fied
ĠPar ameters
fi l
fi lename
N ame
O R
: :
s um
cl ude
( (
al t
to ken
Ġ 4
he re
cal l
Ġfi rst
M E
Ġg roup
Ġtr ans
lo b
Ġc lass
st atus
ĠAr gs
n ew
la ble
le ct
it le
f t
Ġparam s
Ġoption al
Ġd ate
r id
par se
ta ble
ma in
Ġe lement
Ġ-------- --
C o
ne ction
S t
an nel
Ġbo ol
Ġwh en
s i
Ġco mmand
che d
Ġo ver
Ġt ra
in put
Ke y
b lock
: //
s k
ur ation
Ġ update
vi ew
ample s
Ġpo s
Ġs ize
Ġin to
Ġt uple
'] )
t adata
et work
me thod
ite m
pt s
or re
ri g
a v
Ġfile s
t ed
che ck
li b
Ċ ĊĠĠĠĠĠĠĠĠĠĠĠĠĠĠĠ
ction ary
ĠC on
scri ption
Ġ{ '
a pi
Ġcont in
s g
ut es
y ste
Ġfil ename
Ġla bel
Ġto ken
on g
u se
r c
Ġcont ent
v ar
ri x
s ource
ar ning
D ata
() .
Ġt able
D E
ol d
le te
č ĊĠĠĠĠĠĠĠĠĠĠĠ
as h
Ġg ener
Ġpo int
fil ter
od y
Ġf ound
n o
m i
it ial
Ġs p
Ġ ver
un k
c reate
Ġp l
Ġ X
in s
n ect
ot h
Ġ ----
jo b
c lo
ar k
a mp
type s
o us
u res
ump y
u me
Ġv ariable
pe c
Ġcontin ue
pro cess
c re
ack age
fa ce
ho st
le an
o ff
con tent
-- -
a i
() ,
P I
P ar
Ġo pen
feren ce
I d
a ction
len gth
c lient
ting s
re sponse
id s
c y
A R
orm al
Ġh t
Ġ- >
file s
ra w
Ġu sing
e vent
a y
A L
Ġth en
Ġo bj
S E
c ent
1 0
g ing
on ent
ri es
Ġb ut
Ġdo es
m odule
ms g
Ġfil ter
i mage
)) )
and ler
P ro
er r
yste m
qu ence
pe d
A N
Ġ_ _
sen t
a st
` .
Ġa ss
d is
iz ed
Ġw ork
d b
co re
Ġcon text
Ġi ter
Ġm o
col umn
Ġ.. .
or s
l p
m en
Ġ J
f loat
Ġdo c
p lot
qui red
at s
Ġs ign
Ġm odule
Ġresult s
c ul
po p
tr ans
Ġm sg
le ction
ĊĠĠĠĠĠĠĠĠĠĠĠĠĠĠĠĠĠĠĠĠĠĠĠĠ ĠĠĠĠĠĠĠ
Ċ ĠĠĠĠ
id x
] :
m t
Ġg ra
ot al
pp ing
t arget
m atch
che s
a uth
Ġas sert
di re
cal e
and om
ri al
Ġdi ctionary
n s
p ri
S e
Ġdef in
ind ow
Ġf e
che ma
Ġc lient
at tern
ĠS e
Ġlen gth
cl s
con text
ĊĠĠĠĠĠĠĠĠ ĠĠ
ile d
p r
i o
Ġy ou
lin k
r type
Ġs ort
Ġ ['
mp ty
Ġwh ile
a p
ta g
Ġj son
Ġb lock
Ġ --
Ġ .
l d
Ġpar ameters
R es
fo re
re ak
yn c
Ġreturn s
Ġoption s
T E
t x
ut ils
Ġres ource
i ble
o f
Ċ ĊĠ
co mmand
p l
le vel
v ed
f ind
Ġpro cess
Ġargument s
Ġre cord
G et
Ġw as
at ing
Ġof f
con d
Ġpro vi
Ġor der
Ġla st
c cess
Ġa uth
mb da
u d
Ġc orre
Ġa ct
Ġ val
res h
Ġp ri
option s
Ġun i
Ġpar ameter
Ġ 5
r ange
p end
Ġc ls
) ]
Ġpa rent
Ġa v
[ -
ĠEx ception
n t
f ter
Ġ qu
Ġo per
Ġex tra
Ġh ost
T I
Ġy ield
s ign
Ġ( '
if y
Ġ---- ---
Ġt a
ifi er
Ġb ack
form ation
Ġs c
Ġreturn ed
ĊĠĠĠĠĠĠĠĠ ĠĠĠĠĠ
Ġin di
Ġ Q
que ue
pla y
rig ht
Ġs ame
read y
ro ot
F ile
Ġ Y
se ssion
Ġc ase
Ġser ver
co ding
c ate
vi ron
lin es
Ġa d
ĠC o
re place
Ġch ange
Ġst atus
Ġname s
m an
Ġt ask
Ġf ol
Ġdire ctory
Ġne ed
im um
do c
č ĊĠĠĠ
6 4
Ġpro per
te mp
r an
Ġ q
i ss
r it
Ġch ar
3 2
stri p
Ġpar ser
S et
Ġm ode
Ġs ys
' ))
Ġpar t
Ġar g
Ġm ult
ef ault
st amp
P E
s u
Ġe d
Ġw here
m ode
n er
num ber
A r
x y
w idth
Ġdi ff
Ġs hape
ĊĠĠĠĠĠĠĠĠ ĠĠĠĠ
o me
f rame
Ġma ke
col or
trib utes
st ore
cur rent
r t
co py
1 2
Ġlo ad
Ġkey s
ĠI D
L ist
) ):
a in
re q
ition s
R L
Ġa ction
ĠA n
Ġhe ader
Ġt f
') ,
pre fix
Ġf ind
w ise
ch ange
iz ation
Ġco unt
ord er
T P
c md
Ġn ext
v id
co mm
U n
g en
a re
ĠG et
lo c
Ġb reak
ca che
low er
Ġax is
} )
at ive
Ġt ag
D e
ur i
le s
Ġlo cal
lob al
la st
ai lable
Ġn umpy
ar ts
Ġid ent
ff er
Ġp ort
( *
ing le
Ġtime out
Ġpar se
field s
Ġcol or
A C
Ġse ssion
he ader
res ource
ĠRe turn
Ġre pre
ise s
li mit
Ġal low
add ress
p rint
f unction
ĠT ype
'] .
Ġm ore
E N
le ase
Ġch ild
n a
ax is
ti es
ut o
ust om
Ġth an
.. .
Ġal ready
'] :
li cation
d u
Ġp lot
Ġde l
el l
v is
T o
Ġp age
se arch
ol s
D O
Ġin te
E lement
ar gument
Ġd type
} ,
ve ctor
ĠF or
Ġa g
Ġ' .
Ġma y
con ds
c or
Ġd f
Ġor ig
Ġsup port
u id
Ġex ception
tern al
ex ist
t ask
ser ver
Ġf la
st ream
Ġobject s
st er
gra ph
Ġser vice
Ex ception
Ġthe re
M e
Ċ ĠĠĠĠĠĠ
y mb
Ġp as
Ġm an
i b
ht tp
str uct
Ġhe aders
Ġro ot
F I
Ġin fo
ist er
Ġre f
Ġfield s
m ary
ĊĠĠĠĠĠĠĠĠ ĊĠĠĠĠĠĠĠ
Ġs ingle
Ċĉĉ ĉ
t itle
S S
li ke
Ġt w
t ps
pa ss
to p
Ġte st
pa rent
==== ====
ch ild
at ures
op en
off set
z er
y load
ma il
e lement
Ġex ec
Ġprovi ded
Ġde st
mple ment
pt h
Ġla y
n et
f y
st ra
Ġc md
L O
o se
men sion
scri pt
Ġen um
Ġbe t
Ġse arch
par t
D i
] ]
V alue
pect ed
Ġli mit
he ther
Ġfor m
R O
Ġhe lp
ust er
Ġcall back
ex ec
Ġent ry
Ġ Key
Ġp i
Ġin formation
Ġoff set
a ger
Ġ> =
` ,
-------- --------
Ġte mp
Ġ' %
Ġte mplate
'] ['
Ġ job
mi ssion
m ote
wa it
g or
ent ial
Ġpro ject
Ġle vel
ĠD efault
en v
lo cal
Ġst ream
Ġn on
qu en
ĠS et
#### ####
Ġlog ging
c li
p age
y le
Ġin clude
Re turn
p ha
( _
Ġpas sed
we en
ex ception
F rame
Ġf unc
Ġat tribute
ma sk
re cord
Ġso me
i de
er ge
g ment
te st
gra m
G E
re t
con tain
ĊĠĠĠĠĠĠĠĠĠĠĠĠĠĠĠĠ Ġ
ĠW e
clo se
( {
L I
ro und
co pe
00 0
Ġhas attr
un i
q l
ma g
re turns
Ġc l
f low
Ġi ts
ht ml
Ġw ord
Ġpre fix
Ġcontain ing
Ġin st
Ġlin es
Ġa b
M L
Ġp h
Ġex p
Ġby tes
ut il
n own
by tes
Ġat tr
Ġ< =
ĊĠĠĠĠĠĠĠĠĠĠĠĠĠĠĠĠ ĠĠĠĠĠ
ex p
g ener
h ash
Ġ ""
L o
de red
S I
C O
Ġre move
st arts
Ġco ord
c at
ĠD ata
la s
S er
b in
ĠA dd
Ġs alt
Ġ vi
Ġw rite
Ġme tadata
Ġs um
ĊĠĠĠĠĠĠĠĠĠĠĠĠĠĠĠĠĠĠĠĠĠĠĠĠĠĠĠĠĠĠĠĠĠĠĠĠĠĠĠĠ ĠĠĠĠĠĠĠĠ
t he
re move
Ġi gn
ĠP y
bo se
in it
Ġ &
pro ject
Ġmat rix
Ġa fter
`` .
st d
Ġin itial
Ġma p
ug h
Ġca che
ch ar
f n
point s
ĠC reate
ter m
er ate
me tadata
he aders
Ġco py
Ġadd ress
or age
t ree
Ġlo cation
call back
it ies
m on
en code
Ġite ms
con nect
. ')
Ġs ample
ĠD e
par ser
p ack
sen d
Ġcon vert
bo x
qu al
Ġbe fore
pp er
[: ,
Ġco mple
Ġ 6
Ġdate time
de l
date time
] ))
s ort
il ity
2 5
ĊĠĠĠĠĠĠĠĠĠĠĠĠĠĠĠĠ ĠĠĠĠ
. ")
a ss
Ġb ody
Ġre quired
lo cation
u x
e ar
id ent
ch annel
T TP
v o
i od
Ġbet ween
Ġp ackage
c ry
ĠType Error
ol ume
ith er
Ġlin k
te mplate
co un
Ġspeci fi
l ation
g o
tri c
U T
ra p
bu ild
ser vice
tr ing
Ġco mm
ition al
h andle
starts with
Ġdata set
č Ċ
log ger
Ġto p
Ġc lo
Ġfol low
Ġg en
po st
g r
Ġf rame
f ul
own load
igh ts
ver se
Ġt er
Ġerror s
} '.
Ġf ull
Ġstr uct
Ġse quence
Ġn ormal
Ġav ailable
ĊĠĠĠĠĠĠĠĠĠĠĠĠĠĠĠĠ ĠĠ
T ime
Ġgra ph
. ,
ul ar
U L
Ġ K
d type
c er
w er
ĠA PI
R I
Ġcon nection
Ġch annel
Ġget attr
p ol
f la
id get
Ġme m
ĠL ist
di m
" ):
ĊĠĠĠĠĠĠĠĠĠĠĠĠĠĠĠĠĠĠĠĠĠĠĠĠĠĠĠĠĠĠĠĠ ĠĠĠ
time out
Ġ1 0
Ġconfig uration
Ġth read
b ar
exist s
Ġco m
v ariable
bo ol
ĠP ro
Ġtw o
ifi cation
b ro
pre ssion
en s
Ġde vice
9 9
lic y
ĊĠĠĠĠ ĊĠĠĠ
iz er
on ly
m od
S ON
Ġcolumn s
ĊĠĠĠĠĠĠĠĠ ĠĠĠĠĠĠ
o red
ĊĠĠĠĠĠĠĠĠĠĠĠĠĠĠĠĠĠĠĠĠĠĠĠĠ ĠĠĠĠ
Ġv ar
b it
= {
w ard
Ġo ld
ge s
f er
st ack
en sor
Ġenum erate
node s
Ġn etwork
: ]
Ġd b
M A
in ation
ĊĠĠĠĠĠĠĠĠĠĠĠĠĠĠĠĠĠĠĠĠĠĠĠĠ Ġ
c f
Ġe mpty
s pec
y m
se rial
1 6
r s
ar n
00 00
i ce
Ġ ]
an k
ĠU n
e st
Ġdoc ument
Ġh andle
x ml
Ġbu ild
Ġsort ed
A D
Ġa pi
le t
Ġra w
et ch
Ġa li
me m
t uple
ption al
ver y
] ['
IN G
Ġlo ok
Ġ 8
m y
p ub
able d
ut f
it or
Ġ err
N A
S ub
p k
set tings
result s
de lete
ch o
Ġt otal
s ample
Ġcal led
T Y
A dd
ĊĠĠĠĠĠĠĠĠĠĠĠĠĠĠĠĠ ĠĠĠĠĠĠ
Ġal so
Ġs k
Ġ' '
ion s
T he
ic s
Ġcal cul
on t
o pts
Ġbe en
c le
pro per
Ġcreate d
ĠT O
o ver
b ody
Ġname space
Ġpass word
val s
Ġnode s
ĠC heck
a it
w arning
Ġch unk
Ġb in
Ġt itle
end s
me ta
1 1
Ġex ten
ĠS t
par ameters
ymb ol
ro p
viron ment
an ts
se q
n ow
ip le
= [
ang u
angu age
or g
Ġl at
g rid
Ġde scription
oth er
p on
Ġexist s
qui re
contain er
Ġdiff e
č ĊĠĠĠĠĠĠĠĠĠĠĠĠĠĠĠ
r iter
la mbda
F a
l per
ĠN ot
it ude
n ext
de code
Ġs ave
Ġli ke
Ġm ask
Ġse e
Ġcomp onent
ent ry
Ġf inal
iss ing
ĠR a
Ġpoint s
Ġbo und
s ave
i str
ĊĠĠĠĠĠĠĠĠĠĠĠĠĠĠĠĠĠĠĠĠĠĠĠĠĠĠĠĠĠĠĠĠĠĠĠĠĠĠĠĠ ĠĠĠĠĠĠĠĠĠĠĠĠĠĠĠĠ
column s
me di
b atch
ge st
ol der
( **
ta ils
o lean
las ses
ste p
ĠSe e
ro ll
c p
de scription
ĊĠĠĠĠĠĠĠĠĠĠĠĠĠĠĠĠĠĠĠĠĠĠĠĠ ĠĠĠĠĠ
der r
ext ra
f ull
) [
n etwork
label s
Ġre ference
co ord
ĊĠĠĠĠĠĠĠĠĠĠĠĠĠĠĠĠĠĠĠĠĠĠĠĠ ĠĠ
ol ution
ro l
con f
Ġset tings
N ot
vi ces
se ction
li ce
com ment
E n
he d
C h
m ark
ir s
C ol
ĠU RL
\ \
Ġdata base
o b
ug in
o c
Ġg o
s up
pa ce
ri pt
C E
Ġp attern
o per
ge x
Ġw idth
Ġex ample
Ġi m
ĠA t
ri de
vi ous
lay er
Ġr andom
Ġhas h
Ġsu ccess
us h
Ġkey word
Ġv ari
to col
con t
me an
le ft
Ġsh ow
Ġst ep
Ġex t
Ġtype s
Ġpos ition
s peci
d en
mat rix
Ġc li
in ed
al og
C H
Ġchar act
U N
p date
cl u
Ġo p
an not
pon se
Ġthe m
Ġ' /
Ġen coding
Ġo b
'] [
st at
Ġsp lit
Ġbase d
m ult
ĠE T
Ġen v
s a
v es
Ġat tributes
Ġp ub
co mple
Ġpl t
con nection
') .
Ġrequest s
P O
Ġdefin ed
in di
Ġb atch
path s
h as
Ġht tp
ĠI t
Ġse nd
di st
Ġw hether
um ber
p ackage
Ġid x
v ate
- +
ext end
d ump
Ġt ree
Ġse lect
Ġo pt
Ġdi mension
ke ep
Ġac cess
object s
`` ,
di ff
Ġpy thon
Ġe ither
o ci
Ġj ust
ĠEx ample
. "
Ġde pend
M P
Ġw ant
in st
N o
Ġst d
D I
Ġli b
a ded
ĠTO DO
Ġexten sion
Ġde lete
g in
bo und
ĠR un
Ġlabel s
Ġin d
AT E
Ġexist ing
i ck
ĠN ote
th ing
Ġs a
ra pper
stri b
g ress
P ath
ci es
F A
Ġ" %
Ġ vector
ste ad
Ġre place
Ġinte ger
resh old
cry pt
Ġm ark
C reate
Ġst op
Ġ' -
v ari
Con fig
Ġelement s
Ġ view
Ġlay er
2 0
ĠKey Error
Ġfor ce
ĠL O
Di ct
pass word
ss ible
Ġstring s
p c
al id
pos it
or ig
al ys
f fix
w h
Ġother wise
ĠL o
st op
Ġcorre spon
:` ~
in ce
Ġs chema
Ġfe ature
ent ic
= (
Ġr ule
fi rst
s rc
'' '
n g
val u
ent s
si de
add r
Ġcontain er
me d
s chema
ĠJ SON
d uct
Ġpo st
O bject
g ory
w w
de vice
h andler
t ry
L A
Ġpa yload
st ats
)) ,
p attern
r andom
ca de
z one
ol ve
Ġrepre sen
ro ugh
C T
act ive
Ġt mp
ran ch
ca use
Ġ right
Ġsup er
Ġorig inal
', '
] ):
Ġcon nect
ex c
r ans
f l
Ġhe re
Ġz ip
group s
bu ffer
del ta
ĠN ame
Ġ' {
__ ['
pro file
Ġme ta
ig ma
T h
il y
F F
Ġex c
o pt
Ġg lobal
v en
Ġse n
z ip
red ential
r m
gor ith
ing s
r ary
ac cess
ĠD i
f s
f ra
Ġpro file
s amples
Ġoper ation
Ġs i
ator s
iv ed
Ġs ystem
Ġcoord in
as on
ĠPy thon
C lass
Ġthe y
Ġc ustom
ta gs
data set
re quen
Ġw indow
In valid
A t
r ule
ver age
Ġvariable s
zer os
dire ct
Ġh andler
m ath
ĠRa ises
do main
Ġn ow
Re quest
er o
Ġcontain s
Ġ queue
Ġst at
C ON
Ġfi g
Ġw ait
Ġin stead
sh ow
ra ph
ĠH TTP
r ate
st yle
s ys
e ded
Ġle ft
Ġcon d
row s
Ġmo di
ĠR es
ĠM e
} ".
li ed
ĠO ptional
Ġfollow ing
h ot
t rue
TI ON
Ġd on
Ġla mbda
Re turns
Ġp la
dire ctory
ĊĠĠĠĠĠĠĠĠĠĠĠĠĠĠĠĠĠĠĠĠĠĠĠĠ ĠĠĠĠĠĠ
Ġc er
k er
Ġs rc
nd array
Ġ' ,
ra ise
Ġrow s
s v
t mp
P o
i as
da y
Ġign ore
TY PE
0 4
Ġm issing
Ġht tps
ce ll
Ġfa iled
Ġdi stance
alys is
ff ect
Ġse ction
h er
t otal
Ġuni que
O T
m al
re l
option al
tx t
s ystem
Ġse conds
ri p
Ġu s
Ġma pping
Ġ' \
s alt
lat ive
a ke
" ],
ĠLO G
Ġ' _
t on
Ġmult iple
mplement ed
re c
d own
pos ition
Ġre mo
Ġuni code
he lper
un it
Ġac count
I T
Ġdiffe rent
Ġdi r
Ġreg ion
Ġdire ct
t ect
Ġp d
S tring
Ġta gs
fi ci
E L
bro cade
str u
ter min
Ġ[ "
s cale
Ġi p
s ha
bo ok
n ormal
Ġfa il
Ġst ore
in k
Ġver bose
Ġpar sed
Ġme an
p ly
he ll
a bs
and ard
w d
N ode
5 0
NA ME
e k
Ġ ge
ma ke
Ġp ol
gorith m
Ġch o
Ġsupport ed
Ġp e
ce d
Ġad ded
ĠT o
user name
L og
se lect
Ġ( "
e red
time stamp
ĠW h
de st
e ve
Ġse rial
Ġse cond
2 4
E T
it es
Ġre mote
Ġsk ip
Ġsign al
cre t
ual ly
Ġre port
Ġ 7
Ġun it
F orm
de v
name space
Ġs ix
Ġre tri
con st
Ġpre vious
UL T
Ġs im
Ġo pts
Ċ ĊĠĠĠĠĠĠĠĠĠĠĠĠĠĠĠĠĠĠĠ
Ġa bs
st im
Ġgener ate
Ġspeci fy
St ate
c an
ck er
Ġp k
h ist
Ġ{} ".
wa re
it ch
g y
Ġproper ties
Ġ und
Ġc ent
Ġs amples
Ġbe cause
Ġuser name
cur s
ch unk
igh b
he ight
-+ -+
Ġi ss
Ġass oci
Ġby te
I te
ta ch
py thon
as ync
ser v
t f
f it
Ġl ong
strib ution
model s
Ġre ce
stra int
b l
Ġ{ "
Ġdis play
Ġma in
In dex
d ot
" ])
ex it
Ġcon s
Ġextra ct
C heck
indi ces
al led
std out
comp onent
N T
0 2
Ġg rid
Ġlo op
Ġre sp
p lo
k nown
Ġproper ty
Sub Element
g ine
Ġa wait
ut ure
Res ponse
Ġwith in
posit ory
Ġ" .
am l
Ġw arning
Ġcon n
ĠCo mp
i mport
Ġth rough
i an
Ġex pected
ĠU se
vid er
Ġal pha
i e
a u
Ġm y
Ġed ge
en cy
an sp
c c
s q
as ure
de pth
at er
Ġin valid
c ase
Ġpo ssible
w indow
wa ys
cal ar
istr y
Ġtra in
Ġre l
and as
Co mp
Ġtime stamp
tra in
< /
el y
1 5
Ġthe ir
a ctions
Ġreg ister
Ġmax imum
error s
Ġm on
Ġpre sent
S C
Ġse par
Ġm erge
ĠG ener
Ġrepre sent
con n
exec ute
Ġfla g
re st
Ġs cale
Ġnot e
Q u
Ġdo main
Ġco un
ca st
Ġapp ro
inter face
Ġv is
c ut
g re
Ġt rue
Ġde cor
ri ver
ĊĠĠĠĠĠĠĠĠĠĠĠĠĠĠĠĠĠĠĠĠĠĠĠĠĠĠĠĠĠĠĠĠ ĠĠĠĠĠĠĠ
ch ron
u red
Ġdi st
Ġse nt
Ġre n
wa y
Ġdis able
Ġcorre ct
Ġindi ces
' }
ter s
s l
Ġm od
ut ed
ĠI P
Ġf it
ith ub
tra ct
T ext
ch ain
set s
co der
Ġy our
] ),
mo unt
Ġhe ight
3 3
method s
Ġbe ing
Ġtrans form
Ġspecifi c
po ch
čĊ čĊĠĠĠĠĠĠĠ
Ġmat ches
Ġst ack
attr s
ĊĠĠĠĠĠĠĠĠĠĠĠĠĠĠĠĠĠĠĠĠĠĠĠĠĠĠĠĠĠĠĠĠ Ġ
in itial
Ġsu ch
Ġinter face
Ġident ifier
n umpy
up per
FA ULT
Ar ray
fe atures
Ġe very
Ċ ĊĠĠĠĠĠ
Ġ keep
in is
yn chron
l ate
Ġ ):
Ġcl uster
ra ises
var s
ti fi
Ġend point
ang le
Ġp ack
and id
ical ly
la p
Ġex pression
Ġx ml
b ab
Ġb oth
Ġde bug
8 0
2 01
co res
In fo
if t
ĠS er
Ġwith out
man ager
Ġthe se
cur ity
Ġac cept
mb ed
Ġ 9
A B
fa ctor
n on
unt il
ĠO n
Ġen vironment
a z
Ġpath s
g it
Ġ ĊĠĠĠĠĠĠĠ
code d
Ġin it
la b
M odel
U S
se quence
ti al
th read
Ġc tx
Ġre al
Ġass ign
E vent
Ġc ell
ro ss
ĠAt tribute
lat form
Ġf l
A n
e ps
Ġs pec
Ġre q
redential s
Ġcol lection
requen cy
proper ties
b ot
K E
Ġc ha
F ound
bo ard
Ġcorrespon ding
F ield
b ers
Ġab out
na ps
Ġc ate
al y
Ġz ero
I O
le ctor
ar r
T R
C lient
Ġb ot
e mpty
ht tps
pro xy
re po
en sion
coun ts
T ER
Ġrun ning
AN G
Ġc lean
g reg
me th
se conds
o id
Ġ' --
di us
s ite
(' \
Ġs ha
ta x
. '
Ite m
le m
Ġ2 01
Ġs ite
Ġh ist
ä ¸
mb ers
re ference
D B
fe ature
al le
per i
Ġs ure
Ġindi c
* (
col s
s core
ĊĠĠĠĠĠĠĠĠĠĠĠĠĠĠĠĠĠĠĠĠĠĠĠĠĠĠĠĠĠĠĠĠ ĠĠ
naps hot
f older
up lic
an y
Ġs cope
g ments
we ight
Ġbo olean
al pha
Ġtime s
ed ge
Ċĉĉĉ ĉ
Ġw rit
og le
Ġapp ly
b its
g lobal
g round
[: -
/ {
j ust
ut om
he ad
tri cs
add ing
ac count
t c
Ġfi x
Ġdoes n
iv es
g ht
st derr
Ġmatch ing
Ġpo p
A S
and l
5 5
es c
Ġwe ight
s cope
valid ate
I P
Ġdefault s
en coding
Ġmessage s
i er
Ġcan not
it ive
Ġcon f
trans form
w s
1 4
ct x
_ {
Ġp ix
E X
iv ity
p atch
te red
re quired
li m
in sert
Ġwe ights
Ġin clu
le ss
lo op
al cul
cent er
Ġre st
Ġcon st
c ard
se ries
i a
Ġb it
et ri
Ġn d
Ġh ow
Ġund er
che me
Ġmem ory
at io
term ine
c lasses
ma pping
: %
Ġco uld
i re
yn am
reg ion
Ġstruct ure
Ġ{} '.
3 0
iz es
_ ,
de pend
ĠEx amples
Ġf n
1 9
u sed
Ġ1 00
Ġv olume
a f
id den
Ġs pace
u ild
Ġ Z
ck s
y ear
port ed
Ġdel ta
Fa iled
Me ssage
e mail
ul ation
Ġse q
to m
n an
1 00
el s
d t
clo ud
I ON
Res ult
par ts
ĊĠĠĠĠĠĠĠĠĠĠĠĠĠĠĠĠĠĠĠĠĠĠĠĠĠĠĠĠĠĠĠĠ ĠĠĠĠ
vis ion
Ġst ats
child ren
Ġso cket
l an
Re ad
li sh
Ġvalid ate
Ġbe st
Ġs ince
word s
Data Frame
i k
Ġmethod s
ari es
o uld
Ġsc ript
w here
D F
u uid
pe line
V ER
} {
Ġcal lable
G ER
Ġ1 2
ad ded
Ġevent s
time s
feren ces
Ġse ries
Ġag ain
= %
comm on
S O
or ity
B y
__ ,
at tributes
end ing
w arn
T O
Ġd own
p id
U ser
######## ########
le ep
Ġcur sor
Ġcomp ute
Ġd one
Ġde pth
n orm
Ġassoci ated
re port
A P
s ure
(' /
Ġpar ts
Ġ' *
ta il
Ġallow ed
Ġf ra
lic it
Ġ' {}
ĠRun time
pa yload
Q U
ok up
do cs
Ġfunction s
cs v
me tric
per iod
Ġan g
ynchron ous
Ġh igh
N O
le g
a uto
Ġtoken s
Ġre lative
ol ver
he x
Ġfe atures
ne ss
is ion
Ġlo wer
Ġan not
cl uster
" ))
Par ser
Ġbu cket
un its
Ġt ri
H E
Ġinput s
en o
S P
di ms
Ġe stim
Ġe qual
Ġo ur
Ġd a
pi x
ĠAttribute Error
Ġchange s
Ġfla gs
to ols
de sc
im g
Ġe mail
} .
Ġw ould
ol ute
ĠWh en
i ent
Ġper iod
Ġl on
inter val
Ġn et
Ġfa ctor
serial ize
R un
se c
Ġapp lication
Ġ# #
con vert
Ġo w
Ġcom ment
Ġwh at
ident ifier
di stance
U R
In stance
Ġclo se
( -
d r
il ter
Ġi mp
Ġbu ffer
v m
ve c
Ġme tric
> `
M O
le ted
o x
Ġd ownload
U RL
Ġiter able
Ġcoordin ates
Ġne eded
Ġt x
ĠF ile
cf g
v ing
} \
Ġupdate d
======== ========
l on
Ġcontent s
Ġst orage
ends with
Ġ utils
ent ity
Ġo c
Ġde tails
po licy
r ation
ces sed
** **
dump s
ge d
exception s
Ġse gment
Ċ Ċĉ
Ġ( (
Ġe valu
ers ion
tra ce
Ġent ity
B U
O ut
Ġst yle
al s
() ):
Ġali gn
Ġvi a
A M
mp t
Ġro ute
Ġm ath
ak es
Ġrepresen ting
pre c
Ġremo ved
GE T
Ġsign ature
doc ument
ĠN o
uni que
token s
Ar gument
variable s
Ġfol der
reg ister
Ġbin ary
l int
ome try
Ġc re
z e
av ed
Ġass ume
fa st
c orre
ĠRuntime Error
O r
P y
pa re
Ġgroup s
" ),
Ġre po
Ġind ent
ho ok
() ))
Ġdi stribution
Ġper form
Ġd t
A pp
P er
Ġadd itional
Ġs m
ren ce
A uth
Ġun its
at tribute
Ġar ch
b ed
ens ity
Ġ" {
Ġ} ,
comm it
Ġinstance s
Ġal ways
(' %
Ġl anguage
6 0
cur sor
tifi cate
Ġre quire
Ġpre di
s pe
re al
ched ule
() [
o le
ER R
E S
In ter
Ġk er
s m
r u
en viron
le ar
G roup
c b
} '
jo bs
Ġstd out
log ging
l ong
r f
Ġauth or
load s
Ġs core
al ign
Ġt ensor
Ġent ries
Ġst ored
fi ll
3 4
Ġcli ck
uni code
ur se
w itch
w rap
ul ate
c lean
bu cket
Ġin sert
Ġtra ce
ĠD o
il der
E D
lat ten
ĠU pdate
P re
int e
f etch
P AT
Ġlo c
pre ss
Ġax es
par ameter
iv ely
T H
Ġco mb
(' -
ĠC LI
utom at
Ġter m
Ġa uto
co s
sq rt
. *
al low
di o
col lection
Ġpl ugin
quen ces
Ġst andard
/ %
plot lib
Se ssion
ver s
for med
i fied
Ġ until
fla gs
en cies
ĠDefault s
dis play
KE Y
as ic
Ġact ive
ch ine
Ġ_ ,
Ġim g
ex pected
Ġrequest ed
DE FAULT
s ql
Ġf ill
st ates
Ġy ang
Ġro le
Ġcharact ers
re mote
Ġpri vate
f name
u i
Ġmult i
ĠO r
Ġinter val
Ġw rap
Ġpro xy
v s
zer o
( ['
Con text
ci mal
ut ing
Ġrepresent ation
di mension
ĠD E
dir name
({ '
Con tent
c ustom
A PI
de c
ĠAr gument
Ġdest ination
Ġ" \
he s
Form at
qui res
I L
mission s
am s
- %
ĠO ther
ĊĠĠĠĠĠĠĠĠĠĠĠĠĠĠĠĠĠĠĠĠĠĠĠĠĠĠĠĠĠĠĠĠ ĠĠĠĠĠ
ĊĠĠĠĠĠĠĠĠĠĠĠĠĠĠĠĠĠĠĠĠĠĠĠĠĠĠĠĠĠĠĠĠ ĠĠĠĠĠĠ
ĠĠĠĠĠĠĠĠĠĠĠĠĠĠĠĠ ĠĠĠĠĠĠĠĠĠĠĠĠĠĠĠĠ
change s
peri ment
ur ing
fi gs
Ġm ost
ste ps
s id
Ġ- =
se p
Ġc at
auth or
s pect
Ġnd array
st orage
Ġact ual
m erge
stri ct
Ġbo x
Ġc or
ang o
Ġgener ated
b ind
an e
rt ual
f g
Ġin ternal
Ġret ry
ver bose
event s
s n
Ġ} )
for ce
pa c
so cket
o ps
il t
log y
Ġex it
Ġme di
Ġme ans
ĠN umber
de s
(" %
S ize
Ġsh ort
ble m
Ġpa ir
Pro cess
ue s
Ġcomple te
am ily
Ġwe re
In put
G ener
ut able
q a
Ġpla ce
en gth
Ġw rapper
d at
Ġname d
ma c
1 3
S H
g p
Q L
f d
ed ges
bo ve
F O
U P
Ġcomm on
T e
m g
g ithub
po ol
def in
Par se
'] (
fa ct
Ġgener ator
s ymbol
Ġopt im
Ġs ur
' \
ĠI O
n ull
ĠE n
res hape
ĠData Frame
Ġcha in
ro ute
Ġ" ,
ĠA pp
__ )
. )
H andler
st ed
in clude
Ġmodel s
Ġ" /
er ic
ĠP ath
g ative
input s
LO G
ath er
ĠAn y
O n
Ġ uri
Ġcharact er
le ctions
we ights
1 8
ef fici
Ġrecord s
Ġimage s
Ġex clude
Re g
č ĊĠĠĠĠĠĠĠĠĠĠĠĠĠĠĠĠĠĠĠ
Ġset ting
ĠV alid
app lication
entic ation
Ġinst all
lay ers
default s
he lp
AT ION
Ġht ml
ist ered
I mage
_ .
ĠR E
fla g
(" \
Ġle ast
Ġfilter s
Ġpro bab
ĠC h
Ġpy lint
ma ster
ĠP er
co me
= {}
al k
B ase
j e
coord s
cle ar
Ġd ay
pt er
Ġpo ol
roll er
1 7
by te
la ck
Ġal gorithm
module s
Ġselect ed
P C
sp an
x x
lo aded
en ded
Ġma g
Ġre c
Ġat temp
Ġre gex
ci i
ign ore
N D
U pdate
Ġ join
ro le
Ġcomp at
f mt
mem ber
pro p
Ġ2 00
L e
t ion
ser ved
g a
en se
C K
r b
mo di
ot ential
ext ension
Ġdirect ly
si red
P RO
v olume
ĠO S
ĠW hether
Ġz one
Ġno qa
Ġl ar
Ġpa irs
end point
se cret
ow er
Ġi mplement
am ma
yn tax
Ġen sure
Ġcalcul ate
Ġd er
č ĊĠĠĠĠĠĠĠĠ
def ined
Ġw ay
cord ing
T rans
Ġover ride
code s
ĠIn dex
T able
Ġapp end
] +
Ġb l
Ġg re
sum mary
Ġh params
Qu ery
5 6
r l
su ccess
Ġsu bject
Ġb ranch
D ate
ut ation
Ġlist s
Ġdis k
Ġdefin ition
Ġid s
ĠU ser
Ġman y
il ar
ta ct
ĠA l
g ate
Ġma k
g b
Ġsuccess ful
Ġas ync
y g
Ġf mt
port s
mi ss
Ġ kw
ase s
H e
ĊĠĠĠĠĠĠĠĠĠĠĠĠĠĠĠĠĠĠĠĠĠĠĠĠĠĠĠĠĠĠĠĠĠĠĠĠĠĠĠĠ ĠĠĠ
inst all
re lease
Ġsu ffix
ĠA s
f req
re gex
N S
V AL
Ġde sc
Ġdire ction
mpl ing
Ġs ymbol
Ġpro gress
s lice
fi c
cess ary
Ġre verse
ex pr
Ġd raw
er ature
Ġs ym
al ias
all back
Ġuse s
s ig
di c
ĠĠĠĠĠĠĠĠ Ġ
Th is
plo y
Ġdecor ator
Ġgen e
ph i
n n
arg v
Ġren der
j ango
k ind
u ble
ten sor
Ġneed s
l anguage
Ġup per
Ġpack et
sign al
Ġy ear
Ġh o
file path
Ġpro tocol
Ġs ql
a fter
w in
he et
} "
Ġ $
Ġed ges
D is
ĠC ol
Ġ'* '
ĠT ime
Ġlo ck
Ġcall ing
Ġf alse
V alid
link s
2 2
Ġpo licy
Ġwarning s
w rit
W S
proper ty
I G
res sed
ĠS tring
Ġcent er
os ition
, )
FI LE
Ġf etch
tr ansp
w idget
) /
Ġ' ',
Ġm u
Ġ1 6
C S
Ġb ash
n one
Ġtrans action
Ġhe ad
Ġ% (
V ersion
St atus
ar m
čĊĠĠĠĠĠĠĠĠ čĊĠĠĠĠĠĠĠ
fo o
Ġ/ /
Ġcond ition
Ġf name
du ce
ta b
Ġc types
ï ¼
Ġcomm it
app ly
Ġfinal ly
Ġ ĊĠĠĠ
change d
) ])
Ġmin imum
s im
Ġcon ver
ĠOn ly
Ġa utomat
Ġt y
M an
Ġth ose
ci p
ĠB y
ERR OR
Ġarray s
Ġth reshold
Ġf p
) *
S h
ĠQ u
2 00
gen e
Ġw idget
D S
I ter
u int
bu f
lo okup
G raph
() ]
Ġa bove
Ġro t
Ġc y
F or
to re
Ġan alysis
Ġpre v
main ing
Ġta ke
ic le
ĠIn valid
ces ses
Ġpro p
E nt
Ġr ate
sort ed
d ownload
data base
ca b
o bs
li ght
Ġker nel
Ġchange d
comple te
S tr
Ġa mount
__ .
Ġcomponent s
mult i
comp ile
Ġde tect
Ġvari ant
Ġ ,
fa il
Ġattr s
ĠM ake
i ces
t ty
m u
ve lo
element s
on s
ra in
Ġcommand s
c la
base name
Ġt rig
le x
Ġde scri
Ġchild ren
pub lic
ĠX ML
} }
su ffix
andl ers
Ġpub lic
Ġ' ')
ok ie
Ġa st
Ġac cording
N umber
ra g
Ġf low
so le
Ġextension s
s ym
ro t
ww w
Ġan other
O P
Ġsup p
mon th
s leep
Ġnum bers
en e
ist ics
ĠRe ad
th reshold
PO ST
H TTP
(' --
Ġmem ber
Ġcate gory
' re
PAT H
de tails
ass ign
---------------- ----------------
andid ate
6 6
ĠOther wise
Ġst ates
: -
exp and
ax es
Ġs lice
0 5
mem ory
Ġe tc
Ġpro duct
Ġp andas
Ġ[ (
im er
content s
Ġsub process
Ġpk g
resource s
Ġlook up
0 3
ac y
Ġver ify
Co unt
vi de
= _
Ġex pi
ĠCon vert
t z
U M
script or
Ġpi ck
el ls
Re c
e ff
ĠCon fig
Ġdimension s
Ġexception s
Ġb ar
D esc
Ġc p
t l
] *
Ġ" -
ĠRe move
channel s
Ġf uture
Ex ec
gener ate
m id
e val
fra c
Ġre pository
Ġb its
g t
Ġst derr
St art
a bel
Ġcurrent ly
Ġ" _
Ġ{} ,
le v
Ġsum mary
Ġback end
Ġali as
F rom
Ġs pe
fa ces
ut ton
filter s
o ms
ĠY ou
Ġre ason
ĠĠĠĠĠĠĠĠ ĠĠ
sp ath
L ine
Ġwe b
ug ins
vert ex
ç ļ
(' .
Ġen coded
ast ype
Ġlib rary
C ode
I M
Ġd at
Ġexec ute
pk g
Con nection
SE T
Ġter min
ĠA ll
ag ent
çļ Ħ
ut er
o gram
Ġc lasses
c d
i ew
Ġk ind
inis hed
ad min
A s
Ġstart ing
oper ation
Ġcont rol
th is
Ġde sired
Ġang le
Ġ( %
col ors
Ġoper ator
ic ro
Ġne cessary
ci py
be st
re set
.. ..
res ses
Ġset up
Ġup load
ĠN O
sa fe
ĠArgument s
Ġv m
Ser ies
pro tocol
Ġh y
curs ive
ype s
M S
b ins
per ation
s igma
Ġs igma
Ġsc an
M ap
ĠĠĠĠĠĠĠĠ ĠĠĠ
i fe
g g
one s
Ġign ored
li es
Ġcall s
A GE
"] .
cate gory
Ġword s
miss ing
sc a
Ġs ide
per cent
straint s
l ing
Ġb ro
se gment
ĠF ind
Ġc fg
Ġre set
Ġtra ck
hist ory
R A
} /
Ġp ut
ti ces
ĠS peci
ymb ols
Ġ util
extra ct
part ition
Po int
at ches
AT A
en um
argument s
Ġinclu ded
Ġoc cur
con s
Re cord
pa ir
Ġsi mple
sh ort
lo ts
Ġuser s
s d
in es
vid ual
D o
Ġs hell
Ġ" {}
Ġ[ ],
Ser vice
t k
I S
ip s
in f
Ġd uration
Ġb ind
Ġre lation
p ad
A l
ĠPar se
Ġe ffect
Ġdi m
ib ility
log in
ne ctions
d raw
'] ))
"] :
und le
b ranch
Ġf requency
to ol
ma ss
be fore
f un
å ı
ance l
Ġw ell
Ġre lease
Ġde termine
je ction
Ġme asure
ctor ies
Ġresource s
) "
ĠT rans
Ġvalid ation
su bject
Ġs ig
Ġd uring
not e
medi ate
f inal
Ġ ))
ĊĠĠĠĠĠĠĠĠĠĠĠĠĠĠĠĠĠĠĠĠĠĠĠĠĠĠĠĠĠĠĠĠĠĠĠĠĠĠĠĠ Ġ
ro py
Ġma ster
Ġbe low
ol ved
Ġorig in
2 3
sc an
pl ugin
alcul ate
r and
Ġ ),
Ġp ad
Ġinst alled
are a
ĠĠĠĠĠĠĠĠ ĠĠĠĠ
Ġlo aded
Ġal ong
comp ute
] ])
Ċ ĊĊĠĠĠ
Ġfa st
coun ter
` :
Ġ ut
Ġph ase
fo und
5 01
Ġpart ition
Ġs calar
c r
: \
tri es
Ġtuple s
re pr
Ġse ed
ĠIO Error
Ġn orm
T ree
um b
__ (
Ġraise d
h s
Ġra dius
Ġto o
dir s
gor ies
Ġse ts
T ML
con cat
ĠUn i
in valid
re p
P AR
Ġmon th
f p
u ff
ik i
ind ent
fa ctory
red u
pri ate
AB LE
and s
cl us
F OR
O f
Ġav oid
d rop
ls o
al ity
k s
alle l
Ġ[ ])
-+-+ -+-+
Ġa p
Ġcol ors
image s
ho me
component s
Ġ" --
da ys
7 5
Ġne ighb
ynam ic
Ġc lear
set default
Co uld
Ġst eps
Ġautomat ically
p ing
Not Found
{} '.
Ġas ynchronous
ar s
ret ry
as cii
ĊĠĠĠĠĠĠĠĠĠĠĠĠĠĠĠĠĠĠĠĠĠĠĠĠĠĠĠĠĠĠĠĠĠĠĠĠĠĠĠĠ ĠĠ
Ġp adding
Ġbe gin
8 4
se ss
Ġde leted
X X
Ġper cent
ĠL og
ne ighb
Ġd st
Ġc redentials
mat ches
iter items
% (
A G
fi rm
TI ME
ĉ ĉ
Ġf o
Ġca ched
ĠP re
Ġsupp lied
sk ip
: ])
be ta
ĠY ANG
is file
I C
li p
Ġmo ve
bin ary
set up
struct ure
lay out
â Ķ
Ġappro priate
en abled
g ers
ĠI N
Ġmodi fied
Ġ[ [
prec ated
ĠB o
crypt ed
Lo ad
block s
lo ss
serv ation
"] ["
ĠH e
Ġd rop
cer t
ut or
pro c
Res ource
ist ent
Ġfig ure
dered Dict
uplic ate
C ur
L ay
fi cation
8 6
d uration
Ġex pect
vari ant
ren ts
Ġexec ution
ex ample
spa ces
Ġspeci al
9 0
Ġin cre
qui val
re r
Ġon ce
ho od
ĠA lso
run ning
cont rol
Ġs aved
Ġm ight
Ġretri eve
pac ity
h igh
par s
n b
s in
ur al
ex pression
d x
ent ries
B u
pro duct
O bj
t w
cond ition
Ġagain st
command s
Ġconvert ed
message s
Ġst ri
Ġtrain ing
) '
ĠT e
Ġpro gram
c ing
) }
Ġc ut
Ġabs olute
c u
Ġfail ure
un ch
Col umn
se cond
Ġn s
gra de
p b
con v
Ġrece ived
)) .
rid ge
Ġex act
Ġr ank
D efault
T S
Ġar r
sing le
( \
To ken
Ġle t
mpl ates
mo oth
we b
sign ature
di ent
BU G
ar ange
record s
se ed
b et
o ugh
j or
our s
Ġex port
C a
de g
Ġre direct
t d
Ġtask s
mg mt
Ġc sv
Ġhe x
Ġg ot
Ġoutput s
di gest
Ġp ers
re ce
Ġin side
sen s
user s
Ġlo w
av a
ĠCo mmand
Ġde termin
ult i
p an
Ġk nown
u ous
Ġen able
Ġre quires
ad a
2 7
Ġfe ed
Ġus age
AC K
en gine
") .
il ities
v as
Ġen abled
= -
Ġbu f
Ġd ump
Ġprovi de
ver ify
Ġre ply
ust ers
Ġ2 0
cat alog
C lo
ĠNot es
O ption
stru ction
, '
i mp
Ġre p
host name
it ed
ti cal
go ogle
j s
v l
St ream
Ġ' __
Ġs cal
si dered
task s
C annot
d st
U B
gre es
Ġformat ted
Ġy et
At tribute
Ġc ir
ĠP o
O L
create d
t ile
or ary
c m
re ssion
Ġcheck s
M M
Ġin v
Ġa ctions
SI ON
4 0
Ġme sh
e cho
Ġreg istered
( ?
in v
W e
W arning
Ġover write
Ġmodule s
re ct
Co mmand
Ġe mbed
Ġnormal ize
ĠLo ad
s ync
'] ]
Ġe ven
F e
ĠI mport
| '
25 6
ri ption
Ġ ~
me mbers
ĠC an
Ġpos itive
Ġd ot
Ġcon sidered
c um
Ġs n
Man ager
i i
Ġcoun ts
T ensor
Ġst rip
Ġs napshot
Ġan s
ĠLOG GER
Ġt ab
d l
pri vate
Ġ ĊĠĠĠĠĠĠĠĠĠĠĠ
back end
Ġse quences
av ing
Ċ Ċ
S A
re at
or iz
ĠE ach
F ilter
( ',
Ġe lem
o om
Ġbound s
A SE
ha vi
Ġapp lied
bound s
ren der
an is
V E
Ġiss ue
S ER
T ra
stru ctor
me trics
Ġle g
Ġn b
at om
C P
( __
ex clude
Ġi mplemented
Ġat om
9 5
pro vider
Ġset attr
limit er
Ġag greg
ĠIn put
riter ia
Me thod
Ġe poch
the ta
f ont
={ '
A ction
string s
D ef
Ġarch ive
Ġwrit ten
indow s
Ġde code
Ġco effici
ĠDi ct
Ġ---- -
Ġpar tial
Ġsm all
ife st
M o
ab spath
ĠD is
ant ity
r r
Ġcoun ter
r al
y aml
se par
Ġp id
defin ition
Ġf ont
w riter
čĊ čĊĠĠĠ
G S
S ource
p d
Ġg it
Ġlog in
Ġexp licit
li s
au ss
ĠQ t
=' ',
Ġpre c
me sh
Ġk now
Ġsa fe
. ",
Ġs l
r atio
er t
Ġc la
O ptional
Ġme trics
Ġare a
ti ck
Ġpro cessed
pro b
Ġchannel s
Ġw in
Ġt akes
Ġd id
ot es
Ġversion added
ker nel
se m
Ġro und
al g
sum er
config uration
V iew
vari ance
W idget
re sp
d le
Ġle ss
source s
Ġat tach
mit ted
A c
Ġ ve
ifi ers
s hell
L IN
Con vert
Ġen gine
process ing
d river
ĠO bject
Ġ{} )
} :
Ġt ile
Ġ' )
Ġst ill
Z E
Ġ' '.
Ġas set
3 6
e poch
Ġman ager
Ġmark er
Ġma c
Ġa verage
. ',
av ailable
F unction
ex pi
Ġor g
Ġne sted
U E
ĠRe quest
or ld
') [
ru pt
Ġin spect
Ġnot ification
target s
3 5
ss l
8 5
e ver
act iv
p latform
9 6
Ġmat plotlib
EN T
x im
ĠI d
Ġre pe
Ġrule s
n dim
s ur
Ġpre dict
= ""
tra ck
Ġne gative
Ġprocess ing
Ġpix el
Ġy aml
Ser ver
read er
ub e
ĊĠĠĠĠĠĠĠĠĠĠĠĠĠĠĠĠĠĠĠĠĠĠĠĠĠĠĠĠĠĠĠĠĠĠĠĠĠĠĠĠ ĠĠĠĠ
C all
Ġpro blem
ot o
bo ot
Le vel
Ġh app
B ox
ĠO pen
fi d
Ġm id
Ġpart ic
orig in
Ġ' <
qu are
Ġ[ -
Out put
Ġsource s
di ag
Ġfile path
be gin
O S
qu ote
pro gress
Ġblock s
Ġimplement ation
re quire
cli p
d one
f in
Ġ1 000
Ġp ower
ĠF I
Con t
I mplemented
quival ent
' "
__ .__
Ġtarget s
up load
Ġstate ment
h ing
Ġm d
Ġp latform
Ġreg istry
Ġdefin ing
Par ams
s cheme
Ġpi peline
[' _
H O
Ġinter pol
Ġma chine
P RE
ir st
Ġwork er
O K
h idden
ĠB uild
lin eno
Ġlat er
Ġsi mp
stat ic
V I
Ġback ground
m ar
Ġag ent
on al
corre ct
iter able
fer red
ĠOS Error
L ink
Ġn one
sh ift
Ġcon struct
Ġp s
E M
reg istry
se e
Ġd s
ran k
is o
rule s
la g
as is
Ġpos itions
st it
di v
Ġwork s
ron g
un pack
Ġfil tered
inte ger
i li
pre di
pre sent
Ġtr ansp
Ġto ol
Ġvi rtual
Ġf d
Ġ å
Ġiter ation
Un able
in c
Ġpro vider
yg on
n ed
Ġversion s
co gn
Ġse lection
Ġspecifi cation
Ġal t
Ġ Error
end er
as set
= ['
m er
p df
Ġact iv
row ser
ï¼ Į
cp u
Ġco urse
ep copy
\ '
e mon
gener ator
Ġco ver
) ;
S pec
Add ress
7 7
Ġreg ular
ul a
P S
ier arch
Ġpri mary
Ġmap ped
Ġb ins
mo st
Ġpackage s
Ġrel ated
c n
_ )
Ġan aly
S tore
Ġin ner
ĠS h
Ġres pect
Ġtop ic
Ġfix ed
Un known
es ca
OR D
Ġwork ing
' |'
ĠI ter
h y
output s
Ġpi pe
ul er
Ġs at
Ġconnect ed
Ġiter ator
B lock
FI G
at trib
en u
Ġex pr
p m
Ġd ig
Ġmak es
P a
ĠCreate s
] ],
li er
ĠB e
Ġcomp ar
ĠComp ute
os id
M ode
Ġs olution
ĠB ase
me asure
li hood
Ġl ate
Ġv o
Ġp r
IN T
cry ption
is dir
Ġsim ilar
du ced
m k
ser ve
Ġs pa
Ġmat ched
S ign
b r
orig inal
ĠRe g
Ġs cheme
Ġp otential
ron t
E nd
ac cept
Ġre maining
oc ument
er ies
Ġf req
ra dius
Ġde v
Ġinte gr
as sert
scri be
H el
ĊĠĠĠĠĠĠĠĠĠĠĠĠĠĠĠĠĠĠĠĠĠĠĠĠĠĠĠĠĠĠĠĠĠĠĠĠĠĠĠĠ ĠĠĠĠĠĠĠ
dire ction
in ternal
Ġcol lections
AL L
key word
Ġindi vidual
ĠNot Implemented
Ġbase string
Ġc b
fl ush
Ġsp an
RO M
` )
Ġ( :
) **
or ing
z y
ĠS ub
2 6
Ġcol s
al ly
ä »
ren cy
f ree
ĠThe re
k ed
ot ype
^ {
ST R
ĠIn itial
ĠO ut
g lob
po wer
ser vices
Col or
work er
ss h
Ġcoordin ate
Ġre ci
ri c
al ance
tent ion
D ir
ĠG iven
p g
Ġde c
trans action
Type Error
EN D
ĠS o
Ġbe ta
Ent ry
fl ux
g z
Ġcase s
N um
Ġi o
Par ameter
coord in
p red
top ic
Ġs yn
est im
ĠI mage
Ġcer t
ĠF orm
p ng
de lay
R ange
S ystem
medi a
u dio
ue ss
Ġme mbers
Ġit self
ĊĠĠĠĠĠĠĠĠĠĠĠĠĠĠĠĠĠĠĠĠĠĠĠĠĠĠĠĠĠĠĠĠĠĠĠĠĠĠĠĠ ĠĠĠĠĠ
e mbed
own er
i ed
Ġcon v
Ġdata frame
Ġs cipy
Ġ< <
R ow
pro to
W rite
Ġa da
Ġcur ve
Ġlink s
) \
ce ed
__ __
comp at
on ts
par tial
ĠN ode
Ġ' :
J ob
Ġho ok
G B
i j
s age
Ġn ull
e qual
Ġhost name
sh ip
ra ps
ch or
Ġse p
Ġlay out
Ġchunk s
a a
Ġuse ful
A d
package s
an ti
Ġreturn ing
T ag
ke t
. '.
tain er
Par ameters
bo s
ĠH TML
z en
co mb
Ġst age
Ġtemp erature
Pro per
Ġadd r
pack et
ly ph
Ġhist ory
) +
AN D
par sed
Ġcur r
u ses
us age
Ġpri or
ĠGener ate
Ġma ss
7 0
Ġpar sing
" \
Ġdocument ation
Ġex ternal
Ġ* =
Ġoper ations
Ġ[ {
log ical
st o
table s
Ġse curity
Ġex periment
oper ator
AR N
ect or
request s
Ġse c
ong o
rag ma
at tach
Ġcer tificate
etri eve
pt o
po logy
ĠC all
ed it
fa iled
t tp
cre en
h older
Ġa round
li ct
s cal
Ġwrap ped
sca pe
Ġnormal ized
ĠIndex Error
andid ates
(' _
ill ar
) -
P TION
ref resh
opt im
speci men
Ġf ore
b ig
Ġ\ '
at ter
ĠC ode
Ġcalcul ated
f latten
) ',
in ner
ol ds
IN FO
Ġallow s
re en
Ġhe lper
d n
Ġbe havi
Ġco re
, ))
c ript
str ument
arch ive
Ġfor ward
Ġt ick
Ġcoord s
up ported
Ġcat alog
S u
Ġcol lect
M AT
Ġb ad
Ġ ?
fe ed
e m
f alse
Ġpro to
Ġnot hing
ist ic
m ut
ĠID s
Ġattemp t
Ċ ĊĊĠĠĠĠĠĠĠ
Ġauth entication
Ġfl ux
1 000
Ġt ar
pt ure
cal cul
ME NT
pl an
CO L
ĠF unction
Ġ æ
pre v
w iki
Ġsome thing
a red
{} ".
Ġcre ating
Ġsur face
ver ts
Ġindex es
al f
D ATA
re verse
ge o
Ġde lay
Ġd ue
Ġlay ers
il ing
cal c
ĠOr deredDict
* .
Ġb lob
function s
Ġgre ater
Ġre ader
w rapper
e lem
id er
Ġlo ss
(" -
a ctor
~ ~
Ċ ĊĠĠĠĠĠĠĠĠĠ
ident ity
E d
Ġcon version
Ġ1 5
Ġwh ose
Ċ ĊĠĠĠĠĠĠĠĠĠĠĠĠĠĠĠĠĠĠĠĠĠĠĠ
rit ical
Ġt s
Ġ6 0
r pc
te in
Ġres olve
Ġdi ag
f amily
se curity
âĶ Ģ
Ġad min
co ver
ph ase
Ġar t
Ġen er
Ġd river
Ġre pr
sen ce
so ck
pre dict
7 8
Ġtr an
Ġtable s
Ġal tern
Ġe qu
ĠH ow
on d
Ġse cret
Ġno ise
. \
A ct
re v
Ġconfig ured
inis h
(' :
Ġde ploy
not ification
app ing
ĠU RI
Ġ\ \
dis k
redu ce
Ġ qui
Ġr atio
Ġstri ct
sess ment
Q t
Re f
ip v
Ġcompat ible
ĠW rite
rst rip
Ġst o
pro mpt
Ġpartic ular
pa irs
Ġpre tty
9 4
ĠH andle
Ġpro c
mag ic
F ind
DI R
Ġact ually
se g
stra ct
cho ice
Ġp ur
Ġline ar
s r
ref s
ĠA c
b and
LE CT
i pping
L L
po se
ci o
at ype
quest ion
r ing
re lation
load er
line ar
Value Error
T ask
Ġs pect
') ]
ra di
form s
Ġdepend encies
Ġt urn
Ġe ps
w b
Ġre ct
ut c
c wd
am o
I f
r ho
il er
ĠM ax
7 4
ĠD B
P A
Ġo bs
ĊĠĠĠĠĠĠĠĠĠĠĠĠĠĠĠĠĠĠĠĠĠĠĠĠĠĠĠĠĠĠĠĠĠĠĠĠĠĠĠĠ ĠĠĠĠĠĠ
ter ms
H ER
2 8
Ġdire ctories
ag greg
SI ZE
/ '
pi ck
Ġ jobs
U ID
ĠSt art
" >
ĠNotImplemented Error
Ġannot ation
Ġprec ision
cre te
sign ed
sh ut
f time
et adata
gn itude
Ġval s
P art
b lob
ex port
Ġout file
] ["
pe ak
ĠP O
Ġ â
pos ure
ĠMe ssage
a w
Ġun known
unk nown
b reak
ĠC lo
L abel
B o
_ (
Ġmedi a
[: ]
se ek
Ġupdate s
B uild
ro id
frame s
C M
se mb
ra se
Ġt or
Ġs w
as array
MA X
ation Error
host s
De vice
fig ure
en vironment
Ġma de
men u
Ġda ys
arg in
old ers
an alysis
Ġter ms
um an
TE D
el se
d c
Ġ ],
normal ize
Ġsepar ate
Ġ3 2
sl ug
v ol
ĠĠĠĠĠĠĠĠ ĠĠĠĠĠĠĠ
de p
ys ical
Ġis n
Ġclo sed
Ġread ing
Ġob tain
connect ed
t ar
re ason
un ic
Se arch
t ol
Ġ: ]
ator y
ra d
pt r
Ġbo ot
Ġthe ta
Ġdef ine
Ġen code
AC E
Ġr v
Ġresult ing
Ġser vices
ĠO ne
esca pe
B O
Ġc andidate
ĠC alculate
se lection
Ġbu ilt
ward s
Ġfilename s
Ġow n
Ġg r
Ġres id
Ġap pe
N E
l st
Ġd en
clus ive
ai lf
W ork
b ad
b am
f c
ra ct
Ġh and
ĠN e
Ġre cursive
ction aries
Ġmerge d
co v
Ġmult ip
ate gy
C L
Ġkeyword s
instance s
DE BUG
b i
ĠAr ray
Ġindic ating
ar c
N G
last ic
S p
ĠM odel
s cores
cl ar
Ġwork flow
over ride
at ic
Ġs cores
Ġp atch
**** ****
ti cks
Ġed it
con figs
Ġtrig ger
r um
s napshot
or ter
Ġref resh
so ft
[ (
Y Y
i ver
p x
(' {
OR T
/ (
h i
are st
Ġd x
Ġde g
res olve
const ants
Ġw riter
ad cast
O pen
ĠRes ponse
modi fied
fast a
to ur
Ġinclu ding
Ġ" <
select ed
oriz ont
ue ue
A ll
index es
av es
Ġsh util
Ġu uid
yn cio
re ply
P ER
on ical
po inter
Ġp ragma
P UT
Ġinter pre
Ġ3 0
bos ity
]) .
auss ian
L ength
for ward
ad o
ĠNO TE
" '
ĠM ust
h andlers
Ġsub set
ĠC ur
ĠM o
Ġse gments
Ġbut ton
dest ination
ĠC lient
or th
Ġc ells
I F
en ate
Ġp lease
M ax
Ġ vertex
il on
ierarch y
Ġse en
ta ck
vi ation
t le
ĠO ption
al let
P Y
mark er
Ġe quivalent
clu ded
ĠDi ctionary
Ġper missions
k it
Ġr ho
Ch ange
Ġpix els
Ġ ).
ul k
res id
CON FIG
sem ble
:` .
Ġper mission
""" ,
Ġg lob
ĠW indows
ĠĠĠĠĠĠĠĠ ĠĠĠĠĠĠ
li ces
Ġident ity
Ġ' #
Ġm x
Ġu id
Ġf s
is on
Ġco st
Ġcheck ed
Ġexp and
P U
Ġpe ak
ĠU T
Ġman age
ver sed
Ġth ree
Ġde precated
ca ched
Ġfa ils
s yn
Ġretri e
Ġor dered
ti fact
Ġread s
l ar
Ġsha red
list s
p ush
Ġe p
Ġow ner
en able
D D
(' .')
ĠT ra
Ġcom ments
RE D
Ġpri ority
Log ger
ites pace
Ċ ĊĠĠĠĠĠĠĠĠĠĠ
Ġs witch
ĠImport Error
() ),
b us
. ".
p us
Ġcomple x
3 9
b utton
ĠT ensor
ĠA ss
pi peline
co urse
Ġc ross
2 1
S o
Ġstat ic
Ġs ync
amo unt
N etwork
se lector
an ded
Ġb el
Ġs chedule
å Ī
Ġe val
Ġ`` '
ta ched
. %
url s
re pository
ig en
Ġ: :
è ¯
um my
str ftime
+ '
n u
ta ge
I ST
lib rary
) (
Ġnum eric
se ctions
Ġent ire
istr ation
ul ated
Ġad just
ĠF irst
lis hed
Ġt z
Ġbot tom
s w
v lan
Ġge ometry
Ġconst ant
ĠS alt
Ġtrans ition
a ut
u ation
al gorithm
depend ent
c red
pri ority
ĠĠĠĠĠĠĠĠ ĠĠĠĠĠ
Ġb ig
g ent
base d
re direct
V ariable
P ri
al th
ĠQu ery
de tail
A uto
sub process
ed itor
Ex ist
Ġassign ed
ad ing
"] [
VER SION
H andle
t n
re lative
vis ible
s y
wh ich
par k
Ċ ĊĠĠĠĠĠĠ
clo sed
PI PE
vo ke
Ġgo od
transp ort
w alk
orizont al
Ġder iv
C F
f fici
ON E
sup ported
Ġs y
ĠSet s
Ġm ut
Con st
pri ce
sup press
(" --
J SON
get attr
> "
c redentials
per m
Ġlate st
s calar
P age
Ġsa mpling
0 6
Ġvector s
M I
Ġpro mpt
gra d
M in
page s
Ġ" '
Ġcomp are
re ctory
tri p
Lay er
S D
ĠS T
Ġframe s
UL L
ex ternal
Ġtime zone
l ang
Ġor d
Ġlar ge
ro y
ĠThe se
Ġf un
Ġsh ift
Value s
Ġm s
Ġtrace back
e q
si mple
Ġsen sor
Ġindic ates
is instance
ent er
'] ),
Ġcomp uted
Ġd ensity
Ġ'{} '
d p
ĠIn ter
n l
Ġs parse
co st
ĠT ext
A ME
man y
Ġm ix
il ent
ĠN ew
D yn
_ %
Ġf lat
ĠMe thod
ĠT ry
Ġde vices
jo int
lap sed
Ġb and
ra m
do cker
25 5
b ank
at rix
key words
Ġdi ctionaries
([ [
Ġlook ing
Ġun pack
ex cept
Ġf ree
Ġpar allel
Ġdefin itions
st age
Ġs creen
Ġdo uble
er a
Ġm is
allow ed
Ġlimit s
Ġg u
we ek
R ed
l c
e mit
ched uler
ĠF ilter
level s
7 6
se gments
ct o
update d
US ER
ĠN OT
ĠM A
char s
ĠPro cess
> '
f lat
er red
Ġf h
ut ype
per s
ing er
ĠC O
2 9
C an
Ġde scriptor
Re move
Ġ ])
Ġspe ed
j a
p andas
ĠA uth
pre pare
Ġph i
pro ps
ge ometry
ma ked
Ġca st
Ġf latten
fid ence
Ġener gy
I s
ma ps
or dered
andl ing
In t
ĠOut put
version s
b g
find all
FI X
stra p
################ ################
ind s
C TION
FI EL
SI G
c ar
Ġre ferences
Ġpro cesses
read s
min ion
plo ts
co very
ĊĠĠĠĠĠĠĠĠĠĠĠĠĠĠĠĠĠĠĠĠĠĠĠĠĠĠĠĠĠĠĠĠĠĠĠĠĠĠĠĠĠĠĠĠĠĠĠĠ ĠĠĠ
fi es
name d
at ial
Ġcal c
pub lish
ĠS hould
': '
Ġmodi fy
HE AD
Ġ' ':
S V
l t
Ġvi de
Ġge o
Ġcho ice
r d
di stribution
bo olean
Ġe s
cal ls
pl ugins
Ġpe er
tri g
ns ure
az ure
. '''
Ġg ate
Ġv ol
Ġ2 4
ĠS top
Ġm ot
ch a
ext methods
Ġext methods
Dyn Class
de rer
curs ively
p ot
Ġdoc string
p adding
() ``
Ġfa ce
Ġh idden
serv ations
i ms
u er
Name s
Ġrot ation
F S
a N
æ ĸ
(" /
Ġsub scription
Ġra di
MA P
L S
O ver
i or
bu ilder
Se quence
Ġqu ote
Ġdo cker
Ġone s
exist ing
de cor
Ġfra ction
e valu
w t
ĠO peration
lin alg
mo ves
ly ing
Ġn x
0 8
n r
ci rc
O per
Exec ution
s izes
Ġde limiter
X T
end ar
a ws
cal ly
LE TE
de vices
pro gram
Result s
pt ime
comp ress
cont in
ff set
Ġw a
ble ms
Ġde grees
depend encies
Ġauth entic
i red
ĠT uple
bot tom
sc reen
t od
Ġver y
Ġp ull
Ġse lector
f requency
Ġun less
ĊĠĠĠĠĠĠĠĠĠĠĠĠ ĊĠĠĠĠĠĠĠĠĠĠĠ
Ġsen der
ff ff
Ġrun time
is h
mon itor
Ġcho ices
è ¿
Ġpick le
s chedule
Ġin place
Ġsub class
I I
thread s
f uture
ma chine
ca p
do uble
y ment
å Ĳ
al et
me s
4 4
-------- ----
om ial
Ġres olution
A pi
re pe
Ġrepresen ts
U p
Ġm ime
Ġsent ence
Ġre cur
_ :
æ ľ
pend ing
Ġre cent
Ġe v
run time
Ġr c
ĠO ver
st ar
ou se
Ġim mediate
Ġurl lib
ran ches
Ġcomple ted
Ġcond itions
Ġ2 55
Ġen viron
com ing
Ġ"" ,
De lete
Ġst arts
Ġpre ss
Ġper m
us ing
b ra
j ac
Ġpattern s
an ization
vi rtual
ir d
Ġassume d
CO DE
late st
W N
Ġcon structor
Ġd ry
Y ou
Ġ( -
Ġco pi
> \
Ġpub lish
F C
Ġse g
gra ms
lo gs
Ġlevel s
ur ations
di git
ĠB ack
encode d
Ġadd ing
Ġver tices
Ġtemp orary
D U
it ation
iz ing
split ext
dis able
( %
Ġstart ed
Ġclo ud
On ly
Ġso ck
= ='
work flow
Ġprobab ility
Ġv s
ĠE lement
Ġcon tact
Ġx range
ch rom
mult ip
P ol
Ġa udio
Ġme as
Ġdict s
Ġthread s
QU I
W ith
B e
T A
vo cation
t or
co d
Ġmo unt
Ġkey id
Ġmin utes
ARN ING
Ġiter ations
Ġexec uted
N OT
Ġinitial ize
an aly
Ġdiffe rence
8 8
s olution
annot ation
ĠUni code
'] ):
M atch
split lines
uplic ates
se ct
Ġs sh
sup er
Ġde cimal
g amma
D ATE
O F
Ġcon cat
Ġsub net
Ġcont roller
] (
ma jor
Ġcall er
N e
ue st
Ġsuccessful ly
comple x
Ġextract ed
> ,
A ccess
` ):
HER E
Ex it
Ġcreate s
He ader
Ġhapp en
C A
ro les
mpl er
de epcopy
ĠF ield
Ġalign ment
Ġ5 0
pol y
Ġspecify ing
ve red
ind er
and atory
r gb
se l
Ġw x
Ġx y
Ġany thing
a verage
ĠSt ate
ĠRes ource
3 1
rel ated
Ġevalu ate
Ġf inished
s parse
onts ize
Ġp mag
Ġqu al
Ġcheck ing
lev ant
4 5
Ġ1 9
Ġco s
s ites
t ic
c ss
ul ly
b b
Ġb asic
ĠC ON
! ")
k a
Ġp an
te p
A F
Ġg ive
te ger
diff e
maked irs
ĠF ROM
time delta
it al
Ġ'/ '
Ġcon straints
Ġraise s
Ġpop ulate
st mt
Ġlin eno
C RE
P L
P ort
Ġlo gs
Ġevery thing
ĠW ork
de t
Ġcom ma
CE SS
Time out
ĠA WS
Re ference
lo ur
cur acy
Ġrun s
h our
ĠP lease
ent ifier
Ġh it
act er
yste ms
ĠD esc
Ġn u
Ġgen es
Ġ" )
Ġ'. '
ĠA d
Ġadd resses
Ġauthor ization
OR Y
ot ed
Con tainer
Ġsign ed
alet te
w raps
ren ces
Ġdo cs
no ise
3 7
ĠEx ec
b asic
de scriptor
get her
ĊĠĠĠĠĠĠĠĠĠĠĠĠĠĠĠĠĠĠĠĠĠĠĠĠĠĠĠĠĠĠĠĠĠĠĠĠĠĠĠĠĠĠĠĠĠĠĠĠ Ġ
a gs
Ġw rong
Ke ys
Ġwh ole
extension s
n x
le af
al e
Ġre duce
Ġp red
speci fic
Ġw atch
--- +
pe er
un set
Ġper formed
b lack
Ċ ĠĠ
ch r
Ġal le
Ġover lap
pro t
ild card
S L
0000 0000
Ġe ar
ĠEx tract
ume d
] }
Ġf amily
scri pts
V er
Ġp lay
requen cies
Ġcode s
R R
t t
ĠG raph
A x
c id
gen es
Ġch rom
ada pter
Ġpre vent
com ments
Lo cation
Ġtransp ort
ff t
Ġte am
Get s
cli ck
Col lection
li ance
p at
Ġs ymbols
Ġlocation s
' ll
gener ated
S peci
n c
( ["
in ary
Ġ1 1
rec v
ient ation
limit s
Ġinte gers
Ġcre ation
q q
i ke
Ġdepend ing
Ġe st
Ġpre pare
et s
Ġli ght
v a
pri mary
Ġcount ry
pi pe
fix ed
ise d
Desc ription
w n
leg end
at ives
Ġe scape
a ff
Ġcon nections
pa b
de ploy
N ew
Ġg amma
ĠS QL
Ġs v
Ġsh ut
Ġinclude s
Ġm enu
Ġl ang
ph er
B ack
E ST
Ġdi gest
ĠAdd itional
vo cab
Ġsepar ator
: .
g l
Ġquery set
Ġhost s
man age
Ġsupport s
Ġcons ider
in i
Ġc ard
Ġbehavi or
view s
Ġh ard
pro g
m is
Ġ ri
Me m
Ġlong itude
" %
pos itions
cate gories
Ġcli p
( ('
b ias
Ġbound ary
R C
s witch
Ġstat istics
transp ose
u ch
y les
ch an
âĶĢ âĶĢ
Ġe as
Ġvo cab
Ġne ver
Ġcoeffici ents
M IN
æ ķ
Ġar tifact
location s
' },
) ')
umb na
l v
AR T
d m
re ci
ok ies
Ġrequire ments
Ġl c
ĠS end
valid ation
cor r
Th read
Gener ate
ener gy
ĠDe lete
di ctionary
y thon
ry pto
ifi c
c les
Ġarg parse
pix el
) ``
ro po
ne ed
Ġvide o
Proper ty
) ],
M etadata
ĠV M
Ch ild
neighb ors
A li
(' {}
eff s
D ist
al an
Ġco okie
fin ite
P T
Ġ( `
LOG GER
Format ter
a il
Ġinter vals
Ġcalcul ation
o ot
ĊĠĠĠĠĠĠĠĠĠĠĠĠĠĠĠĠĠĠĠĠĠĠĠĠĠĠĠĠĠĠĠĠĠĠĠĠĠĠĠĠĠĠĠĠĠĠĠĠ ĠĠ
Ġo k
Ġsimp ly
de cimal
AT OR
ST AT
0 9
tr an
pre vious
ĠU sed
coordin ates
i mple
99 99
F T
Ġen ough
Ġqu ant
ĠD ef
{} )
Ġt i
Ġs mooth
Ġlat itude
Ġobject ive
o auth
cal lable
ĠL e
Ġpri ce
Ser ial
_ '
Ġd uplicate
Config uration
ĠG roup
Ġed itor
Ġdepend ency
ĠRes ult
Ġexplicit ly
F unc
b re
Ġr df
ĠCur rent
li g
6 5
Ġa z
`` :
Ġbu ilder
C I
m c
al lable
Ġas yncio
e ffect
D A
x s
Ġ= >
Ġpro jection
ĠO R
state ment
ĠT able
im it
Un i
T uple
y label
ti cip
en ari
Ġout side
al i
Ġ( ``
get ter
Ġpage s
Ġsha re
ro uter
Ġbet ter
O peration
ag raph
% %
mo ved
ĠSer ies
Ġlog ical
av g
Ġw arn
out file
Ġpredi ction
Ġlon ger
! !
M odule
FOR MAT
CH E
process or
Ġre v
(' <
m icro
pl us
Or der
Ġcon sole
Ġre spon
Ġget s
ast er
3 8
ĠS E
Ġserial ized
, ),
g ame
Ġp ending
Ġde p
ok ed
Data set
-- +
Ġbot o
Ġb us
m ot
po sed
ĠR ed
Ġca use
cell s
vide o
P rint
č ĊĠĠĠĠĠĠĠĠĠĠĠĠĠĠĠĠĠĠĠĠĠĠĠ
chunk s
Ġs yntax
Ġb asis
ĠV er
Ġta ken
at temp
Ġans wer
ta u
ce l
Ġback up
cre ment
Me ta
Ġc map
c ross
Ġgra dient
ad just
cy cle
Ġspecifi es
i con
Ġappro xim
S K
Ca che
m q
G e
Ġ"" )
Ġannot ations
an it
Ġcy cle
le c
wa p
te ction
pri or
C om
ĠP rint
Ġpl an
cur ve
vo ice
ty le
Ġto gether
Ġgo ogle
ip her
x label
server s
v ance
Ġc red
Ġ---- --
ĠG o
li d
In itial
Ġcp u
> <
s ymbols
Ġpol y
align ment
Ġspa ces
os ite
T arget
(" {
h at
Ġd ates
ur ther
ch at
ĠW ill
object ive
ĠUn ion
M issing
ĠG e
anis m
ri ve
cont roller
k ip
ffici ent
S end
g ap
h ow
gate way
w ave
LIN E
D R
ĠN ow
q s
range s
Option s
Ġd y
Ġd jango
Ġl st
Ġr ather
IN TER
Comp ute
MO DE
out ine
Ġreplace d
Ġmag ic
con ver
ject ory
Type s
Ġada pter
st andard
SE LECT
C AL
Ġw ave
Ġcons ist
================ ================
s heet
spe ed
cogn ized
loc ity
red is
Ġvar s
pattern s
ab ility
Ġestim ate
m x
: ,
D ocument
z z
Ġa mp
ro u
Ġpo inter
ang les
Ġbl ank
v cf
ul ative
A A
co okie
max imum
pla in
Py thon
ĠDE FAULT
a ched
at oms
ile s
Ġresponse s
Ġcer tain
ri b
ĠPO ST
Ġcheck sum
... ,
ĠAdd s
: ],
)) ]
set ting
Ġta il
const ant
A nd
wh ite
bl ue
Ġ1 4
ĠS ome
ro zen
F LA
ç Ķ
Ġs lot
Ġex amples
S U
y es
Ġp ush
per mission
Ġcont ract
} ]
Ġ 64
S chema
Ġt rip
Ġac ross
C ore
am era
Ġpa rents
Ġvis ual
Ġexact ly
Ġgener al
Ġre d
ĠE vent
medi an
A UT
f fic
re es
Ġformat s
v or
Ġleg end
cto ols
B ad
Ġ( {
Ġ| =
act ivity
Ġfa ctory
parser s
ens ure
un ce
Ġse ctions
ĠN etwork
Ġen coder
O UT
Ġread y
Ġb box
Ġc c
Ġres olved
Con nect
Ġtest s
Ġdeg ree
li cies
ĠS ave
able s
date s
Po ol
ad r
int s
ĠE nsure
A ss
Ġtrans fer
cut off
Ġbegin ning
ti ce
, ,
V ector
() `
Ġ: ,
ĠG ET
min imum
: "
l uster
fi er
", "
Ġformat ter
local s
project s
Ġe tree
th resh
Ġpi e
E C
he m
Ġb undle
Ġse ver
-+-+-+-+ -+-+-+-+
Ġd d
ver tices
te mplates
Ġnum er
ĠH ttp
her it
Ġvalid ator
de tect
n i
ri ces
Ġde coded
p in
Ġs izes
et c
Ġmin im
50 9
ĠForm at
Ġma ps
Ġexec utable
ĠA ND
Ġpl ugins
Ġmon itor
P l
M B
b ing
â Ģ
ĊĠĠĠĠĠĠĠĠ ĊĠĠĠ
Ġ vec
list dir
Ġrece ive
ri end
Ġth row
ss ib
ug gest
concat enate
M ulti
so me
Ch annel
P os
Ġs ol
Ġdataset s
) ",
s at
en ch
read line
Ġinitial ized
Ġon to
auth entic
m ix
ĠSe arch
l ations
Ġ Ð
Ġc riteria
se quences
LE D
etri e
() }
Ġcon straint
format ter
length s
Ġm andatory
sert ion
Te mp
Cont rol
Ġident ify
abs olute
w atch
Ġ ke
Ġf ully
ce eded
qu ent
Ġder ived
} /{
ĠD ate
Ġprevious ly
Str uct
z on
Ġb ra
ent ities
Ġg uess
count ry
W indow
pe t
ns upported
du ction
semb ly
Ġh andlers
`` )
sen der
annot ations
Hel per
H ost
format s
Ġcompar ison
Ġh andling
ĠD O
Ġpre sence
ec or
Ġen crypted
ĠM ulti
vector s
ĠGener ated
ĠSer ver
Create s
inte gr
ph rase
Ġaccept ed
he st
ĠM an
sha red
s b
Ġm ar
ã Ģ
exec utable
\ "
cl usters
Ġfo o
an te
Ġab ort
std in
7 9
U rl
Ġrange s
O B
e v
Ġdis abled
Ġs sl
Ġst ride
back ground
I ds
Ġt ax
iss ue
col lect
can vas
j id
ist ers
Te mplate
ex e
er ial
Ġtr unc
ropo ut
X ML
s la
ma gs
back up
Ġvari ance
Ġconst ants
inger print
sub mit
Ġtx t
= ',
G R
Ġre start
lif y
tuple s
ĠFI X
con tact
Clo ud
k g
ĠSer vice
e e
Ġtermin al
(' [
Ġdi rs
ĠKey word
E V
ol low
Ġm ig
Ġmin ion
h and
å Ľ
ĠGet s
t m
de velo
Ġreg ions
r v
Ġp at
umbna il
b box
ĠM ark
Ġh our
Ġa ctor
Ġs id
app ro
ĠA R
[: :-
Ġtri m
rou ped
Ġm p
ne g
Ġtrans lation
Un ion
Fa il
Ġob servation
Fe ature
m ol
Ġpass ing
Ġma gnitude
Ġwe ek
="" ,
Ġp lots
Ġtime delta
inter vals
uff le
Ġa m
oper ations
('/ ')
Ġre vision
iv ing
FF FF
ĠIP v
Ġneighb ors
Ġsl ug
re name
ex periment
crypt o
Ċĉĉĉĉ ĉ
Ġ ur
Ġfloat s
con struct
Ġ2 5
Ġf g
Ġs ites
ĠCon tent
array s
Ġhist ogram
Ġ{} ).
Ġent ities
Ġo l
Ġoptional ly
ib ration
Ġ' +
Ġde sign
Ġlist en
co e
au dio
Q ueue
p n
gor ical
h ref
iter ator
c ancel
l u
am b
! ')
Ġin c
Ġin verse
ex pect
con j
Ġ/ =
pi ent
si ble
out er
Ġwrit ing
C ell
Ġar c
pro cessed
dimension s
] =
Ġadd s
RE AD
E CT
U RE
P lease
con tract
En abled
Ġassign ment
Ġestim ated
, "
w cs
o v
Ġc wd
Ġob served
Ġsub stit
ĠP lot
ub class
ĠR etrieve
Ġsu c
ĠM in
Ġbu ff
æķ °
con nections
es ian
ĠRe ferences
FIEL D
Ġlo ader
p db
Ġst mt
Ġdo ct
Po licy
T est
Ġsepar ated
Ġcho sen
Ġprobab ly
. /
t un
ĠP ass
cu it
g u
AR Y
Iter ation
I mport
Ġe igen
la gs
V ar
ĠA S
Ġcate gories
un ts
Ġindi cate
alcul ates
] -
æ Ī
ĊĠĠĠĠĠĠĠĠĠĠĠĠĠĠĠĠĠĠĠĠĠĠĠĠĠĠĠĠĠĠĠĠĠĠĠĠĠĠĠĠĠĠĠĠĠĠĠĠĠĠĠĠĠĠĠĠ ĠĠĠĠĠĠĠĠĠĠĠĠĠĠĠĠ
Ġfra gment
Ġh ome
Ġver tical
Ġman ifest
cur r
Ġcontain ed
Ġstate ments
cer tificate
Ġ er
de leted
ĠS ign
lar ge
i os
Ġc andidates
Ġdetect ed
ĠClo ud
) .__
me ga
it ter
ĠS im
Ġcomple tion
Ġappe ar
G rid
b a
sub set
gre en
calcul ate
: ",
U t
t imer
Ġp in
Ġbe come
like lihood
b undle
Ġs ynchronous
y y
Ġmid dle
Re ader
che my
Par am
Ġimmediate ly
h ip
0 7
W idth
Y ANG
dis patch
Ġqu eries
P ass
ĠT ask
A ML
iss ues
Set s
vers al
Ġcl usters
8 9
SC RI
Ġhy per
U RI
st all
Ġro ut
) `
ĠMax imum
Ġth ing
Ġs la
ful ly
fast q
St orage
fail ure
Ġre levant
B utton
HEAD ER
C R
Ġp t
Ġb ias
') ):
vent ion
Ġconfig ure
Ġretrie ved
s ame
Ch ar
Ġro ll
CO M
S M
Ġat tached
mpl s
dict s
Ġgra d
en coder
Ġa ux
con sole
mo re
S QL
he el
pa rents
vel ength
Ġn an
ten sion
ĠCheck s
al ten
VAL ID
Ġf allback
te am
num bers
Ġbo ok
sub scription
ĊĠĠĠĠĠĠĠĠĠĠĠĠĠĠĠĠĠĠĠĠĠĠĠĠĠĠĠĠĠĠĠĠĠĠĠĠĠĠĠĠĠĠĠĠĠĠĠĠ ĠĠĠĠ
: ',
or ization
mult iple
Ġdetermin ed
ation al
A b
di g
que e
Ġvis ible
Ġh ref
Ġcomb ined
di an
R ule
m v
Ġwh ite
Ġload ing
Ġdown loaded
con straints
ĠI SO
(" {}
Ġserial ize
By tes
to list
ĠCon struct
Comp onent
Ġunder lying
P osition
R et
Ġ' "
Ar gs
Ġnote book
f r
re ating
Ġs leep
Ġst ud
Ġpress ure
cho ices
get Logger
ne sted
uto ol
: '
Ġlog ic
Ġun able
ĠS up
Ġte mplates
Ġdig its
LO CK
Ġe t
app a
Lo cal
ĠFIX ME
C C
Ġw alk
Ġlo cale
vent ory
Ġsen ding
f w
Ġc v
Ġent er
it able
], [
VAL UE
sub net
ten ces
Ġinst anti
l strip
trig ger
alten v
T er
sh ot
ĠIn stance
Execution Error
Ex tract
iter al
V al
ma y
h it
vis it
Ġa ffect
Ġcl one
l lo
pro j
work ers
Ġcorrect ly
a ign
Ġ question
Ġimport ed
.... ....
Ġb order
Ġth ings
": "
Ġarg v
ili o
on y
Ġex tent
Ġend s
Ġincre ment
Ġc r
Ġre versed
lo pe
Ġar bit
Ġ* ,
ĠN ormal
z oom
Ġz er
Ġver b
Ġinterpol ation
Ġmeasure ment
NotFound Error
R ole
Ġf urther
Ġre dis
ĠW HERE
Ġmu ch
W ARNING
Ġt b
is ode
Ġh uman
H ash
U I
prec ision
$ ',
Ġpro ps
h dr
Ġro les
Ġcon sumer
00 1
act ual
LO W
5 8
U ST
Ġlocal s
' ``
c map
f lo
sk y
warning s
Ġre strict
ĠC lass
f its
p ur
le arn
Ġ`` (
Ġcomp ression
un ity
lit ude
H T
m ime
å ¤
)) ))
Ġmo ment
er ation
Ġd ynamic
pol l
Ġdi alog
G I
f path
å ħ
ĠT est
ĠCon nection
Ġact ivity
gener al
ĠInitial ize
ra ft
ĠAl low
Ġa ge
Ġreplace ment
ig hest
Ġgo ing
ript or
Ġwait ing
A ST
ĠP ol
Ġcorre lation
Ġexten ded
Ġconf lict
neighb or
ĠI s
ĠSe quence
l ated
ma v
ir t
re tries
(' #
comple tion
train ing
call point
Ġch at
() ).
ĠF e
ĠPar ameter
Pro file
Ġdecor ated
require ments
w orld
il li
bu ilt
Ġtest ing
U se
fi re
sent ence
t b
Ġurl s
Ġdis patch
Ġe cho
Ġover rid
clar ation
err no
Ġcompat ibility
Ġc um
yn omial
U TP
os ome
Ġbyte array
ĠS tr
Ġpro blems
Ġk lass
ma zon
ĠBo olean
inter pol
ĠDe termine
Ġproper ly
Ġmeta var
al ive
Ġ% .
Ġpl ane
Ġport s
data frame
ys ql
An y
_ [
ĠN aN
J ECT
h ard
Ġlength s
sertion Error
P ub
Ġsim ulation
c andidate
Ġto l
sa mpling
expand user
b alance
ĠD on
Di rectory
Ġpop ulation
sens itive
Ġscal ing
Ġembed ding
S Y
s ses
cur rency
M ed
in ations
Ġ' [
ĠS ource
Ġcomp ound
e ta
ĊĠĠĠĠĠĠĠĠĠĠĠĠ ĊĠĠĠĠĠĠĠ
hook s
Ġp ip
er ce
un ter
tri m
Con s
f inished
Ġto ler
con trib
in cip
sub plot
ge om
: ")
Ġa ble
ĠC a
sur face
un ion
ag ing
trace back
Cur sor
Ġn ative
sen sor
io dic
M ake
f h
Ġne g
Ġpredict ed
UTP UT
Ġre comm
Ġneighb or
a cl
d om
st and
Ġc ar
ĠB lock
pan el
({ "
Ġqui et
w x
pro bab
leg al
Ġb ug
per missions
Ġro uting
de ps
Ġg ame
=' '):
F low
im ension
pick le
t ure
Ġb lack
m ts
TE XT
Ġw on
C LA
le tes
Ġiss ubclass
window s
(" '
im uth
enari o
ssib ly
Ġpredi ctions
Ġpredi cate
V M
Ġh ours
contain s
Ġasynchronous ly
S um
o a
p ull
Ġs q
ĠI gn
Ġoffset s
ide s
, -
Ġ` ~
Ġ< /
d ynamic
vid ence
in x
spe cs
b f
writ ten
w ar
(" .
Ġsmall er
comp osition
TYPE S
man ifest
W rapper
z a
4 8
Ġb g
w all
cl one
W ORD
en c
Ġin struction
cul ar
G P
at tention
Ġh alf
Ġlar ger
i ence
Ġf act
([ (
Ġchar s
Ġaltern ative
Ġstd in
' d
ä º
bo lic
ac c
ta int
ard s
reg ions
ĠWe b
Ġhigh er
lec ule
P ORT
ĠP ri
P lot
Ġ utool
me ans
Ġr h
Ġ ^
Ġgen ome
in ja
ex amples
df s
re vision
Ġs olver
not ify
Ġinte rest
as ing
fil tered
inter section
c riteria
vi ded
etrie ves
Ġs s
c v
" }
k m
__ ))
st one
lo cate
quee ze
M apping
Ġh aving
ĠTo ken
] '
s olver
u do
Ġtry ing
>` _
ne gative
Ġcomp utation
=[ ],
D ownload
N N
ĠS p
Ġcopi ed
Ġf all
ĠCol umn
Ġc atch
Ġs in
s ince
add resses
trans fer
ĠHow ever
/ .
a ce
s aved
irt ual
Ġdi ms
Ġdescri bed
j ava
ĠS ystem
Ġsub mission
Co py
S ave
serial izer
inst alled
S tyle
Ġiss ues
4 2
M ark
s ol
b um
code Error
Ġdefault dict
Ġevalu ation
deg ree
Ġpro b
Ġspeci es
N UM
æ Ĺ
iz ers
Ġo ps
Ġty ping
P h
ra vel
d ns
Ġgener ic
ster ior
Fa ctory
[ _
s lot
å ®
ig uous
Ġwh itespace
exec ution
Ġtemp file
Ġdocument s
global s
C B
ĠE ither
Ġda emon
diffe rence
9 8
c ritical
er al
Ġco variance
SS L
uni form
medi ator
ĠN AME
Ġret val
W A
Ġ1 3
Re ce
Ġext end
Ġbl ue
Ġat oms
me try
co ef
ield s
ĊĠĠĠĠĠĠĠĠĠĠĠĠĠĠĠĠĠĠĠĠĠĠĠĠĠĠĠĠĠĠĠĠĠĠĠĠĠĠĠĠĠĠĠĠĠĠĠĠ ĠĠĠĠĠĠĠ
Ġsignal s
T RI
o o
Ġro om
ĠM ap
pri se
Ġm icro
a ps
c nt
Trans form
as sessment
ĠU N
A gent
Ġr gb
ĠL ine
char acter
Ġdepend s
dataset s
Ġq s
Ġform ula
L Y
li ve
Ġexp onent
Ġt en
trans late
Ġcons istent
Ġcut off
Ġt imer
us r
ĠD ist
ca y
comp ressed
4 04
art i
ST ATE
c ator
ri ch
ĠH el
pro cesses
Pro xy
stru ctions
Ġcho ose
> ',
h ours
Ġver bosity
çĶ ¨
/ {}
)) [
not es
Ġmay be
ĠCommand ExecutionError
g ence
comp liance
V AR
] ',
s quare
time zone
Ġhand led
Ġc ancel
ro ls
} },
Ġre ached
der iv
Reg ister
è ¡
me t
ĠE nt
Ġcoeffici ent
L D
d ensity
t ur
Ġcomp ress
- >
or n
ĠN ull
trans ition
l n
ro ke
Ġto pology
kw ds
ĠSpeci fy
n ative
Ġk m
be at
AC HE
period s
R el
Ġup d
Ġtra iling
Ġf ront
Ġe c
stri ction
Ġhandle s
( ""
v rf
Ġi con
ĠS tore
ance s
check s
se udo
([ ])
Ex pected
bu ff
Id entifier
={} ,
Ġequ ation
M atrix
Ġin line
li ca
sp y
pre tty
filename s
Ð °
un ded
TE MP
tw o
QUI RED
N ormal
lo cale
Ġs ilent
ĠS N
ha z
b rowser
ult iple
Ġiter tools
ret code
ĠCh ange
Ġbind ing
led ge
Ġpos itional
urn al
Ġbound ing
Ġweight ed
R F
Ġro uter
Ġcomp ile
serial ized
ent ion
Ġex posure
Ġget ting
num eric
offset s
Do es
di a
we st
Ġinter faces
Ġtrans formation
B ar
V is
riend ly
on gs
Ġs quare
lin space
ĠDesc ription
5 00
in ct
ĠCon t
st ud
as a
Ġca p
7 2
ge red
Ġle ading
' ve
Ġde cla
Ġattemp ts
å Ń
ce il
bot o
ĠRe quired
0000 00
re m
ĠCon verts
le arning
format ted
Ġmodi fication
P open
y lim
ĠAs sertionError
Ġg ithub
) ")
L ATE
M T
AC T
App lication
speci es
Ġpol ygon
ĠG it
stat istics
ven ience
Ð ¾
Ġp df
(" ,
Ġne arest
termin al
normal ized
æĸ ĩ
re pos
(' ')
ag g
gen ome
Ġspect rum
t ip
sup port
qu ant
ãĢ Ĥ
Ġi r
Ġexp anded
k ill
ĠE X
Ġbase name
cond itions
dimension al
C LI
Ġb rowser
Ġl s
ar ante
an n
DE LETE
UN D
Ġclose st
m ig
ĠO PTION
Ġtrans formed
Ġplot ting
Ad min
repe at
am ing
Ġlist ed
Ġprint ed
callback s
tect ed
Ġcon firm
config ure
da p
we et
inter faces
sup ports
Ġpan el
ĠM ag
Ġiter ate
in formation
Ġnew line
Ġsub mit
Ġdisplay ed
Ġreal ly
r x
el ta
map ped
ĠStop Iteration
C alculate
y e
Ġ gs
ĠU sage
Ġ4 0
m time
__ [
gener ic
valid ator
d jango
m ust
p illar
ro om
bs o
Ġwindow s
Ġc ipher
]) ]
ĊĠĠĠĠĠĠĠĠĠĠĠĠĠĠĠĠĠĠĠĠĠĠĠĠĠĠĠĠĠĠĠĠĠĠĠĠĠĠĠĠĠĠĠĠĠĠĠĠ ĠĠĠĠĠ
wh en
shut it
^ \
C allback
Ġph one
Ġ'- '
il ename
ĠD jango
mask ed
Ġdescri bing
Ġc t
Ġo cc
ĠC om
mm ar
Ġz oom
Ġprovi des
SC II
Ð µ
Ġt un
la x
p v
ĠN um
ai lab
Ġ( _
ext ent
Ġv ox
shape s
Ġclass ification
è ®
Ġ9 0
b p
ĠE nd
T c
w o
Ġ10 24
Ġcorrespon ds
Ġre name
Ġzer os
Ġme t
Ġserial izer
Ġn l
Ġvis it
Ġf w
ĠĠĠĠĠĠĠĠĠĠĠĠĠĠĠĠ ĠĠ
ak ing
Inter face
I R
n or
k v
Ġa ff
Ġoccur red
AUT H
x lim
Ġtw ilio
Ġr r
Ġmin or
Ġdistance s
S UB
se quent
pa g
=" %
Se lect
Ġin strument
Ġra ster
Def in
m ul
/ "
Ġs r
Ġeps ilon
n m
ç »
Ġopen ed
Ġqu ality
ĠPer form
ĠR O
lat itude
ecor ator
Ġdoct est
Ġre cursively
Ġnot es
Ġtran script
E P
res olution
ĠData set
r df
d ag
Ġactiv ation
: ].
Ġan chor
ĠS ince
match ing
yntax Error
O ffset
mat plotlib
Ġsp in
R PC
U SE
st ation
Ġg lyph
]) [
P ost
b ri
Ġf ew
con firm
Ġcomp ressed
Ġso ft
vari ants
Ġfi gs
vid ers
Ġus ually
al ect
Ġattach ment
h params
comp ound
Ġmak ing
Ġ' $
ĠC IM
sens us
Ġpre serve
obj s
Ġoc curs
Ġarbit rary
Ġf inish
AL I
vis or
' })
w ind
Ġla unch
sv g
ĠUT C
D P
Ġre action
ct l
12 8
'} },
Ġth resh
xy z
non zero
b order
ĠRe cord
Ġnormal ization
Cur rent
R oot
Ġg p
ĠM ay
Ġ"" .
us ion
group by
ash board
separ ator
st or
Ġb p
mk dir
U nsupported
un ct
ph an
Ġ---------- -
Ġrepresen ted
Ġac c
B atch
x c
out e
LI ST
Mo di
con straint
Ġma jor
S cript
Ġcan onical
Ġsever al
re maining
def s
Ġorder ing
Ġaccept s
ali ases
L imit
od b
Ġdefin es
Ċĉĉĉĉ ĉĉ
Ġfast a
Ġst ar
Ġstr ategy
le ts
Ġp g
qu is
Ġout er
Co mm
UN K
Ġfilter ing
coun tered
x path
Ġa ut
pre view
ĠSt ream
>> >
ĠB ad
UR CE
list en
Act ive
Ġderiv ative
Ġtoler ance
` ).
re cursive
Ġd ummy
RE S
File s
comple ted
embed ding
dig its
L T
Ġp layer
pre cation
Ġli ve
k es
Ġn args
Ġexpression s
Ġmac ro
Ġst ypes
Ġclient s
p w
Ġca pture
Ġfollow s
M on
Ġman ually
clu ding
ĠApp ly
Ġrelation ship
ĠA mazon
Ġretri es
me as
Ġli c
ĠSet ter
Ġpercent age
K EN
g c
G iven
Ġle x
Ġmark ers
pix els
Ġty p
OP TION
Ġtor ch
M etri
func s
ĠSpeci fies
qu ared
... ")
over flow
ĠIter able
is nan
Ġvari ous
ĠP h
ot er
mat ched
work ing
th ers
z ed
B ASE
W OR
mp aign
res olver
Ġ... ,
Ġident ical
seq s
Ġhash lib
Ġbro adcast
VI CE
l r
RE C
ĠSer ial
Ġp illar
EX T
Set tings
hex digest
PRE FIX
Ġre duced
Ġtrans late
incip al
5 4
o sed
Ġ( )
(" _
Ġapp lies
Inter rupt
B Y
Ġn a
wrap ped
Ac count
measure ment
limit ed
Ġc rypto
__ :
Ġcorrespon d
ĠTh en
Add s
compat ible
evalu ate
ailab ility
g ies
gn c
Fail ure
Ġ5 00
pe x
Ġdo ing
ag ger
rit es
c ending
p ip
Ġc rop
sc atter
Ġw ildcard
get cwd
Ġformat ting
Ġlog ged
Ġcomb ination
da emon
pl t
check sum
ĠX XX
" {
F lag
Ġ" __
Ġco verage
: **
P attern
re tri
Ġex cluded
Pro ject
s ix
run ner
Ġover la
m argin
Ġcon fidence
by ref
ang ing
inter p
N ext
(" [
ĠValid ate
7 3
Ġcallback s
s hould
de scribe
ug ht
Ġnew ly
mit ive
Ġdeploy ment
Ġr s
with out
cre ase
Ġsat is
X Y
ĠAdd ress
Ġxml ns
(', ')
Ġgu arante
Ġco v
Ġ` ``
Ġ{ !
Ġwh o
ĠU ses
Ġindex ed
en otype
ct rl
Not Exist
custom er
a ux
Ġg ap
pro bs
Ġob servations
ĠTe mplate
' )))
d id
art esian
Ġmask ed
rand int
B E
Ġt reat
Ġp p
qu id
Ġen cryption
Ġfiles ystem
We b
Ġalle le
R aw
ca pacity
____ ____
Ġch art
Ġlike ly
Ġevalu ated
Ġa ws
Ġf requencies
ad ow
iter ations
width s
STAT US
t tl
Argument Parser
æ ĺ
Ġren dered
Ġsu itable
arti fact
L ib
Ġw orld
co verage
Ġgener ation
Ġclean up
bet ween
~~ ~~
al o
+ "
li ps
comp are
Desc riptor
h its
m n
... ')
namespace d
bind ing
ĠCo py
ĠOperation Failed
Ġst ation
im ing
in sum
iter ation
Ġ"" :
ĠA ct
ĠV ersion
pro blem
Un it
sha re
sm all
J son
ump tion
B ind
ä ½
bso cket
. +
mo ving
Ġyield s
Bu ilder
Ġm i
query set
MP LE
Ġpers ist
mp y
ĠC SV
pop ulation
re moved
unic ate
S ample
ĠS ort
Ġpro duce
D ep
temp erature
Ġc s
. :
T otal
Ġd ns
ĠC allable
S c
qu bits
stream s
local host
C ACHE
ĠT arget
pi cally
ĠPro ject
ĠA ccess
F ont
re a
le ast
Ġs amp
Ġg zip
per form
Ġperform ance
Ġre store
alan cer
Ġle af
ĠJ o
speci fied
initial ized
C ells
B R
e ss
Ġm k
Ġinsert ed
t as
Ġf in
ĠT akes
Ġh orizontal
Ġde viation
per son
defin itions
Ġrepe at
Ġobtain ed
S N
Ex ample
Ġpol l
i mpl
co vered
Ġis o
col lections
UN T
IT S
v ailable
Ġre ach
ch anism
Ġh dr
Ġme th
ĠĠĠĠĠĠĠĠĠĠĠĠĠĠĠĠ Ġ
Gener ator
N ow
Ġde tail
x ies
Ġv lan
state ments
Sh ow
N et
} ',
} ")
Ġd c
_ =
ĠCon text
Ġc d
Ġdi v
Ali gn
b ridge
ta iled
tr l
' {
Ġle arning
i loc
ĠE d
Ġch an
min utes
Ġinter section
long itude
ĠDo es
f q
Ġ{ {
Ġpro j
Ġapp ended
assign ment
Ġco res
Ġcon figs
sp ac
ust ed
Tra ck
} `
Ġp db
hist ogram
W h
de grees
lo red
RE F
loc ated
I TE
e lif
h ide
Ġcon vention
Ġg l
ĠP ub
In ternal
ST ART
go ing
Ġvari ants
ĊĠĠĠĠĠĠĠĠĠĠĠĠĠĠĠĠĠĠĠĠĠĠĠĠĠĠĠĠĠĠĠĠĠĠĠĠĠĠĠĠĠĠĠĠĠĠĠĠ ĠĠĠĠĠĠ
Log in
Ġf ontsize
Ġp f
lo bs
Ġ[ ('
ug ment
SS AGE
> </
U sage
s mooth
Ġ ĊĠĠĠĠĠĠĠĠĠĠĠĠĠĠĠ
per ms
all en
min or
Ġmat rices
Ġta u
Ġestim ator
mt ree
d ry
Ġt rial
ar row
Ġb ulk
Ġfl ush
E mpty
cept s
pi e
t cp
ad j
ĠV ariable
ĠPer mission
Ġaggreg ate
ord in
play er
n ers
v c
de serialize
Ġin dependent
end or
} ",
re cur
Ġo thers
um ing
ma inder
ud it
app s
Ġ{} :
ex act
ĠU sing
graph ic
: ]:
Ġhe at
reg istered
Ġwork ers
Ġdir name
m ongo
r split
t reat
LA B
Ġin coming
4 00
T op
T ags
Ġi de
Ġf our
Ġd uplicates
quest ions
ifi es
ID s
} ')
ul us
Ġ2 56
Ġcheck point
L AN
gra dient
d y
Ġn or
res olved
Ġsh ard
n ick
ol ding
run e
Ġproject s
Ġfigs ize
/ #
C ATION
Ġf ar
ĠConfig uration
R etrieve
Ġuni form
decor ator
c us
con sumer
Ġident ifiers
re ferences
ĠA nd
6 8
6 00
ĠW ith
fra ction
F loat
ar ing
Ġj s
] )))
b ut
e g
f ront
h df
re present
par allel
key id
velo pe
note book
F IN
di ents
Ġname spaces
du ces
bound ary
Ent ity
separ ated
fra gment
1 01
Ġ1 8
Ġcan vas
Ġchar set
s olve
Ġca pacity
/ <
M C
er tificate
ct ypes
Ġst and
Ġh ighest
und er
base s
un used
int ext
Ġr m
Ġfil led
H ist
Ġb ed
Ġg ives
update s
arg inal
Ġcomple t
Pre fix
it ute
str ptime
Ġboot strap
class ification
Ġspeci men
tz info
Ġpers on
t ot
() ])
_ ):
Ġa data
dire ctories
h int
run s
Co mple
AR D
TE ST
bl ank
Ġ201 6
D C
f coe
l legal
Ġk ill
Ġve locity
{ '
qui et
let ion
ven ance
Ġoptim ization
w ers
Ġt p
Ġt ries
(' "
p as
s cipy
set Level
Ġang les
shut down
ĠP ost
ĠĠĠĠĠĠĠĠĠĠĠĠĠĠĠĠ ĠĠĠ
oc us
Ġ', '.
CM D
ass oci
lap se
v y
Ã ©
de coder
Ġpla in
ä¸ º
Lay out
M Q
ĠC PU
pab ilities
ma pper
int f
iz able
== =
Ġsh own
SP ACE
e qu
Ġf u
Ġb ank
ang ular
Ġglobal s
board Interrupt
contin ue
5 9
S k
e insum
Ġt c
pl ane
lastic search
j ar
ins pect
Ġmapping s
Ġmeasure ments
Ð ¸
Ġre ject
an za
Ġd l
lit eral
Ġexec utor
Ġmean ing
åĽ ŀ
or al
to pology
Ġbase s
rece ived
Ġc ss
ĠE C
Ġav g
gr p
adr atic
Does NotExist
CO MM
Ġmedi an
ĠSh ow
ab c
Ġlook s
Ġo mitted
Ġan ce
Ġh its
ĠP art
ĠCol or
h ts
in line
RO OT
T T
ĠK E
initial ize
Ġaggreg ation
Ġ{ :
ph one
S R
l and
ĠT ag
ase d
speci al
ĠP Y
Ġx s
Ġle ave
Id x
To ol
) """,
n om
mo us
SE PAR
peak s
f tp
Ġf its
Ġi i
ĠRe place
vo id
Ġali ases
Ġoverride s
SO URCE
Ġbro ker
up s
ĠE ng
ac counts
Ġread able
Ċ Ċĉĉ
Ġ ;
ĠEn vironment
S top
c lock
Ġto ols
Ġfor ms
ri pts
sg i
LO AD
Ġlike lihood
Ġcomb ine
Ġrout ine
] {
Ġx max
sp in
figs ize
Ġph ysical
ĠHttp Response
ĠS u
Ġj ump
QU EST
Ed it
may be
P i
Ġn r
am ent
amb da
Ġc n
Ġfa ster
O ne
re cognized
AN T
Ġsc ene
Ġident ified
o ct
le ting
im al
ĠM O
ĠNot Found
G O
g i
Ġdi strib
ĠS H
pac ing
mac ro
Ġ ---
ro gram
() ['
CH AR
Ġip v
Ġ' (
Ġ1 80
Re quired
ĠC ustom
read lines
c rop
f ollow
ig ure
ĠR GB
Ġsub sequent
Time stamp
de cl
'] }
ĠM y
## #
"] ))
ĠBack ends
W ait
ot a
Ġr x
Ġpro tein
il ine
Ġh ad
W riter
c ates
æ į
é Ģ
at ural
ra ster
Ġto k
mid dle
attach ment
ific ant
s yntax
Ġp print
Ġin ject
Ġca re
Un expected
Ite ms
Ġan n
Ġthis Obj
ution s
char ge
li very
Ġlist ener
idx s
Ġch r
Ġde al
Ġalpha bet
non ce
alle le
Reg ion
STR ING
ar ound
la sk
Ġde coder
Ġart icle
qu ad
cal ler
ER S
Ġsu do
Ġ12 8
ĠYANG DynClass
YANG DynClass
P M
f inish
č ĊĠĠĠĠĠĠĠĠĠĠĠĠ
ĠS kip
St ats
Se gment
part itions
ĠURL s
radi ans
O M
S hape
Ġor ientation
Ġun expected
start ed
Pro tocol
qual ity
pe dia
Ġcon tour
new axis
lev ation
3 00
Ġb alance
Se ction
Ġpart itions
pro d
Ġprocess or
su do
J o
Ġco lour
Ġlink ed
bind ings
Ġcla use
C ate
g ui
Ġex change
Ġde ep
we ep
go od
Ġprobab ilities
activ ate
hy per
) ['
G ra
S tack
V olume
ul ations
et ree
lic able
Ġover lay
å į
ĠA pi
Ex tra
Ġlet ter
}: {
illi seconds
C ustom
} -
Ġm er
Ġresid ual
develo per
å Ĭ
po ses
Ġv cf
Ġen countered
ĠL a
ĠPo int
Sp lit
Ġin correct
Ġb i
Ġadd ition
Name space
AN CE
Ġscal ed
4 6
T itle
ex posure
ho p
reg ular
mapping s
ĠHe re
Ġin fer
ro utes
name spaces
ĠValue s
Ġun used
Ġre striction
min ute
ATE D
M D
an sion
Ġse ar
'] =
Ġl n
Ġfi re
pi ents
SEPAR ATOR
2 000
R ect
S B
s queeze
ut ures
12 3
fl u
Defin ition
P ackage
P ay
") [
Ġremo ving
haz ard
Ġin ts
ĠP AT
Ġserver s
Ġupd ating
Ġn dim
Ġs ink
ĠY AML
st able
is ing
gra ins
rot ation
ĠSp lit
( ("
Ġsp atial
UT F
ĠNull Argument
e le
r n
Ġ201 5
t ls
Ġc m
domain s
Ġdat atype
ticip ant
flo or
M ask
Ġh old
99 9
ĠLo ok
Ġskip ped
Ġgr ant
* ,
A X
start ing
Ġtra jectory
ĠGener ates
Ġre pos
pe g
fi r
ch i
Ġr pc
Ġac curacy
Ġe mit
pla ces
/ ',
T AG
h alf
Ġreg ard
Ġ4 04
Ġinv oked
g id
Ġs cheduler
ĠD ocument
ĠJ ob
sec ure
res ize
ic les
ĠU p
! "
G o
G ui
ĠC F
At temp
Ġkw arg
ĠHel per
Ex tension
Ġmin ute
mark up
u c
sp f
ren gth
ther net
stra in
ĠPro per
Ġdescri be
li ck
mp ath
Ġpre ferred
Ġmark ed
ĠValid ationError
Valid ate
Ġs heet
Ġ[ %
num s
Ġad jac
test s
Trans action
Bu ffer
Ġg rouped
RE G
Ġfa ke
Ċĉĉ Ċĉ
ĠCo mm
Ġart ist
O p
Ġp ys
Ġpro g
Ġthread ing
Fa ctor
se en
la ce
Ġ-------- -
Ġ4 00
the me
201 8
vance d
st yles
St at
M sg
c mp
Ġin s
Ġs olve
Ġe lapsed
Ġb s
ser ts
ĠD ownload
ĠM I
ä¸ Ģ
TO KEN
FLA GS
fi ers
D en
T ry
iz ations
Ġurl parse
Ġconver ter
Ac cept
W ord
ro uting
ĠRe ference
Su ccess
DE D
Ġse ns
reate d
pri me
Lo okup
} _
corre lation
C reating
W E
Ġ( [
Ġoptim izer
Ñ Ĥ
__ '):
Check s
Ġde ad
pro vision
RE CT
Ġr hs
ĠTime out
Ġ[{ '
F lags
at t
il la
ĠF a
Ġdiag onal
s amp
x i
] /
Ġst uff
Ġ" #
Ġnot ify
ĠI NT
ty p
Ġfollow ed
* \
C D
v cs
Ġen crypt
Ġten ant
ĠS SL
ĠE l
Ke ep
P ix
{ \
en cryption
Ġw allet
Ġun ion
de sk
ci pher
ĠN ULL
ĠSe lect
let ter
P H
Ġfloat ing
top ics
predi cate
R andom
er ance
ma ils
Ġpro duced
tr unc
Ġh ide
=' %
Inter val
Pl ugin
k lass
urn ame
te gr
add itional
cent ric
ĠY ields
factor s
Ġqui ck
b on
Ġ' \\
to o
Ġreg istration
Ġinter active
UR N
h n
u it
termin es
Ġm ouse
ord ers
fe at
TE S
prefix es
Ġshut down
[ ...,
Ġ lif
Ġp b
P R
S pace
i um
Ġd ag
Ġl v
b ranches
Ġre load
Ġm argin
Ġin f
Ġor bit
pro jection
over write
Ġexpi red
predi ction
Ġma il
Ġbo ard
] `
Ġs lices
stack overflow
allen ge
ul ary
um or
Ġr id
Ġclo sing
Ġlar gest
1 80
H ttp
Ġh az
Auth orization
Ġembed ded
******** ********
in fer
Ġt reated
ench mark
C alled
cent ers
ĊĠĠĠĠ ĊĠĠĠĠĠĠĠ
Ġbra cket
B in
R a
P e
Ġa ry
Ġm v
log its
ti er
C luster
ff e
In teger
Ġplace holder
Clo se
) ?
qu eries
Ex p
Ġ"{} "
(': ')
x min
ar ily
ĠN D
Ġimp ro
Ġrequire ment
Ġshort cut
A V
s ci
Ġup on
ome ga
Ġrespect ively
in ux
Ġal ert
Run ning
Ġada pt
Ġs pi
ĠO K
has hes
Ġen s
Ġcomp iled
AN GE
rf c
ce ler
Ġu i
Ġv tk
ĠM apping
6 7
d on
o i
p f
co okies
Ġcon trib
PE N
author ization
Date Time
yg ons
ĊĠĠĠĠĠĠĠĠĠĠĠĠĠĠĠĠĠĠĠĠĠĠĠĠĠĠĠĠĠĠĠĠĠĠĠĠĠĠĠĠĠĠĠĠĠĠĠĠĠĠĠĠĠĠĠĠ ĠĠĠĠĠĠĠĠĠĠĠĠĠĠĠĠĠĠĠĠĠĠĠĠĠĠĠĠĠĠĠĠ
Ġalign ed
Ġw s
Ġbe am
ĠExec ute
, **
ix in
box es
Ġp added
ad s
Ġ" (
dis connect
ĠRa ise
+ +
lo pen
c df
h ierarchy
Ġf rozen
Ġcontain ers
over lap
c rs
p otential
r p
Ġin vert
Ġs low
Ġ' ?
ak er
Ġreference d
Ġpol ynomial
v pc
Ġc id
form ula
Ġpo ssibly
Ġfe at
F etch
end points
Ġinitial ization
CLA SS
S tep
ta ke
ne arest
iss uer
Ġstream s
ire ct
r mtree
Ġto do
Re port
è¿ Ķ
mav link
' +
Ġf c
Ġh ierarchy
Z one
Ġy max
ĠSe ssion
C G
an ity
to k
Ġqu antity
ĠB u
bro adcast
4 9
Ġe q
ab ort
Ġnon ce
Ġassume s
HO ST
pro tein
Ġ-- >
Ġsq rt
Ġprefix es
ĠAss ume
G IN
R ate
ph ysical
Ġcal endar
TIME OUT
Ġbel ong
M ag
Ġiter items
spac ing
I X
Ġde epcopy
Ġoper and
è¿Ķ åĽŀ
b asis
l b
å º
in complete
an cy
ĠA b
Ġn c
ĠIn teger
utc now
et ic
fil t
De codeError
clean up
Ġintegr ation
s lots
Ġin herit
li de
Ġro utes
Valid ationError
Ġe g
Ġ\ "
ä¸ ª
Ġconver ts
taint y
re action
Ġo auth
(" <
ĠR PC
Column s
m f
in strument
Ġde velo
Ġup grade
loc ator
Ġrecomm ended
W T
n ado
or b
Ġ' &
Ġm ol
dat atype
gp u
: {
Ġb ranches
Ġd w
Ġst e
pa gate
Ġk v
Ġpl us
ĠUpdate s
P r
Ġn n
Ġat trib
den se
s lices
HTTP Error
pe s
fi len
el low
Ġpa st
ĠW ait
Ġend points
5 3
ph ot
Ġt m
ist ype
ĠV AL
... )
Ġperiod s
ĠCurrent ly
z ure
č ĊĠĠĠĠ
Ġbound aries
ada pt
aggreg ate
B B
F E
Ġs d
ex change
ten ant
RO UP
Ġsample d
lex er
ĠA x
Ġ8 0
Ġ': '
ĠC alled
fo cus
ĠRe moves
art beat
sh ips
Ġrun ner
Lo ader
eps ilon
LE NG
Ġscope s
Dis play
B ound
c andidates
mo ment
Ġ-------- --------------------------------
Ġrepe ated
rib ution
Field s
[ \
y ield
Key Error
Ġorg anization
Ġ[- ]
t ex
Ġ ì
Change d
T here
Ġs ci
Ġm m
Ġ[ _
art icle
At tr
anit ize
e ch
Ġs uggest
co effs
ĠO N
Ġso up
Ġcustom er
Parse Error
de limiter
sp h
initial izer
Ġvolume s
percent age
Ġhapp ens
LENG TH
Ġqu bits
Auth entication
g iven
re store
Ġapp s
ĠCon nect
over lay
SH A
Ass ign
U sing
ĠS imple
:` \
can onical
Ġ" +
qu antity
AD D
Ġexpi res
Do main
åı ĸ
Ġ` %
pa red
Ġcomp s
')) ,
) *(
co in
ĠEx tra
sub scribe
helper s
ver bosity
ext ended
Ġerr no
ĠGo ogle
v tk
Ġc redential
ĠReg ister
g lyph
Ġ è
in crement
at al
pa y
ĠL ength
An alysis
) })
. ],
P ack
g ain
Ġr and
:`~ .
activ ation
b ian
Ġa ck
Ġdepend ent
æĹ ¶
8 7
S ymbol
ĠP age
ĠM atch
ĠL abel
Ġimport ant
cre ts
Ġge om
H TML
u li
art ist
comm unicate
Ġsecond ary
di alog
ĠP i
Ġos id
Ġmo ving
Ġsort ing
12 7
k b
Ġt tl
exec utor
contain ers
an chor
Ġg as
et ched
ou ble
TE N
estim ator
sn mp
ĠTra ce
6 9
P N
Ġ`` "
ĠR FC
check point
b c
b all
ri ft
Ġde ci
Ġvalid ated
PO INT
alys istype
rel path
Ġren derer
resid ue
Ġti cket
b atches
list ener
ĠKey boardInterrupt
char set
Ġ' ').
ch dir
return code
lic ense
c rit
Ġre served
lin ux
le st
Ġth us
Se q
Ġsession s
= __
_ ['
s am
č ĊĠĠĠĠĠĠĠĠĠĠĠĠĠĠĠĠĠĠĠĠĠĠĠĠĠĠĠ
or ies
Ġin p
vi le
Ex pression
' ^
) """
G lobal
R GB
ä ¼
lock ed
Ġsk y
distance s
Point s
4 3
L en
ĠS P
Ġas pect
Data base
( """
- \
> =
Ġat tention
Ġcur rency
Al low
expi res
ä» ¶
Ġ_ ("
Ġx min
). """
read able
ĠMA X
lo y
Ġan im
dis abled
dest roy
B ACK
N on
in ator
al chemy
ĠS SH
sc ene
5 12
ĠG u
AT CH
Lo op
Ġrece iver
ĠOPTION AL
= ('
Ġres olver
Ġsimilar ity
Ñ Ģ
ĠS chema
Ġsplit s
ĠVer ify
Ġc f
cs r
10 24
mut ations
Ġlic ense
Ġend ing
ef t
ME SSAGE
probab ility
o ok
Ġl iteral
Ġpar s
tod o
N C
ma gnitude
ha in
ver tical
tain s
Ġne ur
B it
en crypt
En coder
Ġh a
script ors
At tributes
f u
l lable
m gr
Ġversion changed
Ġblock ing
Ġsee ms
NO WN
Den ied
' %
ĠI te
ial og
Ġindic ator
Ġimp licit
optim izer
Ġgate way
Ġamp litude
hem ical
] "
d uplicate
n v
Ġ jo
in p
in verse
Ġpub lished
writ es
Ġcum ulative
Ġhaz ard
b ulk
Ġl it
sub stit
root s
ob servation
writ ing
Ġreci pient
5 2
D own
M AC
[ [
Ġde tection
len code
CON ST
ĠCh annel
)/ (
fun ctools
ĠTe mp
n ic
on ic
Or deredDict
Ġmar ket
Ġb c
ran sp
sc p
CO MP
leg ate
Ġhy d
authentic ated
Ġa mb
Ġwh y
ĠOption s
Ġe lect
Ġdata store
ph inx
Ġac counts
roll ment
g res
m r
re load
Ġp alette
Ġsto res
ĠStr uct
Ġac cum
oth ing
12 34
Ġas k
Ġcor pus
Ġexpi ration
ĠUT F
ony mous
9 7
D ER
M y
Ġre main
Ġin ference
Ġwork space
Ġdid n
Ax es
C md
R UN
e ach
ren derer
ĠG ra
work space
] ")
t ell
Ġp en
IT H
clean ed
file obj
čĊ čĊĠĠĠĠĠĠĠĠĠĠĠ
mal lest
ĠĠĠĠĠĠĠĠĠĠĠĠĠĠĠĠ ĠĠĠĠ
sub plots
Ġref er
Ġimp act
at ched
Ġfactor s
ĊĠĠĠĠĠĠĠĠĠĠĠĠĠĠĠĠĠĠĠĠĠĠĠĠĠĠĠĠĠĠĠĠĠĠĠĠĠĠĠĠĠĠĠĠĠĠĠĠĠĠĠĠĠĠĠĠ Ġ
Ġstrip ped
pt im
int o
Ġtimestamp s
depend ency
mple ments
iv ot
ĊĠĠĠĠĠĠĠĠĠĠĠĠĠĠĠĠĠĠĠĠĠĠĠĠĠĠĠĠĠĠĠĠĠĠĠĠĠĠĠĠĠĠĠĠĠĠĠĠĠĠĠĠĠĠĠĠ ĠĠ
Ġsen se
scope s
j d
j i
Ġpar agraph
out dir
> .
g d
go v
L U
a res
m ysql
Ġ1 7
Ġout come
ĠG O
ti cket
Ġapp licable
exp onent
author ized
Bu cket
on om
Ġre m
Ġse l
Ġl b
(" .")
Ġhas hes
Ġdebug ging
Ġ" *
ĠA N
Ġr ng
sub mission
posit ive
ĠC alculates
ĠU UID
ĠEx p
mark ers
an alysistype
data store
Ġgener ating
Ġstruct ures
Ġmy minion
R T
ri er
Ġas cending
ĠP a
Ġla b
ĠO Auth
Ġoper ators
Ġstop ped
æį ®
in file
Ġc lock
doc string
ĊĠĠĠĠĠĠĠĠĠĠĠĠ ĊĊĠĠĠ
A I
d it
is digit
En gine
wh at
Ġcir cuit
M IT
i ate
Ġnumer ical
N ote
[ ~
Ġv a
log file
Element s
Ġauthentic ated
, %
4 7
Ġt ur
Ġex ceed
tra j
head s
tran script
i face
ar p
Ġ( {})
ĠD ep
Ġ[] ):
Par ses
Ġpas ses
ĠSt orage
Ġs altenv
ĠIn clude
g uess
r ations
con structor
Ġpro files
time series
Ġsh if
ĠDe vice
201 5
Ġauthentic ate
ĠGe o
v x
Ġt gt
sp here
request ed
widget s
Ġo mega
Ġd ynam
Ġcorre ction
Ġnotification s
bri ef
T ABLE
se cut
li ers
response s
(? :
ĠNe ed
ĠF rom
ac quire
vers ation
PA SS
H ub
V ari
w allet
re quires
Ġs co
co effici
ans wer
split s
Ġhigh light
Ġapproxim ate
Ġs pacing
ĠS ample
Ġmat erial
vid ing
Lo ck
TR Y
Oper ator
Ġrecur se
I t
S ec
he llo
ĠIn ternal
b ol
Ġa ren
out come
l m
n y
w ho
Ġsc ripts
right ness
mode s
Ġcor outine
: ')
r aries
be m
('. ',
ĠIgn ore
Ġb old
={ "
ĠLo cation
Ġvis ited
Ġden om
ame l
ing ular
Con d
DO C
Ġsa mpler
gg le
multip lier
ĠA SCII
Ġres ize
Se e
li sion
uplic ated
Ġwrit es
percent ile
D et
l sp
t id
Ġe le
Ġth ird
Ġgre en
D elta
] ')
k t
en crypted
Ġ' @
---- -+
Con verts
RE QUEST
ab b
modi fy
PAR AM
Ġchrom osome
İ ¥
Ġ{ %
Ġas sets
client s
vis ions
TO DO
}. {
re start
av ig
trans lation
Ġincre ase
Mem ory
ĠP op
TEMP LATE
+ \
load ing
Ġloc ator
Ġe fficient
SER VER
comb ine
+ ',
ul ator
---- --+
Ġ0 0
ĠAt temp
Connection Error
C CESS
L ast
ĠA fter
og en
ced ure
attemp ts
d v
align ed
ĠOver ride
Ġif ace
ĠA B
Ġcor ner
dic ates
OPTION S
h ub
m and
ĠL ink
Se curity
Ġbel ongs
args pec
li o
ve st
Ġshape s
= ["
M ain
Ġs aving
ro at
black list
Ġdecla red
' m
p alette
he alth
now ledge
indi cator
Per form
ĠTrans form
COL OR
not ation
cre ation
LA Y
W indows
p od
Ġp itch
ct ype
Ġb atches
Ġhe alth
GE X
late x
M enu
T ING
Ġv pc
Ġne st
Ġplot ted
z h
Ġlist a
Ġx i
sh ard
cred s
str s
ĠP RO
Ġstd dev
33 33
Proper ties
S ite
t up
Ġe ta
Ġb ond
fa c
ĠLo cal
F ore
p mag
Ġth ough
Ġdata center
ĠĠĠĠĠĠĠĠĠĠĠĠĠĠĠĠ ĠĠĠĠĠ
Ġ2 3
cy cles
O FF
R S
t gt
LE V
Ġmo lecule
ĠIP ython
merge d
LIN K
) [-
, :]
Ġf lip
sp ice
ĠDis play
Ġmanage d
Ġclean ed
M erge
Q A
li min
Ġpa y
stri de
av as
bre viation
d h
Ġc mp
(' >
Ġcontin uous
ot ypes
ch art
Ġ% }
Ġtrans actions
Ġdetermin es
D ay
m ant
å ¼
de sign
ra pping
ĠLo op
ĠP andas
Node s
peri ments
Update s
9 3
or ientation
pe m
wh itespace
Pa rent
Ġ\' {
Ġresid ue
b ric
pa yment
ĠO per
=" {
tod ay
Com ment
Pass word
B ER
v stack
it ect
ĠOr der
sim ilar
at ios
Ġn ick
Ġin file
ĠC ho
Ġpa yment
ach ine
Ġ| |
Ġmode s
Ġbuild ing
Ġlanguage s
Ġtrig gered
End point
ä ¿
Ġt t
Ġv max
cp us
tick labels
Ġp c
)) ):
Ġun cer
LI B
pub lished
retri eve
U ES
Ġa way
"] ]
volume s
IG NO
Ġs wap
conver ter
C ho
Ġthe me
Ġqu otes
MA GE
HO ME
P s
le gram
Ġindex ing
strict ed
Ret ry
m or
æ ł
at ar
ad i
pre p
ix ed
Ġdest roy
Ġtensor s
Ġloc ated
8 3
G L
Ð ½
ĠPar ses
al go
fi ler
ĠT er
Ġh ack
ĠI mplemented
Ġreport s
sto ck
h p
s cheduler
Ġo ct
ate ver
ĠM on
ĠFI LE
scal ed
ĠKE Y
c atch
Ġdis crete
Ġup loaded
graph y
mplement ation
ä¸ Ń
I p
f m
al tern
Ġb b
str ategy
Ġint ended
DE X
secut ive
w bem
ct ime
ver b
ĠF etch
Ġinter mediate
Ġtop ics
mark s
Ġn ice
Ġdo i
ĠV iew
ĠG aussian
Ġfla sk
ĠSet ting
nor mpath
g ot
u oa
ent ropy
Ġfa ces
Ġver ification
Ġbox es
Ġt aking
as sets
ne eded
Ġsup ply
Ġtick s
d T
s co
Ġlist ing
ill ing
sd k
Ġcollect ed
Ġmix ed
tun nel
ĠĠĠĠĠĠĠĠĠĠĠĠĠĠĠĠ ĠĠĠĠĠĠ
.. /
info s
Ġover all
Ġcha ins
D raw
at ively
ar di
Ġde ps
Ġx path
ach ing
cla use
Ġp ul
Ġb am
__ ',
ĠR andom
riter ion
Ġoptim ize
Ġsym metric
Ġ' '))
po ssible
Ġint ro
LI C
A da
a o
Ġre tain
Ġ== ========
Ġ3 1
rece ive
, \
a mpling
l ux
r ant
Ġw ater
ĠA li
cal endar
Ġab stract
ĠPAT H
f olders
in ity
or a
ĠN on
Ġ3 60
Ġback ward
ĊĠĠĠĠĠĠĠĠĠĠĠĠĠĠĠĠĠĠĠĠĠĠĠĠĠĠĠĠĠĠĠĠĠĠĠĠĠĠĠĠĠĠĠĠĠĠĠĠĠĠĠĠĠĠĠĠ ĠĠĠ
Read s
f ault
u v
å ľ
al m
Ġs ystems
ss ue
Ġas cii
ine ss
len s
ĠM erge
comp ose
Ġspe cs
Ġconcat en
b oth
co eff
up y
Ġma pper
rece iver
Ġdig it
i pt
æ ī
Ġst yles
Ġco me
Qu antity
al ker
port al
In di
relation ship
åŃ Ĺ
ĠEng ine
} _{
Ġre mainder
pt ide
ĠA zure
po licies
tri al
SS ION
Ġrender ing
Ġeffect ive
' ",
1 0000
d up
ĠH E
arg parse
su bj
So cket
Ġpie ce
Ġpie ces
P op
p ct
Ġout dir
__ ()
be led
na if
Ġremo ves
rb ridge
ĠIter ate
ĠT ake
Ġv min
Ġla zy
ne st
ĠTh at
Ġqu bit
ĠMe m
Sign ature
Ċ ĊĠĠĠĠĠĠĠĠĠĠĠĠĠĠĠĠĠĠĠĠĠĠĠĠĠĠĠ
Ġn t
Ġin ferred
Ġex ported
ĠP AR
ĠE ND
ll ite
Ġload s
! =
al ert
'] ('
Initial ize
D ialog
Ġs it
ch ors
reg istration
Ġinter sect
const s
ĠIN PUT
S to
en g
Ġexpect s
gorith ms
S up
g as
Ġin voke
** :
ĠDE BUG
WOR K
w l
la m
Ġ" [
con tour
Ġlo west
ins pe
UL TI
optim ize
f fi
al ways
di strib
arg max
dist s
Exec ute
cha ins
A ng
D oc
Ġt up
def ine
Ġcomp iler
Ġcal ibration
inter pre
ro me
ĠM odule
aggreg ation
Ġoverrid den
O D
ate llite
ĠA ction
ĠA uto
Ġstr and
ĠO b
SI S
ĠDo cker
avas cript
* ',
re ach
ĠF lag
Ġwa velength
S im
Ġp ot
ĠC lean
ĠĠĠĠĠĠĠĠĠĠĠĠĠĠĠĠ ĠĠĠĠĠĠĠ
Ġy min
Ġcolor map
B inary
D X
Ġ{} \
check ed
sign als
tol erance
SK IP
L ANG
N ULL
b ands
Ġf ingerprint
il de
Ġg t
kw arg
itor ies
wh ile
Ġinterpre ted
C DF
get value
org anization
ĠRead s
P G
s park
} ),
ĠI mp
req s
P P
z zy
Ġinternal ly
Ġleg acy
V irtual
b gp
Ġca pt
Ġappe ars
b io
g os
v v
Ġn v
up grade
Ġh du
Ġsub scri
Ġclass ifier
AR CH
Ġfl uid
Ġdistribution s
Ġlit tle
q t
ç Ľ
Ċ ĊĠĠĠĠĠĠĠĠ
vi e
Ġme mo
Ġme chanism
ĠS to
Ġfil t
ĠQ ueue
ata ble
ex us
ĠH ost
AT TR
Ġgra ins
En ter
P RI
Ġf fi
ĠS tep
ĠC orre
sc roll
Ġsh uffle
Ġmulti processing
boot strap
Ġâ Ģ
Ġinterpre t
Ġbecome s
] ]:
g zip
h d
Ġ# ##
Ġ" :
ma ker
Ġ2 2
ph oto
DI S
TR AN
ĠRE ST
R N
| \
al ty
Ġma gs
ĠM atrix
ĠL ay
place holder
Ġfore cast
i ri
w sgi
Ġc ra
out h
Oper ations
CHE CK
Ġp m
Ġen c
ME TH
Ġ'_ '
ĠF lask
ĠV PC
Ġexec uting
ĠAc count
Temp orary
Ġf ocus
Ġst rain
ĠC lear
ĠP ort
ĠD NS
comp iler
f ontsize
s ilent
py plot
in el
ro ut
ĠS O
ĠB ut
ĠH DF
Ġsen tences
Ġrot ate
i ro
la unch
Ġl l
ĠRe f
Ġpo sterior
Ġimport s
Ġradi ans
SCRI PTION
ren d
DI RECT
af ka
ĠMo di
Ġth umbnail
Ġconfig urations
mon ic
6 3
ĠRe ce
Ġcont rols
Ġsub classes
Ġsup press
Ġgener ates
Cont roller
B EM
x large
st p
Ġgra b
Ġnetwork s
Create d
čĊĠĠĠĠ čĊĠĠĠ
é Ĺ
In stall
** (
Date time
8 2
Ġg ain
Ġco okies
Ġde cl
ĠP DF
do i
Ġcomp uting
=[ ]
M od
o res
Ġc ritical
pro tected
'' .
Ġtime series
if s
save fig
ĠDi rectory
Ġvol tage
_ "
Ñ ģ
ĠS ize
dir ty
lat ent
Ġsign ing
D ec
Ġm illiseconds
Ar n
Ġindent ation
FOR M
Ġd p
Ġh int
Ġde crypt
ĠM ed
TH ON
ĠPre pare
Ġb r
ĠA ST
f allback
al formed
ve y
Ġ_ ('
Ġy label
vis ual
CO UNT
bro ker
TER N
Ġproduct s
H as
Ġf olders
el t
Ġar row
RE QUIRED
Ġlocal ly
Ġcons umed
Ġreci pe
estim ate
predict ed
Ġsla ve
> ')
Ġt d
Ġs ong
out s
ĠR el
Ġbucket s
Ġexpi re
precation Warning
" },
S yn
c ri
æ ģ
æ Ŀ
é ĩ
ĠT H
ER Y
Ġcode cs
Ġcond itional
Ġiss uer
IL D
sca ped
Ġpur poses
S ha
W H
i et
it ches
Object s
Ġcent ers
coordin ate
? ?
P OR
th rough
Ġy es
ha ve
S CHE
b ul
et ime
`` ).
In it
place ment
pri v
title s
conf lict
ĠMe as
Ġmime type
âĢ Ļ
C IM
ĠT R
ry pt
ci al
Ġ2 04
Name d
import s
ĠString IO
! '
B LOCK
G ROUP
å ¯
Ġt ip
Ġp seudo
index er
de crypt
al arm
Ġgroup by
Ġhow ever
press ure
ĠUni que
ĠI S
real path
Ġ"/ "
args ort
ip pet
comp ar
Ġsc roll
Ġdirect ive
Ġlower case
B IN
h olders
Ġle arn
MA IN
Ġund ers
iso format
LEV EL
d ropout
h stack
s un
Ġs urname
port ion
gr ant
Ġmis match
d uplicates
Ġ ĊĠĠĠĠĠĠĠĠĠĠĠĠĠĠĠĠĠĠĠ
from string
Ġent ropy
Ġdis card
Ġ... ]
L ike
S UP
se cs
Ġp ts
Ġs f
Ġt ell
ot ing
am i
ob served
Ġfast q
: <
Ġs lope
=' /
Ġpa ired
Set ting
Ġde t
red dit
class name
Ġpl ural
Ġgra de
assign ed
] _
in o
Ġi v
ur face
mo ot
Ġinter p
auth ors
Ġsc atter
ĠSt atus
Ġtermin ate
E E
Ġf re
Ġe mp
Ġe vidence
Ġse ason
Ġla g
Ġint ensity
Ġfit ting
Ġfun ctools
M ust
Ġt ot
ĠL et
In vocation
AS H
k l
t an
sp atial
RE NT
Type Id
Ġfind ing
Ġfl u
measure ments
ĠPermission Denied
g w
i mag
Ġs ke
ca pture
æ ŀ
Ġw ind
EN TI
ced ence
timestamp s
j ump
à ¸
Ġ ĊĠĠĠĠĠĠ
ar se
App ly
resid ual
f b
Ġ um
im ize
Ġob server
6 1
am big
ĠApp end
E num
T r
Ġst ops
Ġg iving
Ġpre pend
201 7
Ġlon gest
T L
ident ifiers
a e
x b
(" #
ĠD raw
Ġsign ificant
Ġag g
tifi cates
ĠMin imum
ĠB EL
AC TION
gener ators
Ġlet ters
scal ing
O ff
ĠA LL
Ex pr
Ġback wards
weight ed
need s
Ġch i
pa use
check er
Ġcate gorical
("" )
F older
Z ip
d ummy
Ġe scaped
S ort
ed u
Ġda ily
Start ing
MS G
Ġaffect ed
e mp
ĠS hape
vo x
Mem ber
an a
as c
et ches
ĠE OF
ĠV ector
Ġne ar
Ġca mpaign
du cer
bucket s
st ub
Ġg round
session s
ĠCo mple
ĠCo unt
ĠQt Core
æģ ¯
v d
link ed
CO D
19 2
}. '.
ĠRed is
d um
qu ential
Ġcur ves
Id entity
Ġmo ck
Ġtransform er
G it
Ġan no
config ured
pla ys
pk gs
Ġlat tice
Config ure
Ġzip file
ĠComp utes
report s
1 99
ch ines
[' __
per f
Ġline width
ty ping
Ġdetect or
Ġh ar
pro files
ĠD ynam
Ar g
Ġdiffe rences
Ġtransform s
Tra ce
predi ctions
+ =
h orizontal
Ġs ib
Ġ' ;
il ation
---- -
Ġy i
Ġget ter
Ġview s
lip se
Ġa ir
Co unter
R ender
k y
Ġc le
net loc
Ġpk t
Ġgr p
ĠSalt Cloud
unct uation
) >
9 2
s f
is is
Ġ2 8
UT C
Part ition
O b
Ġn ic
Ġm tf
ĠE RR
][ -
201 4
C al
Ġm utation
In sert
ĠIn stall
OR M
TE NT
ĠOptional ly
Ġsm art
Ġwidget s
Struct ure
e per
i ma
Ġlat ent
Ġmod name
Ġrespon d
/ *
> {
mm ing
Ġ'. '.
Ġvox el
F D
b az
en ces
Ġd pi
Ġco ef
Ġdi alect
ĠĠĠĠĠĠĠĠĠĠĠĠĠĠĠĠ ĠĠĠĠĠĠĠĠ
ĠO UTPUT
Ġtor nado
ĠCa che
c annot
ot ropy
con version
Ġ2 1
Ġcolor bar
EN CE
ĠUn known
pk l
Ġperform ing
attemp t
hard ware
Rece ived
S PE
an di
Ġo prot
set Text
sample d
dec la
Iter able
Ġsuc ceed
al es
ĠF inal
sub type
Ġthere fore
Ġ201 7
Ġ201 8
Reg istry
xx xx
Ġi x
read ing
Ġsc enario
Ġapply ing
wiki pedia
d ynam
e ast
ol l
ĠC H
ĠN x
trans itions
Ġpart icle
rel u
201 6
cal ing
comp s
lat tice
pk t
L P
h du
Ġe m
Ġl w
Ġx label
Ġ'{}' ".
Red irect
moot hed
O rig
p ic
q dm
x p
st ors
ĠT CP
Ġex clusive
Ġgener ators
ane ous
Ġsym bolic
Ġbehavi our
Ġstud ent
D ouble
e th
f ed
ĠM issing
op le
epoch s
e gg
iv ari
Ġj ava
ER T
Ġtest ed
ĠApp lication
Ġhook s
ĠIte m
b ine
Ġre use
Ġde letion
Ġfunction ality
AR K
Ġrandom ly
Ġdist inct
clus ion
Ġcir cle
Ġf resh
let on
Ġrel ations
SU CCESS
Invocation Error
f old
sen tences
index ed
Ġaccept able
{ "
Ġdi c
Ġcomp ared
ep isode
rot ate
Ġproto buf
=' ')
auth entication
/{} /
E mail
Ġin structions
Ġnot ation
ma cs
Ġsk ipping
deploy ment
ĠFe ature
Process ing
Ge ometry
Ġregard less
B S
B LE
st roke
Ġ" ."
int en
MA IL
F ull
å ½
İ ·
Ġc ube
Ġcon venience
Ġ` {}
ĠE valu
mo use
ps d
Ġca ption
String IO
mar ket
F irst
r h
de ad
(' __
ĠS Frame
Ġun signed
lic ity
block ing
oc cur
sha ke
alle li
/ :
li ms
om ic
LE N
Ġopen ing
Ġflatten ed
B asic
S imple
ĠS Cons
Ġcont ig
find er
Ġsql ite
e lect
se ctor
Ġs ingular
con fidence
Ġqu oted
cmd s
ĠWh at
override s
S can
d ct
ĠN othing
Ġpo licies
clo sing
s ink
ch ast
log level
Ġdomain s
i fo
x t
Ġs g
lo cs
Ġb urn
Ġg aussian
()) [
-+-+-+-+-+-+-+-+ -+-+-+-+-+-+-+-+
G HT
as sembly
pol ygon
Ġ'/ '.
Group s
Ġbro ken
Ġol der
A WS
T M
Re pository
fo bj
De st
cont ig
Ġdesc end
IG N
firm ware
" ',
er ing
ĠC A
æĺ ¯
ĠP r
kw s
ĠE mpty
Pro to
Ġblack list
Ð¾ Ð
al so
comp ression
Ġjoin ed
snapshot s
Ġens ures
R etrieves
Ġc amera
ĠN et
Ġup stream
cor pus
Ġsec ure
Ġflux es
ĠSE LECT
filen o
Ġw ire
ĠS ite
ĠS cale
ĠP os
ne ur
network s
Ġpack ed
Row s
F UN
f ort
Ġre ward
Ġ# ################################
sub s
Ex t
{} \
DO WN
ĠGraph QL
) ].
u df
Ġof ten
leg acy
Ġschedule d
E rr
b ond
c amera
st mts
is ation
'] ).
ĠD ec
pa ired
ĠCon st
Sign al
] ].
ur ses
'] ])
graph s
mod name
Ġoptim al
Ġyear s
CRE ATE
E W
u di
Ġto uch
um in
ĠR ow
Se lection
Ġke pt
h w
in ventory
Ġf r
Ġco effs
Re p
Ġmo ved
Ġsome times
Ġaz imuth
C d
C UR
Q ual
Ġ utf
ĠF low
ĠE stim
ĠV is
ĠB it
Ġbase line
Ġph oto
Ġ\' %
[ ^
n ost
v iz
w p
Ġm gr
ta bs
Ġde tailed
act ers
==== =
ast ropy
ĠPro tocol
ĠUse ful
201 0
6 2
b idden
q te
Ġs mallest
Ġse ss
=' \
inal ity
Ġtrans lated
) ==
U AGE
` ."""
Ġw or
ps i
NO DE
vol tage
ĠOption Parser
hand led
O UTPUT
b n
d ent
p itch
re cent
Ġc he
Ġres ample
ĠM ongo
RE SS
ĠGener ator
Ġdraw n
high light
Ġtrunc ate
m aries
de ep
Ġsub s
Not ification
En coding
Ġdist s
pab ility
C ertificate
q os
x axis
ate way
---- ---+
=' .
IN ET
ĠDe cimal
imp act
arc sec
Ġmig ration
built in
ĠTrace back
0 33
N ET
] \
z A
Ġp ing
Ġw ish
tra ffic
ĠTh read
Ġsub tract
Ġsen ds
An aly
Ġfore ign
m utation
or ient
Ġto day
us ic
Ġch anging
Ġat t
color bar
Ġtrig gers
plan ation
DU LE
code c
qual ifier
Ġeas y
S F
Ġd ropout
LO B
termin ate
iet f
W D
i gs
ĠT I
th umbnail
Ġper iodic
com bo
ĠJ ava
Ġgo es
Ġappro ach
By te
cons umed
Ax is
H z
M ixin
o ser
r ates
Ġ joint
Ġo pp
ĠP mag
ĠN V
Con v
Ġcomplet ely
{ {
Ġp w
Ġp rom
ĠD I
]) ):
DO UT
Ġconnect ing
PRO TO
="" ):
F unce
e ye
ke h
tra ined
Ġpla ced
Ġpair wise
Funce ble
b old
e mu
Ġre cogn
il led
ĠS Q
',' ')
SIG N
N ull
r ating
x ff
id le
Ġcon j
IN VALID
Ġvi m
En vironment
f lip
at alog
qu bit
indi vidual
inten ance
] _.
at least
ĠR etrieves
---------------- ------------
z s
qu oted
IN ST
Pro gress
Ġass uming
Ġextra s
pub key
ĠMo ve
Sum mary
Cate gory
F ilename
T ab
de sired
Ġf path
ol ation
ste m
queue s
Ġreport ed
Ġn m
str and
ĠND Array
( .*
M ultiple
f ingerprint
Ġc i
po le
l ator
Re set
Re mote
ĠRe set
ĠFor ce
Ġcalcul ating
cons istent
ivari ate
C alculates
ĠV olume
As set
ĠLoad s
čĊĠĠĠĠĠĠĠĠĠĠĠĠ čĊĠĠĠĠĠĠĠĠĠĠĠ
itect ure
å Į
Re ply
Ġpass phrase
corre ction
Ġconstruct ed
+ )
B ot
h icle
u ids
an ner
ra mid
Con ver
Ex port
ens ities
LI MIT
æľ ī
= .
F uture
Ġ Keep
Ġf riendly
Re place
bs ite
tp l
Ġnamed tuple
Mo ve
System Exit
tor ch
get env
ĠT HE
qu it
Re cs
") ]
tra cker
Con struct
sub scri
second ary
Exist s
sla sh
å ĩ
re versed
all ery
ac curacy
ĠDe termines
Process Error
Ġrep lic
k o
w ire
Ġn y
Ġco mes
ĠIn t
from timestamp
on ce
ur able
pro viders
ĠG PU
AP P
b id
w heel
en dian
back ward
trans actions
CLI ENT
G en
ĠR ET
M ULTI
{} .
dis card
ĠAss ign
Ġear ly
ransp ort
Ġf q
RE GEX
cer ts
aut if
\ .
c ube
Ġs am
il ters
(' \\
po re
mat erial
Ġprint s
struct ures
Ġ& =
rel ations
UP DATE
Pub lic
L vl
Ġd r
un link
vi des
De bug
i ator
ĠD es
Ġpa g
sh uffle
Ġ} }
Pro vider
iss on
pol ar
LA GS
ĠMan age
N ONE
re ject
Ġse mi
Ġde coding
Ġcomp osite
Ġut c
white list
) ._
= ",
F N
M AN
f ork
de cay
Ġbe g
Ġel t
Ġ` .
ĠF AST
ĠM etadata
cle ot
KEY S
je ctions
g h
Ġc rit
od ata
Ġsub mitted
G ot
ra ction
co uld
ca ption
Ġparser s
SO CK
ĠB inary
are r
Ġexp ansion
Ġcluster ing
Ġhead ing
Ġconver ting
D river
un ix
Ġ`` .
Ġref lect
TR A
ä¸ į
operation al
inspe ction
autif ul
] ",
f requencies
v t
Ġp ow
(' =
Ġal bum
TI VE
mod s
zone s
transform er
Ġtri angle
Record s
D imension
Ġy s
ca ps
Ġne ither
G T
g al
w as
Ġd m
ist ant
over la
C LO
L eft
ç ¬
start up
be am
Ġ[' -
Ġsnapshot s
specimen s
i am
): ]
ĊĠĠĠĠĠĠĠĠĠĠĠĠĠĠĠĠ ĊĠĠĠĠĠĠĠĠĠĠĠĠĠĠĠ
Ġm arginal
Ġcon secutive
ist ed
Ġun changed
ĠH y
Ġsearch ing
Ġpla intext
manage d
Ġ" $
Ġwh atever
Ġrun as
A rea
d w
y axis
¦ Ĥ
Ġw heel
Ġh gnc
File Name
SS H
std dev
cer n
Ġpla ces
Ġmain tain
Argument s
language s
Ġpeak s
quis ition
s ke
Ġa a
Ġin ventory
Ġg id
Ġg uest
Ġas sessment
"] ),
Ġtw ice
her ited
Event s
C hain
Y PE
t ight
in vert
Ġu b
Ġpro xies
Ġma v
"] ],
ir th
Ġass oc
ld p
}{ \
Ġtransp ose
S core
n dims
co lour
ĠA L
ĠS D
ĠF igure
Ġres hape
pre sence
Ġep isode
Ġmeas ured
EV ENT
5 1
Ġse ctor
Ġor th
OR I
Ġad j
En able
mark down
Ġop code
Ġqueue s
Ġcons ume
SET TING
enum s
86 01
expi red
Ġpur pose
Ġwhite list
alo gs
LAB EL
Ġs un
pe ed
Ġ( *
ĠB Y
comb ined
cap ital
Ġblue print
Ġt rees
di p
__ ),
coun ters
rs a
extra s
ob servations
Ġcy cles
Ġstud y
İ· åıĸ
e lapsed
l ue
w ater
Ġde claration
Ġlog its
head ing
Run time
B ody
c ron
Ġfile obj
Ġinter cept
Ġinitial izer
ick ness
Ġcomb inations
sql ite
circ uit
Ġinstanti ate
ol ves
th at
ma gn
ĠS V
Ġcomp utes
math bf
e very
in place
lf ile
red ge
Sh ort
; \
D T
Ġf etched
In f
num er
ĠPro gram
NAME S
Ġeffect s
Ġam ong
] |
c redential
ĠF rame
Ex pi
State ment
Ġperform s
Temporary File
R M
S ync
a fe
Ġf ine
Ġ" &
Ġas sembly
Ġdef erred
pre process
ĠSe curity
Ġnormal ly
az imuth
Ġrespect ive
Ġlc dict
Ter m
f rozen
h uman
ĠS ame
Ġle ader
ater n
ĠDef ine
! ".
v g
y ml
de claration
res ample
ĠAc cept
5 7
] })
Ġf lo
is finite
Ġpa gin
ten ded
DE F
ĠSalt InvocationError
8 1
C enter
Ġd ct
Ġ( ?
ĠP ID
pa che
si bl
Ġauth ors
full name
Ġutil ity
Pri vate
gu ide
S ome
W rit
g uid
h param
Ġa io
Ġc e
Ġg aps
Ġor ient
inter sect
Ġref s
So up
Ġhard ware
Ġsmooth ing
Metri c
ĠD ecorator
min i
Ġimport lib
Ġty pically
Ġp od
Ġh df
vi rt
las hes
Ġ", ".
C redentials
h g
pre ad
ĠM ultiple
Ġdirect ed
ĠComp onent
ĠNum Py
I MAGE
st re
Ġch ip
work dir
... "
Ġshow s
Ġpol ar
7 55
k ers
u cli
() )))
(' ',
Ġpro viding
Ġra y
ĠP l
ĠIn st
{} _
Se gments
wait ing
ĠZ ero
p ho
w f
Ġ' '),
mp p
Ġex e
Ġun ix
Ġ{} .
Ġca uses
inter active
ap alm
speci fication
Ġserial ization
case s
Ġsepar ators
t rees
y r
Ġcol lector
fa bric
Ġover written
Ġobj s
Ġrecur sion
C lear
c rc
Ġ` _
po w
Ġ2 000
Ġtr uth
Ġtile s
gap ic
g ray
l dap
sh if
ab stract
Ġlimit ed
ORD ER
R U
h ar
ro i
Ġst able
ĠT ree
comp uted
Pri ce
w ill
Ġh olds
Re gex
Ġr ing
ĠD et
Ġlock ed
Ġconver gence
ĠQt Gui
Ġpotential ly
ĠMeas Rec
Ġd rive
ĠB ig
LO CAL
Ab stract
L ines
in et
on ed
ss ian
Ġuser id
ĠJ ust
ĠSe q
LA ST
Per mission
Ġpacket s
p rom
lo ok
ĠP ut
ign ored
Pro duct
Ġprefix ed
Ġph rase
ĠWh ich
Ġauthor ized
) ``.
G ithub
L C
ar ter
ĠM UST
Ġsub type
{} ,
Ġper f
Ġinterpol ate
Ġmodification s
M IP
S yntaxError
W IN
Ġlog file
ĊĠĠĠĠĠĠĠĠĠĠĠĠĠĠĠĠĠĠĠĠĠĠĠĠĠĠĠĠĠĠĠĠĠĠĠĠĠĠĠĠĠĠĠĠĠĠĠĠĠĠĠĠĠĠĠĠ ĠĠĠĠ
Ġseq s
Pol y
m ing
Ġre cognized
Ġd ense
Ġwe bsocket
ĠR o
ĠL D
cor outine
}" '.
ĠCol lection
Ġthrow n
Ut il
POR TED
C N
Ġn om
ĠSe cond
Ġautomat ic
(" >
ĠThe y
ched ul
flow s
Dep end
Ġdistrib uted
onom y
ĠERR OR
s altenv
Ġm c
Con f
Ġcomm unic
Ġatom ic
Ġrect angle
æĪ ·
> /
? \
L a
f wd
Ġco erce
ĠW rit
ĠPer forms
freq s
attach ments
Ġhelper s
') ])
Ġsa f
alpha bet
ĠBy tes
ĠNO QA
Ġdo m
Ġli quid
so up
exp licit
fla sk
pto ols
pher ical
Ġsp ans
Ġpri mitive
Ġker as
rep lic
UNK NOWN
C ard
g greg
Ġm or
ĠS yntaxError
cal led
ĠM D
Ġun set
ĠW here
Ġ3 00
Ġver ified
D ecorator
Ã ¡
de precated
Ġc nt
Ġre view
ĠP ay
fa ke
string utils
ax on
Ġfail ures
transform s
tool kit
Ġw f
Ġal g
Ġshould n
Ġtrans itions
ĠCon tainer
DE N
App end
He aders
Up load
multip ly
P D
a co
x fer
se cho
Ġg c
Re lease
vi ations
Ġpro cedure
tern et
AT URE
Ġdis connect
ular ity
Ġmark down
Load ing
Ġf f
Ġs he
Ġd n
as m
Ġun defined
clo sure
Iter ator
writer ow
= \
la zy
fo pen
with in
Ġpercent ile
rupt ed
b rain
de cess
ĠT ri
ĠA vailable
tr unk
ĠRe quires
comm unity
AS K
ĠEn able
æĸĩ ä»¶
b d
l hs
č ĊĠ
Ġf ac
Ġp sd
Ġtra de
16 8
ĠSt andard
Ġfra c
Ġsym link
ä ¹
on to
ĠS ymbol
Ġpoint ing
ĠRun s
LANG UAGE
: ]))
a ir
d pi
d rive
it ivity
Ġst oring
ĠC annot
Ġpre fer
Ġun supported
son g
stra ined
,, ,,
æĪ Ĳ
h r
ma s
Ġcon sensus
pre ferred
Ġ`` _
{} "
dis p
EN V
---------------- --------
Ġinst itute
Ġscal es
G EN
b rid
g ather
Ġto po
Ġr d
Ġr t
cal ibration
ĠW S
Ġkm ip
å °
ur lopen
Ġm n
di strict
Ġl hs
Ġh olding
Ġ` {
fe e
Ġgra mmar
pl ate
qual ified
Ġinstall ation
Ter min
Ġm t
ĠT otal
ĠF uture
pop ulate
ĠSet up
ĠBe cause
B A
G G
s is
se ase
it ers
ate ly
schema s
fetch all
final ize
Ġdrop ped
W ID
i q
an no
Ġsp here
pr inter
Attribute Error
OL D
diag onal
V A
r ms
y cle
in str
Error s
Ġregex p
Ġoccur rence
cum sum
it o
Ġalt itude
Ġvocab ulary
Ut ils
fir med
E MP
al one
ĠS ET
ĠF OR
CON TENT
Gener ates
Ġoccur rences
ĠEnt ry
Rel ation
æŀ ľ
/ {}'.
Ġ1 0000
ĠL inux
In v
Ġsub parsers
11 11
CON NE
ims how
Pol ygon
I gn
d k
r ink
in table
Ġin clusive
Ġdi ameter
Ġpa per
Ġtime d
Ġcmd s
bro sa
CON T
. {
c x
¦ ģ
Re quire
ĠF ull
FI L
Ġindic ated
Ġpr incipal
Ċ ĊĠĠĠĠ
Ġr up
ĠS um
ag ents
Fe atures
Ġear lier
D one
L ong
c art
g aussian
â ķ
Ġminim al
I con
å ¾
re view
Ġc x
ON T
Ġli brosa
Ċĉĉ ĠĠĠ
Ġchar ge
Ġ201 4
Ġseparate ly
Ġcopi es
i ff
| |
ĠD imension
Ġx x
ĠCo unter
Ġmodi fier
Ġtx n
I VE
Ġp tr
lo sses
li bs
") ):
ĠU P
min us
spa wn
man ent
Ġ', '
Ġreci pients
asa fe
D ump
H ook
blue print
+ ')
d bs
ĠB atch
IN PUT
new line
Ġapplication s
expi ration
s wap
)) ),
pos ix
ĠIn sert
SE C
f ar
å Ĩ
[' --
Ġg ran
Ġra d
add rs
der ived
Ġport ion
SP ON
Ġsol ar
Vari ant
a ug
par m
age s
ts v
ms gs
text s
scal es
L anguage
S cale
add Handler
order ing
mask s
Ġmark up
I SO
U UID
z ation
ar b
Ġtr ust
Ġcheck er
ou ch
')) .
Ġeas ier
g le
h ib
j inja
in struction
Ġfile type
Ġdire ctions
Add ing
ĠCol lect
sym link
ĠId entifier
Act ivity
Ġmanage ment
ĠSaltCloud SystemExit
d get
se ason
Ġc ron
ĠL ambda
pos al
Ġqu it
Ġqu adratic
Ġcalcul ations
Ġsee k
ĊĠĠĠĠĠĠĠĠĠĠĠĠĠĠĠĠĠĠĠĠĠĠĠĠĠĠĠĠĠĠĠĠĠĠĠĠĠĠĠĠĠĠĠĠĠĠĠĠĠĠĠĠĠĠĠĠ ĠĠĠĠĠ
clar ations
ä¿ ¡
( {})
y ellow
ing u
Ġ` '
ĠP IL
pro venance
ĠL C
Ġexp ressed
stop ped
Ġpk gs
Ġactiv ate
Ġinterpre ter
è¡ ¨
chast ic
- ',
W RI
t umor
v p
æ Ķ
ĠC or
py wbem
Ġcol l
ĠG en
Ġreg ression
N U
m ic
Ġcon struction
Ġfi rm
per t
ĠW arning
Ġj id
Ġtoken ize
ĠSe ction
FA I
MO DULE
Ġanaly ze
SCRI PT
Sk ipping
w v
__ ')
da ily
ĠData base
Ġgraph s
tmp dir
Method s
Ġth er
Ġpro ceed
Ġen force
mat ic
Ġstart up
ĠJ son
... '
Ġenum eration
Ġpol ling
He ight
product s
Ġconv olution
Ġfrozen set
7 1
C lean
p atches
ul lable
Ġh i
ĠS M
Ġclass name
mi rror
Ġph ot
Ġtitle s
Ġassoci ate
alle les
manage ment
Ġconsist ency
" ``
B L
in ject
in voke
de an
Ġc as
par sing
as pect
Ġ== ================================
ip y
Ġ3 600
RE AM
Ġbind ings
ĠClo se
circ le
Ġri sk
Ada pter
C ancel
[ %
e ck
p u
x FF
} </
st ype
Ġd types
Ġ* /
Ġ` (
Ġv rf
sc r
Ġret code
RE E
face t
ĠFa iled
E stim
p ment
r g
Ġd h
as ses
lit let
RE L
Ġman ual
Ġinsert ion
66 66
h old
q m
t len
re gs
Ġpro vision
ĠP DB
ĠF ix
Ġset ter
Ġdis covery
Ġvalid ity
To o
Ġanaly ses
pur pose
Ġe tag
ĠF loat
Ġdef er
Ġle ad
Ġper ms
Ġinter actions
ME TA
rig ger
anis otropy
s lope
(' $
Ġres ume
we ets
Ġreal m
åĲ į
ucli dean
> %
C or
a ys
st ick
Ġh op
ĠF ast
Ġnew er
base dir
ome tric
pass wd
Ġchunk size
serv able
' ")
C alcul
r dd
par agraph
Ġlo ops
av en
ĠPy Funceble
anti ate
treat ment
ĠProper ty
t mpl
ĠT w
po sterior
iter tools
fore ign
ret ch
Ġframe work
b ust
ĠV irtual
token ize
Ġgroup ing
Ġpl ate
Set up
lan e
SER T
Ġperm utation
autiful Soup
P ick
h ance
Ġpro duces
Ġra ising
Ġreg isters
annot ate
Ġ12 3
sel ves
Bytes IO
O IN
Ġf id
ĠT urn
to uch
pro vided
Ġte ch
pen ame
ĠDe letes
ĠLo okup
Ġestim ation
ĠNV ML
P K
S te
j pg
Ġf ault
Ġf ft
ps f
Ġso und
request er
De cimal
Ġstat istic
Ġdraw ing
SER VICE
abb ix
B us
D AT
g ca
in voice
ut ter
ĠS ingle
{} ]
ĠQ A
ĠHe ader
('.') [
SCHE MA
V S
SC A
Ġattach ments
ĠElement Tree
FAI LED
4 1
E valu
L at
d types
s as
ł ģ
Ġl vl
Ġlo st
In tegr
tra cks
Ġtra j
handle s
={} ):
Ġ$ {
RA Y
Bo ol
Ġapproxim ation
Ġthresh olds
= (),
P AGE
Ġt pl
Ġal located
De tails
ĠDe precationWarning
}\ '
Ge o
Ġimpro ve
Ġpag ination
k n
or bit
ĠC OL
err s
rain ing
Ġartifact s
Ġtrunc ated
me ter
ur is
Ġs lots
Pro p
IO Error
C ase
C allable
w arm
ri e
Ġal arm
Ġ[] :
Ġextra ction
Ġsim ulated
Ġsubject s
Ġexpect ation
stud ent
Ġsear ched
$ ",
c itation
al bum
Ġw eld
Ġse mant
te ctions
ise ct
Ġma gn
Ġfull name
b last
Ġd z
Ġpro pag
col lector
exp lo
PO SE
Th reshold
Ġassoci ation
short cut
ĠTrans fer
^{ -
IST ORY
L F
P ACK
h h
p added
Ġ é
al n
Ġo t
la in
Ġu int
Ġde cay
Dist ribution
Med ia
l w
t ions
x d
ch ip
as n
Ġtrans lations
R oute
Ġt l
Ġp atches
Ġin ds
ch ive
up d
ĠRe mote
ĠM ain
qui ck
sign ing
Ġpop ulated
åı ¯
éĹ ´
Ġfirm ware
H H
S W
s uggest
in cluding
Ġc sr
ĠT ABLE
ĠC ate
ĠP ack
ab breviation
ĠUn it
TER S
ĠPo ssible
? ',
R DF
re ward
Ġo dd
Ġw cs
Co ordin
Ġgra dients
De termine
char acters
del t
Bo olean
P ress
n k
w ildcard
Ġb ridge
py pi
Con n
exp anded
Ġcorrect ed
Per iod
atern ion
" %(
I mp
i co
j ax
un s
el ded
Ġal go
ĠF ound
fo lio
Ġany way
Ġport al
ĠFind s
Metri cs
* '
Ġs ynchron
Ġd u
pla cing
for um
Ġpy lab
LA l
ven io
utom ation
cum ulative
Lib rary
b es
Ġp rt
ad jac
Ġde serialized
ow el
Ġali ve
Ġ"% (
LAl chemy
c as
e ig
h am
y min
Ġt iming
bo ost
Ġ4 2
Ġrecord ing
TI CAL
Ġast roid
NUM BER
TRI BU
S ingle
W R
w it
Ġf out
id en
ĠT op
as semble
(" :")
IN SERT
dis crete
Ġmultip lier
æķ° æį®
F ROM
as yncio
Ġl r
Ġde lim
Ġr l
ĠN S
Ġpre cedence
Ġcontext s
Ġpri v
spect rum
ĠMA V
FIEL DS
Ġcred s
ç łģ
on ym
Ġb on
ĠP e
che m
Ġen dian
Ġpre pared
comp act
Co unts
Di ff
Ġrep lication
Ġoverla pping
Ġ âĶ
ra st
Ġindex er
Ġinter action
writ el
Ġtrack ing
ĠI F
ic reate
si mp
require ment
Ġtrip le
u ce
æ Į
Ġb ands
ĠC luster
und ant
Ġcode c
DE SCRIPTION
Pro duce
over all
Ġord ers
ĠSim ilar
SPON SE
> ",
w ide
Ġst ra
Ġr ates
ub ic
date d
ĠD ATA
ps a
Ġla m
Ġfla sh
ert ex
Const ants
d ashboard
de lim
Ġm l
pro f
ĠRe port
ĠN umpy
roll back
Process or
Ġcir cular
notification s
Work er
Ġpublish er
a way
e lastic
w k
Ġb rain
int ro
ort ed
ap ses
Ġcomm unity
sa mpler
Ġaccess ible
We ight
PASS WORD
b ash
se x
Ġa f
Ġw ants
Ġ" \\
con sensus
cal ib
ĠM at
ĠName space
è¡ Į
Ġmi rror
Ġi mt
Ġm time
Ġh p
00 01
ĠW rap
Ġtext s
decode d
Not Set
Valid ation
Ġmiddle ware
s quared
v ault
â ĸ
Ġc trl
Ġo mit
Ġs ay
Ġk not
Ġprint ing
ree ment
pub lication
Ġlib raries
? "
z illa
Ġb enchmark
one y
es h
di vide
Ġg ather
Ġpa inter
gra ds
([ -
Ġign oring
Ġbuild s
roll ers
Sh k
Ġance stor
ex clusive
sp ans
vi a
ĠE N
rig hts
Ġdf s
Ġconnect ivity
ĠFile NotFoundError
PAT TERN
ĠParse Error
< =
x max
and box
to c
mo lecule
class ifier
Ġsub plot
user id
ĠCon d
trans lations
Ġq ry
At tach
Ġnet loc
Serial izer
? )
E MAIL
ad m
pro of
ĠEx pected
Ġno inspection
wa velength
}) '.
FI ER
MA G
Ġhash er
serv ing
Ġqual ified
authentic ate
9 1
Ġc aching
Ġb io
list ing
sp ot
ĠF ilename
Ġpa use
yste md
diff s
ĠStruct ure
T U
Ġen semble
ä¸ ĭ
Ġcre ator
xim al
Ġin cl
Ġin finite
ĠPro file
sup p
Ġrep lica
' %(
L ife
] ;
s ive
w args
se gs
Ġn atural
Ġin complete
Ġby ref
env s
close st
=[ ]):
ĠĠĠĠĠĠĠĠĠĠĠĠĠĠĠĠĠĠĠĠĠĠĠĠĠĠĠĠĠĠĠĠ ĠĠĠĠ
ĠRE QUIRED
Ġdec ision
Ġenter prise
Ġconflict s
ĠT wo
ve ct
to string
ĠP ackage
back ends
ĠCo uld
Ġexp lo
let ters
direct ed
expi re
F ACT
u ing
in cluded
ĠT YPE
Ġat ol
col on
Ċĉ Ċ
ID E
Ġwant ed
Ġcent ral
Ġpers istent
reci pe
N aN
T C
Ġ""" !
Ġh ot
Ġal ter
ĠM E
Ġwe ather
Ġsub domain
ir cuit
ab i
na ke
Ġannot ated
56 78
tensor s
ĠHe at
Ġworks heet
Ġstage s
ĠSystem Exit
Comm it
Ġn aming
(' ~
ĠS IG
__ ':
vis ibility
extra ctor
FA IL
Ġwa ys
Cd lib
F n
i lo
Ġ Keys
ar ct
(' @
et y
per ture
Ġk appa
Ġle ase
Ġmin ions
ĠQ gs
ĠCall s
Ġadjust ed
Ġfin ite
ĠSH A
C orre
O PEN
S cope
Ġf t
Ġm ongo
Ġst roke
data center
Ġmatch er
Ġ'% (
Check ing
Per cent
subscription s
pex pect
pas sed
- '
o DB
ĠE mail
ill s
SE D
gin es
ĠHandle s
buff ers
ĠAttemp t
/ >
e tag
Ġc type
Ġm ention
ĠV ari
Ġfunction al
ĠH igh
St d
serial ization
cb c
Cur ve
Ed ge
(': ',
Ġxy z
Ġpmag plotlib
ĠMag Rec
M aster
e vidence
è ´
Ġp res
per iodic
ers on
tr uth
ĠUn ix
Ġsplit ting
sv c
bl k
Ġzone s
Ġt weet
Ġ' ='
fe ats
Ġle aves
ME T
man ual
12 0
accept ed
Ġspect ral
Ġcomp osition
AL T
Ġoper ating
lon s
Hel p
Ġâ İ
ĠSign al
Ġc k
Ġc hemical
Ġre pl
process ors
dis covery
UN I
Ġpol ygons
ĠUnicode DecodeError
) [:
A MP
C AS
R ight
b z
v min
on line
Ġd bs
ĠC allback
mo ck
tra de
bs olute
Ġac celer
ĠCon s
Ġremo val
={} '.
Label s
Ġtz info
car ded
c ity
Ġv ary
interpol ate
stud y
B reak
W atch
c ats
z mq
me mo
Ġde leting
ĠR ange
ĠDo main
imp licit
MENT S
Ġenviron ments
Github Object
, (
S m
b w
b ag
d as
ĠW rites
** *
Ġpub lication
Ġreason s
) ^
d na
ch mod
ype redge
Ġpar ticipant
ĠP A
ĠĠĠĠĠĠĠĠĠĠĠĠĠĠĠĠ ĠĠĠĠĠĠĠĠĠ
Ġj inja
Ġblock size
Read ing
hes is
Ġtermin ated
Ġincre asing
coeffici ents
F it
N ORM
W rong
in herit
is null
(' ;
Ġh unt
ai a
cond itional
Ġpri vile
medi um
hex lify
Fe ed
' `
> `.
R ST
a con
a bove
Ġ" :"
Ġh ub
pro blems
ĠO P
tra verse
Ġdecor ate
Pre di
Ġsimp li
}- {
Cond ition
is q
Ġli g
cd lib
Al gorithm
åı Ĥ
Ġtran spa
M achine
g ates
l vl
p ul
ĠS ends
Ġsign atures
EN ABLE
]] ]
gener ation
reci pient
" ')
h gnc
Ġt ier
ar ith
Ġh s
ĠL at
In st
Ġ-------- ----
cor ded
mar ize
a wait
r ng
st ored
al ready
ĠS tri
Ġy lim
Ġpre ce
ide o
])) ,
Ġfn match
QU E
Ġfo ot
Ġest ab
L M
ch k
Ġ2 6
(( (
AR G
Py Cdlib
week day
= <
b alancer
u ptools
Ġp v
inter cept
Ġtrans it
Ġsc r
Ġcalcul ates
Gener ic
middle ware
similar ity
S chedule
\ ":
c en
v fs
Ġint ent
ON G
base line
IN E
Ġpy cdlib
oc c
sid er
Ġmedi um
regex p
Ġepoch s
âĶĢâĶĢ âĶĢâĶĢ
mime type
d ll
in structions
Ġc ity
Ġs li
Ġd ashboard
ad ir
am az
Ġcomp ose
wa v
temp dir
Ġvo ice
Ġface t
mis c
ut ors
Ġassign ments
Ġequal s
Content s
Ġcor r
Ġpycdlib exception
T ri
å ¹
ur o
be ats
Add r
UR POSE
ĠSh ort
X ml
in y
se crets
Ġ' |
Ġb last
Re stricted
ph en
Request Exception
ĠMe ta
Serial ize
Ġfor k
os a
Ġhas hed
ĠB E
IN DEX
ject ories
ĊĠĠĠĠĠĠĠĠĠĠĠĠĠĠĠĠĠĠĠĠĠĠĠĠĠĠĠĠĠĠĠĠĠĠĠĠĠĠĠĠĠĠĠĠĠĠĠĠĠĠĠĠĠĠĠĠ ĠĠĠĠĠĠ
Ġbutton s
V O
v r
cl ust
ĠR et
ĠL imit
trans formed
ĊĠĠĠĠĠĠĠĠĠĠĠĠĠĠĠĠĠĠĠĠĠĠĠĠĠĠĠĠĠĠĠĠĠĠĠĠĠĠĠĠĠĠĠĠĠĠĠĠĠĠĠĠĠĠĠĠ ĠĠĠĠĠĠĠ
ĠOn ce
Ġsegment ation
multi part
Ġvirtual env
avig ation
r hs
t ics
} ;
Ġf old
Ġin str
an im
Ġs park
Ġex planation
ug ate
ĠIn stead
Ġad v
den om
ĠSpeci al
bra cket
k in
Ġt cp
Ġa cl
Ġp x
ut ron
ĠW ord
Con straint
cor o
FF ER
Ġ"- "
Ġretrie ving
lips is
O O
P ING
r na
Ġc ance
Ġs moothed
Ġd uplicated
Ġst anza
get item
Ġpre ference
ĠR ender
ĠL i
Ġfind s
Su bject
Ġaltern ate
> '.
t led
Re moves
ip ython
ca pabilities
Ġle d
ds a
(( -
sur f
........ ........
' ``,
A vailable
f riendly
Ġco d
replace ment
Class Type
Ġloc us
dic ator
vl c
tile s
REC ASE
ĠINT O
] ``
00 000
Ġ> ,
gra mmar
ĠIn di
('/ ',
Ġmonth s
Uni code
å® ļ
A tom
di alect
Ġ& &
Ġguarante ed
Ġp rune
ĠH z
default dict
pd ating
Act iv
mig ration
Ġhyd py
r ated
y ond
th umb
(' ^
Ġco eff
py c
ST REAM
Ġdiff er
Ġref ers
Ch unk
Ġ201 9
war ded
ĠMed ia
ĠP open
min s
min ions
ĠEx pression
fra g
rep lica
Ġmot ion
Ġsuc ceeded
O G
æ Ń
Ġin vocation
Ġg row
Ġr u
Ġpar a
ti cker
Ġ4 5
normal ization
ĠCh ar
ili ary
B AD
E K
Ġi b
Ġc art
Ġc rc
Ġnew lines
Ġpath name
Ġac cessed
Ġsu bj
Ġrel path
Ġ'{} '.
QU ERY
IGNO RECASE
Ġ lf
re ction
ct ure
sub parsers
{} :
fil led
Co ord
Key board
Ġback ends
document s
sn r
ffff ffff
N EL
d ro
er nel
pi o
ĠU I
ĠB asic
arg min
Ġsp ot
AR GET
Ġextra ctor
Ġuncer tainty
T F
h z
i map
p st
Ċ ĊĠĠĠĠĠĠĠĠĠĠĠĠĠ
Ġkey board
mo unts
Ġj ar
RE SPONSE
lat in
files ystem
dis ks
ĠAt tributes
PO SI
Config Parser
Ġforce d
au ge
document ation
Ġinterpol ated
Ġalle les
dispatch er
Hist ory
j u
v endor
he at
Ġs aves
Ġm pl
ĠA D
ĠĠĠĠĠĠĠĠĠĠĠĠĠĠĠĠ ĠĠĠĠĠĠĠĠĠĠĠĠĠĠ
Object ive
CON F
Ġfit ted
Line ar
ĠId ent
Const s
s z
Ġt id
Ġ( \
per ly
pa gin
Ġgener ally
Ġwidth s
An notation
include s
big query
("/ ")
ĠHE AD
ĠS I
Ġpro viders
Ġkey ed
sc enario
Ġrestrict ed
å¯ ¹
d ark
o ids
Ġst ub
Ġv endor
Ġent ered
Ġmask s
PRO CESS
redu ced
cid r
f utures
Ġs pherical
Ġ" @
ve locity
qu ares
ĠC SS
sen tial
... ]
Check ed
Max imum
åĪ Ĺ
Ver ify
Ġconfirm ation
Ġgp u
Ġsatis fy
ĠSQ LAlchemy
: (
e ven
è ·
Ġf m
Ġs z
Ġb id
Ġst im
ver ified
ĠS c
ĠP URPOSE
col l
ĠL ike
RE SET
gen us
Ġscalar s
~~~~ ~~~~
Ġadjac ency
er c
as p
Ġl m
Ġcol lapse
RE T
find iter
Pre dict
Ġissue d
Ġsto pping
tx n
Ġqu ad
11 1
TER M
Ġoptim ized
Ġsla sh
h c
m st
se mi
ar ches
le ader
Ġc itation
ĠP SD
ĠR SA
post s
Ġreplace ments
MO D
END POINT
cod on
) `.
j k
å Ģ
re served
Ġre actions
ĠC ase
ind x
Ġare as
ĠH ist
ĠAn alysis
Ġtag ged
Ġnetwork x
}' ".
ĠGit Hub
Ġcipher text
ä¸Ģ ä¸ª
P UB
g ps
re actions
de livery
ve cs
ĠA T
ĠM ult
De pth
Ġab sent
Ġrece iving
Ġaccording ly
As ync
Ġbuff ers
Ġtun nel
Modi fied
Pack et
. '))
} (
le ave
Ġin voice
Ġg pg
Ġlo sses
Ġpro duction
Ġpro pagate
ĠM ore
ĠV ER
cre ator
trans it
AD ATA
S napshot
Ġs ho
Ġs pread
Ġd up
Ġl max
pre ference
Ġpre view
tra jectory
Ġenum s
Ġcomm its
bar s
Hel lo
pers ist
amaz on
Ġre call
Ġcon current
Ġth ink
pp ers
List Type
Ġtar file
Timeout Error
Ġsubstit ution
represent ation
tlen eck
" +
a ref
å ¸
Ġg al
Ġ[ <
Re al
data s
und les
om aly
Ġsub command
year s
ĠValid ation
RES ULT
ĠWrit ten
. ]
B ank
C l
S upported
] ._
o logy
} ))
ĠS upported
ĠO F
AT TRIBU
Ġser ve
row se
AB ASE
Ġblob xfer
radi ance
ĠEl se
_ *
j wt
} $
er ts
Ġi ps
ĠT y
ĠD AG
bu ses
De v
ass oc
CE PTION
Path Spec
x ticks
č ĊĠĠĠĠĠ
in ference
um id
Ġr p
ĠS tack
line sep
sub class
Ġ{' $
RI GHT
Ġcer tificates
ĠTrans action
Ġms gs
FLA G
Ġstride s
C re
D N
m ate
Ġre duction
Ġs light
ĠT ab
par ticipant
Ġl dap
Ġme ters
ĠM V
ĠM AC
ĠIn it
ĠPar ser
Ġroot s
Ġproject ed
Ang le
+ (
P lace
Ġ' ):
Ġr ating
Ġ`` <
ĠAl tern
Ġcy l
Ġintegr al
aff ine
P otential
Ġd um
un wrap
url lib
ip ment
ĠL ib
LE S
Ġgra ce
Ġag ents
En v
IP v
e a
k appa
ST DOUT
pl ural
Ġ'' }
åı ĳ
Over ride
ro s
Ġpro of
ĠP ress
Ġhe ap
Ġac cur
ST O
Ġman ip
Ġstruct ured
Ġvis ibility
BY TES
COMM AND
' [
* )
S ING
o grams
Ġw rapping
th roat
Ġdi vide
be low
Ġvalid ators
Ġfind er
test ing
Ġrec v
lux es
g rouped
it ors
Ġw all
ĠG UI
Ġvari ation
S calar
] ][
d ri
Ġb as
th an
Ġl p
ĠA CL
pre sen
ĠB oth
ON LY
Con sole
OR S
={} ".
Back end
Vis ible
Mon th
Restricted ClassType
/ ')
ç ±
Ġo sp
Ġde li
ĠF ore
==== ==
Ġtra verse
cent ration
tag ged
Ġshow ing
Ġdimension al
Ġstack level
Ġdiag ram
Ġsto ck
Ġev t
tur b
pie ce
n py
t bl
w ant
Ġo sc
Ġ' ^
Ġg f
url parse
cur se
ag ers
gra dients
ĠSN MP
Ġlex er
R ot
e igen
l unk
ã ģ
Ġre named
ur st
pe p
Ġg ray
Ġpar ses
ub er
Ġat las
In formation
ĠH ISTORY
Ġmat ter
fore cast
track ing
contact s
F inished
b tn
d os
on oi
ĠS Array
ĠS trip
ph as
fit ness
real m
RA W
embed ded
Ġsoft ware
ĠMem ory
1 50
A IL
F L
d raft
Ã ³
Ġ urn
Ġf ut
Ġst mts
Ġth umb
sh ards
Ġso lid
Un its
Ġbreak point
roll ing
utomat ically
Dist ance
Ġdiv mod
, ):
C AP
v otes
me tri
Ġ' ['
__ ']
amp litude
SE S
Ġdisk s
Ġhead s
assign ments
Red is
ĠRO OT
Ġresidual s
Ġadjac ent
upy ter
T ransport
l ng
r pm
in ing
Ġt k
Ġf ld
Ġ1 99
Ġ` [
log o
ĠW BEM
sh adow
Pro blem
match er
oriz on
Ġlate x
e ither
g m
y ou
Ġi e
__ '
Ġtime step
ĠM etri
Ġ5 12
Ġstream ing
(_ ("
ND Array
success ful
enter prise
ĠMan ager
sla ve
trunc ate
WRI TE
- ~
m ble
Ġe gg
ol ving
to ggle
Ġwe ak
Ġad vanced
To ols
Ġdesc ending
Ġdot ted
ĠNormal ize
pie ces
D es
Ġst em
Ġde serialize
us ually
Ġpre f
cor ner
ĠReg istry
soft max
METH OD
s x
č ĊĠĠĠĠĠĠĠĠĠ
Ġlo t
set Formatter
ĠS park
iss ub
AC CESS
cos ity
Ġrelation ships
contin uous
CRE T
Ġmicro seconds
C ATE
Ġ ĊĊĠĠĠ
Ġn orth
ad v
Ġv oid
ĠL V
ĠL ast
Ġ[] ))
Ġph enotype
ĠResult s
FUN CTION
d j
re index
st ations
de re
Ġn cols
path name
ĠD rop
unt u
pi cal
ĠH as
ab ly
TO P
Ġplace ment
Ġsv c
%% %%
Ġsilent ly
ĠDynam oDB
A U
E l
q c
r w
he mer
he artbeat
ĠT r
Ġor b
Re po
Ġr g
file Store
Ġon set
do es
reg isters
cate gorical
ĠHTTP Error
Ġsv g
de scriptors
Ġp ure
Ġlo cate
ĠR ole
Ġmodi fiers
Run ner
255 19
Ġoverrid ing
2 34
G ING
Ġst ick
ĠE qu
ĠG lobal
ĠW ARNING
Ġdis cover
LE FT
Ġav ailability
12 5
Ġbreak s
bro ad
bot s
drop na
Ġps f
ĠPri vate
! ='
S G
Ġm en
co variance
mat mul
Ġmax iter
Ġgen otype
Client Error
Ġmulti part
ense mble
Al ready
valid ators
ĠIn dicates
tern ational
ab f
stat uses
Ġ'{ :
201 3
Ġannot ate
Ġequal ity
ĠTime stamp
fail ures
ĠBo vy
ĠThere fore
soft ware
perm utation
chrom osome
LOB AL
ĠFAST A
. -
M ore
t ilt
â Ĥ
Ġc artesian
it ations
ol ated
our ier
Ġexist ence
fla sh
ĊĠĠĠĠĠĠĠĠĠĠĠĠĠĠĠĠĠĠĠĠĠĠĠĠĠĠĠĠĠĠĠĠĠĠĠĠĠĠĠĠĠĠĠĠĠĠĠĠĠĠĠĠĠĠĠĠ ĠĠĠĠĠĠĠĠ
Pre view
Ġexclude s
sto res
effect ive
ĠUp load
F FIX
S kip
Y S
a pt
Ġa ugment
Ġre ver
Ġco lored
Ġde crypted
Ġpro portion
cur ves
Ġcomp act
we ak
ĠJ WT
(_ ('
Ġcom bo
modi fier
Could n
Ġans wers
Pa ir
Ed itor
________ ________
PROTO COL
W rites
re connect
Ġs anit
ul ates
Ġex ceeded
ĠB io
var name
sm art
gp g
Ġaggreg ated
Ġeas ily
H igh
L ambda
h al
Ł ¥
Ġs x
Ġtemp oral
ĠDe st
lon gest
fetch one
ĠBe autifulSoup
Ġeigen values
Ġshif ted
aref luxes
n asa
æ ³
Ġ orm
Ġb rightness
ĠT LS
Ġ== ================
pa que
ne cessary
Ġle m
Ġargs pec
ĠCon tains
Data Array
Ġview er
NE W
Ġqual ifier
ĠSup port
VAR I
W M
k k
re z
Ġa udit
ar win
Ġst amp
th ough
Ġat tack
Ġhas n
Ġinter act
Co okie
bin ned
ĠMI ME
ç± »
Ð »
è ¦ģ
me ters
Ġp n
Ġpro bs
if ti
Ġcontin uation
ong odb
PI O
seq id
Ġpr inter
ĠLine ar
ĠAli gn
ç¬ ¦
- {
M ON
T CP
p or
us hed
ca mpaign
ĠU t
ĠW CS
Ġid le
Ġtoken izer
åį ķ
at ypes
Ġi mplements
"" ,
Ġs atellite
Ġ_ (
ĠF LAGS
Ġen velope
Ġread line
Ġsplit ted
NAME SPACE
By Name
Ġfra gments
Ġang ular
ĠFile s
Ġpartic les
Ġmot or
ct r
ĠD ump
ĠN u
RE MO
Ġaccept ance
dat um
Man age
ĠReg ion
D L
M app
M ARY
an o
Ġm ysql
stri ctions
Element Tree
dist inct
Instance s
release s
ĠConfig ure
skip ped
00000000 00000000
h unt
k args
l just
y our
le aves
ur lencode
Ġs ca
ĠT ags
mit ives
Ex periment
ST EM
SE CON
Ġallow ing
Ġfo oter
Su ch
PY THON
D Y
Ġe levation
Ġpath lib
Ġ{} '
Ġsingle ton
cont iguous
Message Box
Ġconcat enate
ĠEnt ity
ĠFinal ly
Ġc riterion
th ree
ĠA C
np ack
cent roid
Ġtri angles
Ġestim ates
month s
some thing
capital ize
F ault
re aded
Ġt mpl
Ġst rength
Ġl ng
Ġg ates
ĠF ITS
Ġ2 7
Ġlen s
mb l
ac le
ĊĠĠĠĠ ĊĠĠĠĠĊĠĠĠ
Ġknow ledge
Ġaz ure
llegal State
ĠAx es
q ry
¾ ç
ub y
ĠL anguage
Ġtext ure
Trans fer
ĠSo ft
Ġsy llable
Ġvox els
er ated
Ġc g
pt ides
"] ):
iter values
Sub net
sl t
Ġfore ground
PA RE
effect s
) ()
S pect
` _
h l
n f
v env
à ®
en ses
Ġe mails
'] ],
'] })
Ġpro posed
Ġy y
ĠG rid
lock s
Ġbo ost
16 0
B ro
s he
v max
Ġn rows
Ġpro x
cre asing
direct ive
sn ps
grade book
listen ers
Called ProcessError
' >
T ASK
[ ]
b t
b ib
Ġre lax
Ġan ts
add Widget
Ġcont rast
Ġline style
ĠRa w
YY Y
GI STR
Ġf utures
up ling
pro cs
mm utable
jo urnal
ph p
sub tract
man ence
Lo ok
subject s
Ġdeci de
; "
ĊĠĠĠĠĠĠĠĠ ĊĠĠĠĠĠĠĠĠĠĠĠ
Ġs anity
Ġr val
object info
Ġca ught
Ġ4 01
segment ation
ĠAuth entication
Ġanim ation
C V
F ill
P ower
un defined
ĠT EXT
ren s
Ġpro venance
ĠP EM
Ġv ote
Ġx array
ĠV LAN
:` <
sh p
unc er
Ġ3 5
math rm
CL U
click ed
Ġinstanti ated
COD ING
D iv
W rap
d ur
w i
in coming
Ġw i
ĠS ha
ĠL E
Ġoff er
('- ',
calcul ated
ĠInter val
Connect ed
' $
D uplicate
H y
S aml
d rag
f x
Ġre build
lo ci
Ġdi vision
ĠF FT
ĠEx tension
Ex pect
PE G
are as
desc end
FILE S
ĠQu antity
Ġpartial ly
ĠAuth orization
Ġshut it
Wh en
flu ence
755 4
e Life
re pl
Ġin tr
Ġs quared
Ġs weep
ĠS ec
Ġ3 3
Ġbin ascii
Ġweb hook
As sessment
atter y
Child ren
Ġminim ize
ot ion
Ġ: ],
ch allenge
is in
ver gence
(' |
Ġ{ :.
Ġme ant
ip ament
ĠEx port
EX EC
User s
ĠTime Series
web hook
g uest
h ints
ĠĠĠĠĠĠĠĠ ĊĠĠĠĠĠĠĠ
Ġt qdm
as y
as sed
ĠC I
ĠM ac
label size
float ing
Ġps util
CF G
!! !!
appro x
phan um
Top ic
C RI
Ġd raft
Ġcon crete
ĠM akes
Ġnon zero
Ġdebug ger
Ġwrit able
desc r
xx x
aut os
cred it
ffici ency
Ġas semble
Ġpro be
line width
ten s
level name
Ġdiff s
UR ATION
OB JECT
F LO
M ult
b m
è Ģ
Ġt ube
or ical
ĠC ore
Ġx lim
pre f
group dict
Ġsp line
Ġblock chain
Ġsc ra
Te X
Dis patch
expression s
Ġsn ap
publish er
Align ment
Zip File
o spy
Ġp wd
Ġin form
ĠE very
dir path
the docs
ĠName Error
Run s
icro soft
Ġhex a
ĠInter face
Orig in
( .
: /
Ġc raw
Ġd P
Ġex periments
file Name
(" .",
vo ps
CH ANGE
Ġsn mp
Ġconv ex
Ġfraction al
schedule d
ticip ants
Ġlisten ers
ĠCont rol
ctrl pts
åľ ¨
ami lies
O ptim
x FFFF
Ġf type
pp rint
ĠP RE
Ġpre sen
ĠW rapper
Ġyield ing
fici al
Ġattemp ting
J S
R o
S UM
t te
er ied
le et
Ġf tp
to po
Ġal gorithms
Ġcol lision
ĠR A
Ġ'' ',
havi or
Ġexponent ial
Ġ`{} `
w id
de vops
ate x
Ġw raps
Ġl xml
Ġh ue
ĠC R
ĠO rig
vo c
Config ured
ĠImp ro
* :
3 84
e mails
u k
Ġin i
qu ota
Ġas n
pro xies
ĠĠĠĠĠĠĠĠĠĠĠĠĠĠĠĠ ĠĠĠĠĠĠĠĠĠĠ
read only
Ġk b
mat rices
Ġsu fficient
cache dir
Ġhash able
Comp utes
spe ech
interpol ation
A fter
B C
v ote
Ġf obj
ut s
la ys
ex cluded
ĠS AS
Ġsh ot
Ġwas n
To Char
ret ty
Ġcent ered
Group Name
tw itter
Ġorg an
Ġmembers hip
MODE L
detect or
> ``
G lyph
u a
x f
y max
Ġ ĊĊĠĠĠĠĠĠĠ
Ġf b
min o
loc ities
Ġdat um
integr ation
artifact s
Ġconcaten ated
arct an
Ġslight ly
S urface
d V
Ġi py
int ensity
Ġdi vided
Ġ% %
ĠF ill
ĠN B
read thedocs
Ġdis p
Ġtra ffic
pri mitive
su c
trip le
ĠWS GI
> :
re run
Ġ( {}
Ġl and
vi p
res ume
tra js
lat s
ker as
BU ILD
ĠAllow s
1 10
} })
Ġp ng
mp s
Ġco mplement
Ġout going
ĠN ext
ĠR ule
Ġdis carded
Ġsh adow
En tries
Valid ator
Ġ[]) .
Ġplatform s
Ġbuilt in
sph inx
arb age
' (
R SA
o spf
x ls
Ġpro t
ĠP UT
Ġen rich
Ġtype d
Ġ"" ).
IG HT
rep lication
redirect s
EV T
Ġoverla ps
! )
" })
C atalog
r atios
(' `
ĠP NG
Data Type
ures ystems
Ġcons umption
sim ulation
Ġrelease s
Ġconsist s
Ġrepos itories
ĠMongo DB
uresystems lib
U sed
Y our
¡ ç
Ġ{} "
ac cum
Par sing
Ġvis itor
ga ps
ĠAs set
mar sh
YANG ListType
çĶ¨ æĪ·
Ġsear ches
Ġelect ro
adjac ency
f ds
l bl
s anitize
ro pping
Ġe ver
co erce
Ġh mac
Ġde livery
ĠS ci
Ġx r
RE ST
og onal
Ġpos ix
SE CRET
Ġerr s
201 2
INTER N
DIRECT ORY
G PS
v network
er ry
ra s
ĠT F
Ġr sa
vi m
Ġon line
ĠB ound
Ġj ac
Ġsub string
Ġtra cks
lp ha
auth ority
}) ".
post gres
Ġdir ty
ï¼ ļ
qq q
ĠMulti Index
ĠCont in
rout ine
-~ -~
. ))
8 00
A m
M ac
b ill
d temp
é Ļ
th en
Ġh d
ĠEx it
so li
ome tries
Speci fication
B I
S ide
b at
i ssion
j vm
Ġre placing
Ġb a
ĠF requency
mm er
amp Rec
cent ral
Ġ6 55
byte array
modi fiers
atom ic
ĠVAL UES
= ("
b ility
Ġre member
Ġ' ~
um i
Ġ-------- --------
arg ins
Ġ... }
Ġclo sure
Ġdatabase s
zone file
Ġsql alchemy
Ġsolution s
Ġstand ardi
Ġmer ging
Ġaio http
D H
G ene
g at
l ush
se ll
art ment
ener gies
([ ('
we bsocket
DE L
ĠDE LETE
PRO JECT
åħ ¥
T ARGET
] **
Ġre places
Ġs lic
Ġs phinx
Ġw d
qu ake
gra mming
Ġwhen ever
Event Data
semb l
Ġur lencode
M X
w eld
Ġp list
Ġm iss
ex on
Ġbe yond
Ġco don
ĠĠĠĠĠĠĠĠĠĠĠĠĠĠĠĠ ĠĠĠĠĠĠĠĠĠĠĠ
ĠR DF
ĠR oute
{} '
AL LOW
ĠPol y
desk top
B inds
] ':
_ \
d scp
č ĊĠĠĠĠĠĠĠĠĠĠĠĠĠĠĠĠĠĠĠĠĠĠĠĠĠĠĠĠĠĠĠ
Ġt re
de tection
(' '.
qu otes
ĠE num
ĠM L
cord ance
queue d
su ch
Di ag
Ġdb us
BU FFER
Ġplace holders
Ġfeed back
Ġrepe t
Uni que
Ġyi elded
() ;
Ġal location
ic ast
Ġpre set
Ġca pabilities
Ġmin us
fil ing
AD DR
book s
chedul ing
FIL TER
âĸ Ī
M ARK
e b
j j
p rune
s weep
Ġw it
all close
Ġ2 9
Ġro ugh
ym metric
Ġderiv atives
Const ant
Ġnu cleot
Pay load
umid ity
J Link
P ush
c artesian
en velope
Ġin herited
co urses
Ġde composition
RE GISTR
bound ing
Ġ'- ':
Ġsim ulate
Ġsn ippet
ĠInput s
cod ers
ĠAssume s
Ġexceed s
K ind
S ys
S hell
{ :
st ers
ĠV CF
Ġsub dir
ST OP
Ġmult iline
Di ctionary
connect or
Ġvar name
ĠAc cepts
Ġvisual ization
è® ¤
Ġfire wall
) [:,
A ctions
a udit
c g
or arily
Ġin direct
ĠT c
Ġde scriptors
pro be
pi es
Ġj c
Ġcheck plot
Ġtri ed
ĠBase d
F R
t iming
u u
Ġh l
set ter
ber t
ĠG P
ĠB ro
do g
Ġq qqq
######## ####
ĠSt at
Ġgo al
Ġkeep ing
Ġdump s
monitor ing
COM MENT
ĠLay er
D b
f k
s os
or ph
Ġc and
Ġp run
get size
Ġso on
for ced
Ġerr msg
cho sen
Ġdownload ing
Ġut ter
OS Error
Ġmut ations
lig ible
Ġidentify ing
coef s
ĠCom ment
SETTING S
J OB
L i
t weet
y ticks
Ġth in
sh ipping
check out
gen otype
Ġdescription s
full path
Ġpub key
DI CT
ĠMark ov
" )))
Ã °
ol ing
tri ps
ber g
max size
ĠGener ic
spe ction
sql alchemy
Ġactiv ated
+ )\
e y
Ġc rs
un signed
Ġh w
do f
Pro gram
åı ·
Ġcla im
ĠAd just
stand ing
reach able
K B
N s
] ==
b ench
k ing
n ii
v z
æ İ¥
in ated
st anza
an el
Ġo m
Ġcon cept
ĠF ail
ap is
ob server
pred s
analy ze
Ġplay list
Ġfall s
DOC TEST
M is
c ers
Ġd ash
ime s
Ġr st
py lint
Ġpre served
ĠR T
ner gy
Ġpe ople
Ġtrain able
Ġ~ /.
members hip
Ġsimp lify
Ġener gies
sw agger
Writ ing
i vers
fi sh
con cern
Ġ+ \
Ġ[ ['
pi ed
ĠR DD
ĠEx pect
EN O
Ġab spath
pack ed
Ġsee m
Ġschema s
Invalid Argument
packet s
Ġocc ured
RUN N
f ron
st rength
Ġi mag
Ġf ed
Ġ( .
Ġr type
ĠS can
ĠIn tegr
ID ENTI
Ġchunk ed
Ġmark s
Ġtransform ations
Ġsym metry
sym metric
END ING
Ġconsist ing
Pub lish
ToChar P
+ '.
? '
? ')
R FC
z fill
ro ma
set Enabled
po ols
LI P
Ġlat ter
Ġserial izable
break point
pers istent
ĠDist ance
Require ment
f ld
g te
de m
par ms
Ġco in
Ġun specified
ph y
==== ===
net es
ATION S
cla ims
Ġaltern atives
Ġaff ine
Ġdenom inator
uber netes
V ED
Y ear
b ile
j pl
l ings
st h
Ġd rag
Ġw ent
Ġw ide
ol ar
ĠA gent
Ġk s
string ToCharP
ag rant
Ġsub scribe
ĠIn formation
Ġsu ite
Ġsign er
Ġcoun ters
Format Error
Ġsyn the
W in
l xc
Ġre actor
an ger
un ities
te ins
Ġme ss
ĠS Y
ĠS cript
time step
tra cer
Me an
est ed
Class ifier
sn ap
ĠRE AD
Ġbar s
flux es
ĠCF G
Ġamb iguous
ĠDet ect
: ]]
[ @
Ġ ç
re me
Ġp ivot
Ġw iki
pt ype
(' *
ic ense
=' {
Ġ{} }
Ġfla vor
bound aries
('/ '):
modi fication
Ġpur ge
Jo in
Det ect
< <
H ASH
M s
N L
P ID
n rows
t g
Ġv x
Ġro unded
ĠO ptim
ph enotype
Ġ... )
spe ctor
Ġappropriate ly
thresh olds
ĠDate time
(", ")
WID TH
O mega
st ops
fo ot
Ġobject info
ĠV i
ĠTh us
gra ding
:// %
Ġign ores
Po inter
Auth or
tool bar
ĠLog ger
ĠDef ines
adi us
O ID
] [:
k not
s ch
al loc
ĠE L
Ġcal ib
Ġclass path
(* [
Ġtrack ed
F ree
e levation
h ull
in crease
le ading
Ġre corded
Ġg ui
du cing
MA SK
DB Session
Ġfreq s
G C
G H
t end
get Attribute
Ġth rot
fo oter
Ġpre p
Ġsub tree
sub domain
AR I
cmd line
Pre pare
Ġcla ims
diffe rent
basic Config
Ġreject ed
Custom er
WH ITE
F RA
f resh
n es
x iv
Ã £
ro ids
() `.
ĠI AM
tr ust
ok u
ard own
iter ate
SI TE
Ġ'_ ')
MAT CH
YY YY
Mark up
æĹ¶ éĹ´
Ġjo urnal
B IT
č ĊĠĠĠĠĠĠĠĠĠĠĠĠĠĠĠĠ
he ap
ss a
Ġex its
od o
ig ab
Ġpo le
([ ^
ax y
Ġassert ion
Ġqu eried
De code
sv d
>` _.
success ors
Ġexpi ry
Ġ"_ "
ä» ¥
Ġmot if
lips oid
Lookup Session
ĠBu cket
C la
F ixed
c am
de termine
Ġre construct
Ġif o
fe rer
"] =
Ġ3 6
gra des
pos itional
Ġz order
item getter
ident ities
sl c
ĠOne Login
recur se
ĠTI ME
B its
C ols
_ ]
g ss
Ġ que
Ġf coe
iz ard
sk i
fra gments
('_ ',
ĠAd ded
Ġ################################# ################################
C ALL
E nsure
H AND
c dot
r find
Ġb are
sp ike
comp iled
RE Q
ĠPar ams
:] ):
Ġspecification s
Ġcompar ing
Ġpat ient
ĠTemp erature
S ensor
_ {}'.
g file
i B
z ier
in side
is y
par ty
ment ion
ĠS calar
Ġv t
([ ],
sub dir
we ather
ST OR
Ġpri ces
inst itute
Ġmultip ly
micro soft
mot or
Ġcra sh
ä¿¡ æģ¯
P en
U pdating
Ġen rollment
Ġsh orter
ud p
File Path
ado op
mix ed
M a
a ugment
m arginal
n os
} ).
Ġo id
ri se
ex cel
ĠF it
ĠO ffset
Ġcur ses
Ġlin enum
Ġpy h
pass phrase
Ġlib spice
Ġstat uses
Ġund o
Ġow ned
ĠAl ways
Ġside s
equal s
è¯ ·
Ali as
Ġide a
MET ADATA
F igure
n ight
he ses
Ġre li
Ġre connect
Ġin active
ate l
co o
ff old
Ġover flow
AR M
fn match
Ġcopy ing
lab or
FO UND
pur ge
è· ¯
Ġm alformed
ra gment
Ġr bridge
ĠD NA
ĠE S
ĠG tk
config urations
ok es
Ġte ams
limit ers
ĠSet tings
CH AN
Ġpost s
ĠMe an
Message s
('- ')
Ġsur f
pars ity
Clo sed
Widget s
('_ ')
ĠEvalu ate
C ATED
å ī
al locate
Ġstr ong
ĠU s
Ġ[] }
Con tact
Ġinfo s
ĠPro duct
ĠIter ator
distribution s
Ġcid r
_ ',
d ash
un able
par a
Ġco vered
pro v
[" _
Ġcheck out
pr incipal
)] ))
Ġsk learn
En code
Ġsuper class
fill na
ĠConfig Parser
Ġput s
catalog ue
mc client
fq dn
Ġcontrib ution
substit ute
Elements By
sibl ing
Ã£ o
d g
p du
Ġ 99
Ġe th
Ġm g
Ġ""" \
te ch
cal es
Ġapp let
ang ent
block size
Ġjson ify
frame work
API Error
ĠBase Exception
Ġrecomm end
ĠAb stract
U TE
c spice
} ^{
ra c
ra ses
set attr
ĠS TR
Ġv ault
ind ptr
Ġpo re
ĠM ET
log ged
ĠW indow
ĠH ash
Ġtra ined
sign atures
Ġop ener
Ġus able
FILE NAME
Cont in
Ġsy mpy
Ġmonitor ing
Ġhexa decimal
p res
s ho
Ã ¤
st s
an c
Ġe ff
Ġfi ve
ĠC reating
Ġby pass
ĠL ong
ron s
PO INTER
EX TEN
Ġequ ations
Work flow
Ġsubstit utions
ony ms
Gra de
Ġbracket s
I ssue
P atch
S ta
Ġ= \
an chors
et o
sp i
op code
ir ing
PE D
Ġfunc s
Ġdecla re
*\ *
Ġ'? '
decla red
R en
R ad
S CO
_ ))
de limited
Ġ' "'
Ġse crets
Ġcol on
om atic
ME DI
ĠQ U
Ch at
; ;
N P
P ag
è ½
é ¡
ľ Ģ
st ars
Ġst ars
am a
Ġex ha
Ġde letes
context s
ĠCo ordin
Ġsee also
Ġalign ak
Ġspa wn
ĠPass word
ĠPub lic
Stat istics
ĠBytes IO
C lick
U Int
a ware
Ġ ĊĠĠĠĠĠĠĠĠĠĠĠĠĠĠĠĠĠĠĠĠĠĠĠ
ri sk
Ġex cluding
Ġh aven
ab ling
org an
indi c
Ġrece ives
Ġarch itecture
Ġgu ide
Uni form
Ġfu zzy
('= ')
. ):
D im
U ri
c and
d yn
g ran
ce x
ub ble
In ference
Ġgra in
Se conds
For ce
Ġhy pot
Server Error
A SCII
M any
i ated
Ġde limited
Re moving
Ġpo res
Ġun recognized
ca pt
ĠG PS
ME N
Ġus ual
Stream Handler
ĠStart ing
evalu ation
deriv ative
' /
> ")
G ate
a es
e lasticsearch
re actor
Ġs anitize
ke eper
Ġse quential
te e
Ġal most
ĠD X
class path
Ġli bs
field name
Ġac quire
block chain
play list
comm its
round ing
fra gs
Ġsur vi
Dis k
esca ped
Ab ort
ipament o
D rop
T LS
c url
de compress
Ġ" |
Ġpre processing
ĠO k
Ġmax len
Ġtra cker
Un recognized
import ed
ik o
Ġfetch ing
correct ed
assert ion
Ġsever ity
v ailability
x data
č Ċĉ
en ing
Ġi l
Ġm ul
Ġg ender
Re st
Ġpro d
Ġuni versal
loc us
ĠPro vide
An chor
ense mbl
ĠCO M
Back ground
' ``.
D uration
Ġp bar
pe cs
ri cal
Ġme et
ĠS ync
ub es
ist ical
pa per
ĠU nsupported
Ġsup posed
Ġback off
RO P
Ġqueue d
Ġzone file
ĠInvalid Argument
imer a
band width
åĪ Ĩ
oct et
BIN ARY
R aster
b urn
f onts
ç º
Ġt bl
Ġc txt
Ġm f
is ons
)) ])
Ġl d
Ġch k
Ġpass wd
Ġauth ority
Ġcould n
Ġdown stream
Ġrank s
zen desk
('{} :
Ġcancel led
Attemp t
zh mcclient
Ġsaf ely
L R
x l
le e
Ġm ir
Ġl t
Ġ+ --------
ĠS k
Ġch ord
Ġch allenge
Ġsh all
go al
Ġiterable s
SU FFIX
Ġextent s
Ġance stors
ĠMy SQL
interpre ter
Ġre boot
ver ity
int ent
Ġde que
Ġr sp
ĠS w
(" *
ĠC ertificate
ĠF ourier
ĠRe cursively
log ies
Ġapp ending
Ġimport ing
Ġper mitted
view er
AR GS
EN TRY
comple ter
EX IST
sat is
XY Z
/ \
A K
r sp
de e
Ġ' </
type d
Ġde legate
ĠC AS
ile stone
Ġpre process
token izer
Se lector
Ġident ifies
ĠDe bug
cons ume
ĠPo ol
Ġve hicle
¦Ĥ æŀľ
b are
h an
u lo
» ĺ
in cr
re levant
Ġpro tected
ist s
ha ps
pa st
ĠM B
In clude
Ġsub key
Ġtra ces
Ġtra versal
serial izable
Ġho mo
Ad ded
integr ate
i ct
i ser
n at
p ivot
q name
Ġd ont
Ġj wt
Ġper manent
St atic
DE V
SE SSION
Ġfit ness
PRO PER
Ġsuffix es
trig gered
reci pients
HEADER S
WA IT
SUP PORTED
Ġsib ling
a pache
c lf
n od
n atural
u ck
er as
Ġc el
as ctime
Ġg a
ĠS pec
ĠP E
Ġbase integer
01 0
let ions
hot o
Ġtrim med
Ġfront end
Ġpen alty
C Y
N orm
S ending
V ec
` """
æ ¶
Ġn f
Ġd ask
Ġm asses
Ġ# .
Ġ( ))
is abs
Ġcon form
ĠA da
col lapse
Ġ{} ))
AN Y
Ġmo ves
Ġident ities
ĠName s
CR Y
ĠAx is
' <
R NA
c raw
s li
y l
() ],
fo x
Ġne cess
Ġz f
ST Y
ST AMP
Ġtra cer
Ġsat uration
Ġred undant
Ġcomplet ions
Indi ces
Ġâİ ¢
perly Configured
A mount
` -
s ls
v R
he res
mp ot
Ġex on
ĠA ES
Ġr y
Ġal locate
ill er
mo id
Ġwe bsite
ER O
AC TIVE
normal s
gre ater
Ġdist ingu
ierarch ical
Ġcatalog ue
å¼ ı
I MP
S ent
} [
ri ction
Ġ* .
Ġun available
lit es
ĠX Y
off line
ay esian
su ite
cho ose
oper and
Per m
button s
Ġhappen ed
PL ACE
ĠEnd point
Ġnv ml
Ġaccur ate
G A
S Z
n grams
Ġe limin
(' ''
Ġ`` [
Ġun iv
os ity
Ġsm tp
cu da
Over lay
lig hts
Word s
aco bian
3 60
E mbed
J obs
] .__
in ode
Ġe ig
ot onic
us b
time steps
Ġ{} .'.
ĠU S
com ma
Ġcom ing
MA V
Ġstack ed
Iter ate
XX X
Tag Name
Ġdispatch er
sol ar
bon ds
Ġbelong ing
iri cal
»ĺ è®¤
T akes
g ff
re call
ar ms
ro ats
Ġex pen
per c
mo other
DE VICE
ik a
Auth entic
ĠUni mplemented
Ġsat rec
Ġcost s
Random State
A verage
A gg
C n
q p
pe ers
Ġcon versation
Ġme ter
Ġar ri
ĠP K
pro cal
host port
pr t
CE S
Ġprogress bar
Spec Rec
ĠUN IX
Admin Session
Pe er
sco ped
Ġcle ared
! ",
B F
P ot
er atures
Ġf und
ut y
Ġ" `
ta ken
ĠA void
ĠU ID
Ġup sert
List s
chunk size
relation ships
Ġcap ital
åĢ ¼
Ġ í
Ġp si
an onymous
lo yment
Ġ' +'
Ġv c
add Callback
([ \
Ġta bs
Ġdirect ives
Store ID
Ġmoment um
Go ogle
Named TemporaryFile
Conver ter
atel lites
) ][
D M
^ ^
ĠD elta
op ener
LO CATION
ĠTra ck
g is
p seudo
ext ents
tri als
ns ures
Ser vices
gre ssion
Ġ9 5
Ġkw ds
USER NAME
enari os
Pi peline
ĠUs ually
A ctor
F req
L ight
s rs
Ġ# :
ĠA NT
Ġ- (
Ġma chines
ĠG al
ti gs
Ġsub graph
Log ging
Ġcp d
Ġcir c
aa a
comb inations
Ġradi i
Ġguarante e
H IG
k ins
s np
st ab
Ġr tol
Ġas ked
und ers
ĠR ot
To String
Request s
Ġcent roid
ĠEn ter
Ph ase
Ġ"{}" '.
compar ison
âķ Ĳ
7 00
N F
d op
w ner
w ell
or table
Ġs ue
Ġan onymous
ĠT M
ime d
Ġdi visor
str ong
ĠC al
== "
Ġun install
ffect ed
az y
Ġfra g
Ġnet CDF
TA IN
Ne ed
Ass oci
nost ic
E qual
i cons
è §
in sensitive
Ġb ump
Ġd v
ĠRe lease
ĠD ensity
ĠB U
so ap
api key
Lo cator
the se
Ġidx s
Ġbl k
ĠBy te
ĠRequest s
Min imum
Ġband width
ĠDate Time
Ġmk dir
Wait ing
PARAM S
` ),
h ang
p lex
di es
sp her
ci an
Ġlog level
Ġfield names
Ġz mq
Default s
ĠId entity
Ġadmin istr
Bind ing
represent ative
Success fully
Ġele ms
Ġunders core
G u
T K
Y ield
i mplementation
def erred
up stream
Ġcon sum
ĠA bsolute
ĠS phinx
ist ency
ho use
py mongo
pla intext
comp osite
new lines
Ġblock ed
ĠComp are
ĠAl ready
Exec utor
Ġdetermin ing
activ ated
(': ')[
Ġquant iles
trim med
Ġlif etime
w c
on set
Ġe fficiency
Ġl ats
Ġout liers
ho le
__ ):
ĠM od
ĠV ar
ab out
[:, :,
sm tp
zen ith
km ip
Ġsco ped
' (?
b ow
Ġa id
Ġd ri
li ant
is class
Ġh ence
Ġg andi
ĠA P
ĠS m
ĠC ar
ub i
ĠP ers
]) *
pi log
ĠM ask
Ġro bust
ll ing
Ġsh lex
pop left
exp ansion
Check er
'} }),
Ġ12 7
Ġdynam ically
Ġlem ma
M atches
M ouse
` '
Ñ ĥ
ra sh
ul ename
Ġ: ])
get ElementsBy
ĠA mount
vi sed
Ġv cs
ers hip
ste mp
Ġtra jectories
err msg
author ize
pm n
orth and
åĲ İ
Ġpred s
Ġprevent s
Ġtur icreate
Ġcommunic ation
RET URN
) ".
Ġ Ã
Ġ è¿ĶåĽŀ
Ġi mpl
Ġb ag
len coded
ĠM ost
ca o
Ġk l
** -
pen ded
Ġpos it
ĠPro bab
now led
ĠRes olve
Ġ201 2
Ġcor o
Ġshort est
Update d
ĠSign ature
Ġheat map
associ ation
Ġstra ight
M R
å İ
ĠĠĠĠ ĊĠĠĠ
el net
mo ments
ĠG amma
Ġac quired
RE EN
PO S
depend s
So ft
Ġsubstit ute
Ġdl g
$ {
6 01
h mm
é ¢
Ġf names
Ġp ct
un lock
Ġg ps
Ġ3 4
pos ures
so lid
Ġreport ing
Text Cursor
estim ated
Ġrespon sible
adapt ers
vest ig
$ (
s lack
} ').
ro unded
Ġg old
ĠS C
ĠP attern
pro filer
log out
Ġ\ *\*
ĠDe precated
ĠApp lies
ĠQu ant
ĠBuild s
åĪ °
Ġlisten ing
ĠAS N
SY STEM
Mon itor
Expi red
H ierarchy
Ġan chors
ĠT itle
ne ar
iter keys
()) ]
ME M
Ġmo vie
Ġoper ate
User name
Ġevalu ates
Al t
åŃĹ ç¬¦
Ġ čĊĠĠĠĠĠĠĠ
Ġre cover
Ġs b
Ġd end
Ġd ark
un supported
Re moved
ĠS parse
ĠC alcul
ded ent
Ġsuccess or
Ġdescri bes
ĠTe legram
cost s
Ġcontact s
ĠTer min
) '.
, [
4 01
r nn
Ġf lex
ra ck
() [:
Ġse cs
Ġhost ing
PE ND
local ize
grid s
ĠZ ip
ĠArgument Error
Qt Core
Ġcred it
ĠDist ribution
Ġfew er
ĠHttpResponse Redirect
provision ing
B V
L n
N X
b log
v T
x ref
Ġn apalm
Ġs il
Ġs lide
ut ral
Ġun lock
ĠU DF
cs i
Ġdis covered
Ġtarget ed
TI ES
EX CEPTION
utomat ic
Ġmost ly
effici ent
extract ed
PAR AME
Ġturn ed
* ):
O VER
W HERE
b lo
p ca
Ġre covery
Ġw p
ed y
con struction
SE NT
Ġretri ed
convert ed
IL L
-------------------------------- --------------------------------
Load s
Bo ard
Ġradi al
Ġwave form
ĠProper ties
Ġspi ke
ĠRece ived
occ up
G LOBAL
in ches
Ġd ual
ĠA F
Ġme s
ĠP RI
pre set
ans wers
Ġmin i
ĠCon v
Ġsupport ing
del tas
description s
Or g
LOG IN
Ġflow s
pan els
Ġdelay ed
Ġ'# '
Ġeigen vectors
sensor s
åĩ º
ĠImpro perlyConfigured
T s
V als
in active
re spon
Ġw t
Ġto ggle
ĠS aves
our se
pa ste
ID S
AL Y
DO MAIN
Ġthem selves
Ġ[" -
confirm ation
Ġperf ect
åĪĹ è¡¨
! \
R AN
U MENT
u cs
x z
in asafe
ch ass
ĠD IS
Ġro bot
asure ment
Sh ift
mk dtemp
Ġ[{ "
zz le
contract s
ĠEd ge
STOR AGE
chass is
\ _
è °
è İ·åıĸ
Ġb gp
Ġd j
Ġd k
un expected
ul ating
() -
ĠS tyle
ĠC PE
os ing
Ġiter ating
ĠQ ual
ĠRa ised
Ġdimension ality
)** (
ĠMay be
ĠPl ugin
dere rs
C TED
N rm
P ut
S igma
V ertex
Ġt ex
ar o
Ġp th
ma chines
end ers
ren dered
ĠP osition
), ))
=" \
be g
Res olver
---------------- ----
ĠAt tach
Ġintegr ate
Ġtran scripts
selector s
AUT O
REGISTR Y
T imer
Z ero
k de
Ð º
Ġp val
ri be
Ġh ull
ĠS A
ĠD C
Ġout line
und ance
Ġpre defined
Ġmo ments
... ',
ä¸ Ĭ
Ġfra ctions
Ġmix ture
Ġear th
OFF SET
U D
] "]
f atal
} |
é Ķ
Ġp ressed
ce an
un ched
con ut
Ġde clarations
out going
Ġ`` /
Ġhe l
ĠR oot
Ġcomp osed
base string
=" /
ec c
TI FI
Ġag o
Path s
Ġconst s
tab ular
Ġdot s
Ġmar sh
Ġroll back
Ġreach able
! ',
S amples
d ue
p wd
ĠP R
pro pagate
ĠN E
Ġ{} .".
ir p
lob ber
cre ating
Ġsc oring
File Entry
Ġaccess ing
access ible
tab lename
rand n
front end
**************** ****************
a h
d set
Ġi c
de tach
one t
la beled
Ġbe at
Ġu g
Ġde tach
Ġfile Name
Ġv env
temp oral
gen o
25 0
post process
ï¼ Ī
ï¼ ī
200 1
Build s
Internal Error
" ^
A ggreg
F inal
S heet
a mpler
g ender
s ay
s ystemd
t ml
in a
Ġw alker
() })
pro duction
Ġca used
Ġpy mongo
av atar
err ing
Ar tifact
Ġcl ust
ĠAdd ing
Ġ[" --
Ġ'{} .
micro second
ç» ĵ
Try ing
ä¼ ļ
Predict ed
f us
n able
t im
ç §
in clusive
de mand
li x
name server
con ns
Ġ* (
Ġde tections
ĠE lastic
ĠN UM
ĠM ar
Ġhe artbeat
ĠU SER
ph ys
Ġle ts
connect ivity
ĠPro xy
Ġsuccess ors
wh m
inte rest
ĠClient Error
uest ion
; '
S creen
b as
v ms
st dev
Ġre write
Ġb ul
ĠI ssue
ord inal
ĠE NA
py psa
ĠB AM
ĠList s
ĠSt arts
Ġder ive
ĠIgn ored
nv ml
Calcul ating
STO RE
o ssible
Ġl iter
Ġg ff
Ġ[ ("
pre serve
ĠM IN
log ic
Ġ< %
ĠG ot
min imize
gra in
ap se
Ġbin ned
speci e
Ġpe ers
vm ware
fin ity
Ġunpack ed
ĠJo urnal
ADD RESS
' ',
. ])
B ig
C ent
d q
f ers
i ation
u ations
re comm
Ġo q
Ġo dl
co var
vi al
ĠC RE
ĠL I
ti e
ĠJ OIN
pri ces
sys log
ĉĉ ĉĉ
lst m
Speci fy
ĠPrint s
Ġmig rate
åĮ ħ
åī į
F requency
L ow
o pacity
u ge
č ĊĠĠĠĠĠĠĠĠĠĠĠĠĠĠĠĠĠĠĠĠĠĠĠĠĠĠĠĠĠĠĠĠĠĠĠ
at tached
ro gate
un g
get pid
Ġl g
Ġco ding
Ġ1 000000
ĠA MQ
ap or
Lo ss
Ġlib xml
Ġexit ing
Number Of
Ġbig ger
b ak
Ġh ouse
Ġg w
Ġel lipse
ĠP lace
pre pend
Ġinput ed
oper ators
screen shot
ĠRel ative
S pan
T mp
c gi
o sc
al ts
Ġdata source
Ġmo le
Ġfe e
TR M
ĠAl gorithm
Ref resh
Ġresid ues
ĠOR DER
G M
K MIP
L V
c rt
l max
Ġn ullable
Ġ' ('
Ġd set
pe ek
ĠP H
ĠE q
son gs
ĠIn fo
Ar chive
ĠName d
Ġrot ated
Ġrelease d
Ġå Ī
compat ibility
Qt Gui
ĠST AT
rgb a
appro xim
Ġroll ing
vox els
5 000
C ircuit
m ux
st a
di f
Ġal n
EN CODING
}, {
vari ation
Ġtermin ation
ĊĊ ĠĠ
Ġes sential
ffic ult
Ġna ive
V ol
] [:,
a emon
g allery
s ound
} ^
co arse
Ġr dd
Ġj u
Ġurl join
:// '
bro kers
Response Error
Ġimplement ations
seed s
Ġexperiment al
Ġadjust ment
CRI TICAL
O W
n w
Ġin come
ĠE V
RE SH
Se cond
Token s
diag ram
sy llable
ĠPi peline
ĠCho ose
Ġbon ds
Ġnecess arily
getElementsBy TagName
: \\
F ast
R D
e mb
j peg
x a
er ase
ĠP ower
tr usted
Ġhe ur
Ċĉ ĠĠĠ
In dent
Ġrequest ing
tra iling
Ġca iro
Ġconnect or
Ġround ing
Sp in
Ġcard s
Ġgs i
Ġide al
Ġske w
onto logy
Ġtranspa rent
4 03
S parse
x m
er n
'] },
Ġg arbage
Ġco bra
Ġlo ci
ht m
Se par
Ġsys log
ĠNot ification
Ġkw s
Def erred
break s
Ġdecimal s
pat ched
('/') [-
, *
D ing
E ffect
T urn
g auss
l te
n tp
t here
w rong
li day
Ġst re
Re ason
Ġr tn
po ssibly
), )
Ġ** {
Ġun wrap
Ġtr usted
Ġ4 1
Ġhost ed
ĠDe code
Ġnormal s
Ġdir path
ĠWh ile
Ġsym links
sym links
From String
scan ner
Ġtick er
ele ms
Ġsens itive
_ ')
q d
Ð ¼
Ġt umor
Ġa ware
Ġth roat
Ġex am
Ġh r
ĠP lots
]) /
valid ated
Ġcomp any
ab br
fla vor
Dis position
enum erate
utor ial
9999 9999
Ġaut os
FRA ME
/ {}".
Ġc amel
Ġe ast
Ġr ms
ow els
Ġint f
AT IVE
St andard
Ġtra il
gen cy
... ",
Ġrepresent ations
]+ )
ĠTrans ition
Ġindividual s
named tuple
------------ ---+
Ġdevelo pment
Ġsubscri ber
CHAN NEL
) },
N ON
de posit
ro ps
is her
'] ].
con c
sp line
Ġdi p
ĠS K
ĠP assed
Ġon nx
py der
tra ces
IN I
Ġca ches
ose Version
DI ST
CON TEXT
sto pping
Ġcar ry
taint ies
Mark er
rem otes
Ġpersist ed
ĠSV G
CONT RO
æ¶ Ī
b rightness
ĠC T
Ġv z
comp any
AC H
vis ited
Di rect
Ġspecifi cally
termin ator
Ġpe ptide
Ġgrid s
LOG GING
Sh ut
Ġreason able
36 00
ket ch
COL UM
sr v
ĠCON FIG
ĠWork s
Ġsatis fied
ĠGu ide
Ġanno unce
shif ts
Ġled ger
VARI ABLE
8 000
L im
P lan
Ñ ı
en rollment
Ġif f
ent a
con versation
Re ferences
ĠC LA
time line
ĠĠĠĠĠĠĠĠĠĠĠĠĠĠĠĠ ĠĠĠĠĠĠĠĠĠĠĠĠ
ĠRe pository
Ġca ref
Sub scription
ĊĠĠĠĠĠĠĠĠĠĠĠĠĠĠĠĠĠĠĠĠĠĠĠĠĠĠĠĠĠĠĠĠĠĠĠĠĠĠĠĠĠĠĠĠĠĠĠĠĠĠĠĠĠĠĠĠ ĠĠĠĠĠĠĠĠĠ
ĠPo licy
Ġsw arm
ĠDO M
æī Ģ
M dl
a rent
e of
or row
ra ppers
Ġ: -
th rot
ve al
ta cks
sp am
Ġr atios
Ġla beled
DE NT
Ġed ited
VAL UES
Ġfore ver
Normal ize
Ġhar monic
ĠUP DATE
C SS
F ilters
re ps
li est
co pt
up on
par alleli
Ġex posed
ĠC DF
]) ])
00 4
host ed
Ġact s
cb io
æĸ ¹
ĠPart ition
éĢ ī
æł ¼
ĠTy pically
ĠMetri c
re strict
Ġb ib
ult aneous
ĠC RC
fici ency
SC ENDING
Ġalign ments
ĠEn code
ĠPre fix
resid ues
Ġsensor s
Ġjc vi
c ash
Ġp unctuation
ch ans
is k
am in
Ġth ickness
ĠD er
be red
Ġdis connected
Ġpy plot
LE AN
EN TER
record ing
Ch art
Class Name
('. //
ĠCommand Line
ĠPub lish
ĠPay load
L ER
h m
t cex
w or
Ċ Ċĉĉĉ
er k
Ġf x
ra b
Ġde crease
im c
do ck
sub tree
List ener
part icle
Ġvi ol
DA Y
Ġtun ing
Ra ises
Cho ice
phanum eric
? ")
c wl
st aff
pla cian
gra b
Ġclass ify
DE FIN
man n
Di Graph
Ġfig ures
Ġrepresent ative
Ġtri ck
Ġscan ner
Ġmeas ures
Ġol dest
ĠConnection Error
Ġocc up
A re
M F
P ull
a id
c lic
p val
at las
er m
Ġre servation
ame s
di com
di vision
', ',
py xb
Ġla mb
Ġconfig parser
Ġpl ug
SE ARCH
TE GER
ĠY our
pol ate
Part itions
äº ¤
WOR DS
Ġinvert ed
altern ative
CUR RENT
ĠSM TP
ĠANT s
a ken
d P
} %
ã Ĥ
lo ut
ul ls
la sh
ype t
Ġres cale
reg ression
run as
Id ent
ĠData Array
ĠZ one
Ġtab ular
Ġmultip lied
fire wall
Download ing
coeffici ent
2 25
ĠT ho
[' $
ĠP ick
im t
cl r
__ ]
). "
ĠB lue
ref er
ĠCon venience
Ġwork around
Ġav ail
Ġkeep dims
tax on
Ca pacity
ĠST ATE
DAT ABASE
FACT ORY
G amma
U C
en kins
ex periments
()) ):
inter mediate
ĠY YYY
De letes
Ġph ases
Time Series
cp d
Ġcustom ize
Index Error
ĠGener al
Ġunder stand
ĠAs ync
ĠNaN s
Ġtreat ment
Ġbeg ins
F amily
I E
h ind
n ans
or um
Ġc df
Ġp yn
Ġ' >
un less
Ġst ations
(" `
Ġoff line
Ġqu ite
EX P
ĠPer iod
PRE CATED
Ġur lopen
ĠFe ed
Ġcontour s
CAS RN
K ernel
en queue
Ġb alancer
Ġd L
Ġw c
co ind
par ql
ĠA UT
ĠP c
Ġma intenance
Ġkey ring
Ġlog g
=' .',
mo m
'. "
Ġsub list
Ġdis count
av ailability
local time
network x
ĠInvalid Parameter
Ġorg anism
ĠExtract s
Ġinterest ed
D er
E LE
b anner
m ine
Ġt ls
de part
value d
per sion
Ġch ance
Ġ`` __
IN D
ST ACK
SE CTION
card s
SO L
Ġseed s
Ġwildcard s
Ġinherit ance
Allow ed
Ġsit uation
pic ard
ĠVis ual
Ġrecogn ize
$ '
C OR
p ants
q r
Ġa mino
Ġs lower
Ġ' )'
Ġm utable
co lored
Ġl y
ance stor
`` ):
Ġwe ird
Ġ** *
op h
Con sumer
mit s
Ġac quisition
bu dget
Ġpy cbc
AL LED
Col lect
Ġstrict ly
Ġmount ed
Ġquant ile
develo pers
Ġbuff ered
ĠComm on
) ^{
P F
Z ED
o int
de mo
ar ity
Ġg h
Ġde s
Ġdi sease
Ġqu adr
ĠUpdate d
ĠArgument Parser
Ġast ropy
åĲ ¦
å½ ķ
V o
W iki
n ts
v ity
de termin
ar xiv
Ġn i
Ġ' ),
)) *
Ġex plain
mm at
Ġinter rupt
Ġ4 03
strip ped
ĠAn aly
search sorted
Ġconver ged
pat ient
adjust ed
ç» Ħ
provision ed
ENABLE D
ĠAMQ P
b file
f out
f und
m ad
y co
è Ĥ
í ĺ
Ġa ds
Ġ' ..
pe ar
Ġw id
Ġ# ################
Ġg d
': [
Ġj avascript
ĠSe gment
temp file
De tail
CO UN
Ġ'/ ')
Ġbyte code
delay ed
Ġsw agger
MB OL
Ġstand alone
Extra ction
stre rror
b la
z i
re ed
ar ri
Ġf atal
Ġd as
get text
Ġh g
Ġr b
Ġv el
Ġhe ld
Con nections
items ize
Ġsh rink
ĠCon sider
Ġass umption
Ġdel tas
Di rection
Ġ'* .
protocol s
Ġenable s
åĬ ¡
Ġosc ill
F MT
S alt
r up
v in
Ġe sc
id dle
con firmed
con tigs
ĠC C
ĠD ID
sen se
index ing
oth ers
Ġ5 9
ĠY ield
PE M
De leting
Ġ'- ',
Ġdecor ators
Ġcor ners
feed back
Ġcomplex ity
LAN K
ffe rent
ĠAB C
P latform
V ideo
e os
r just
un zip
Ġto ks
ver ifier
str y
im gs
In line
In correct
ĠB ody
rt c
fit ting
Ġlookup s
expi ry
free ze
ĠState ment
ĠExec ution
Ġke eps
cri min
v pn
re cs
Ġa udi
Ġw v
Ġm type
ĠRe p
py ramid
ER ENCE
Ġz s
Key word
amp s
Ġqu ota
CH UNK
Ġmig rations
LD AP
ĠLD AP
ĠPress ure
T ON
j avascript
Ċ ĊĊĠĠĠĠĠĠĠĠĠĠĠ
Ġ ul
Ġo pacity
Ġm r
Ġl sp
Ġl bl
ĠS ER
ĠR ect
ĠH O
check ing
Ġprocess ors
Ar t
pol ygons
Ġvar type
ĠUn able
orig ins
85 9
Ġsec uresystemslib
MAP PING
Attemp ting
Ġsimpli fied
/ -
d path
Ġpro grams
ĠM ode
by pass
Ġtr unk
[: :
Ġimp lies
Argument Error
Ġsteps ize
Ġsn r
æł ĩ
Ġsanit ized
ĠDest ination
FLO AT
ĠGal act
1 30
: '):
O ther
s ized
x e
} }{
ĊĠĠĠĠĠĠĠĠĠĠĠĠĠĠĠĠ ĊĠĠĠĠĠĠĠ
fo s
Ġset uptools
fa bs
Ġfield name
AL IGN
gin x
dat al
ĠAdditional ly
Ġonto logy
Relation ship
CLU DE
% .
E AR
½ ®
ct s
Re q
pa x
ĠG d
io loop
ran e
DO M
Ġge vent
Content Type
sock opt
ĠCO MM
ĠSerial ize
( ...)
+ ",
/ ",
> ]
H S
ä ¾
Ġre vert
Ġb qm
)) **
sp s
ĠC ritical
ĠU SB
Ġsub parser
Ġsub system
Ġz lib
av y
AR C
fore ver
Get ting
temp orary
ĊĠĠĠĠĠĠĠĠĠĠĠĠĠĠĠĠĠĠĠĠĠĠĠĠĠĠĠĠĠĠĠĠĠĠĠĠĠĠĠĠĠĠĠĠĠĠĠĠĠĠĠĠĠĠĠĠ ĠĠĠĠĠĠĠĠĠĠĠ
ĠDi rect
Request ed
fit ted
Ġhist ograms
ĠValid ates
Change s
probab ilities
ĠOPTION S
Ġmacro s
ä½ ¿
ĠSu bject
ä¼ ł
bol ites
Ste ps
a ffected
g tf
Ġ vert
re mo
Ġc u
Ġin consistent
() [-
as cending
Ġth rows
(' +
Ġco er
ĠA tom
Ġ` __
pa ger
Ġdo s
ph ases
back off
sub command
Ġpy tz
ĠPro gress
Col lector
Ġscreen shot
Ġtax on
Rule s
built ins
ĠSu ccess
M ass
e id
f ro
n side
Ġ Î
le ap
Ġo paque
Ġe mitted
Ġ' ))
Ġfor get
Ġg uid
Ġr f
ĠF ire
Ġcont iguous
Ġdiff ers
stream ing
Ġ'/ ':
cu ssion
Ġrank ing
Call s
Ġâ İ¥
analy ses
Assign ment
éĩ ı
POSI TION
PARE N
b one
m ro
pe ts
am ax
con strained
us able
Ġpre decess
ĠW eld
ĠH o
inter action
Ġany more
dire ctions
Ġuni q
Ġchange log
Ġext ends
AB C
Ġ201 0
tran scripts
Ġweek s
B ATCH
D J
N a
b fd
u ched
x ticklabels
Ġi ms
Ġs np
Ġ' `
Ġd q
Ġde part
Ġdata s
ĠRe store
__ "):
cy an
AL SE
util ities
ens ive
hed ral
Ġpe m
sem ant
å¤ §
Ġinstrument s
residual s
Ġsib lings
decla re
M ar
P ur
l lab
ĥ ½
ĠF ollow
ĠF ilters
fig ures
Ġlog arith
ys cale
ll dp
bu gs
Ġpy game
Ġ4 8
Ġqu ot
part icles
cont rols
Ġsocket s
Ġtensor flow
pair wise
ĠLe vel
mot ion
mig rations
pw m
ĠPh one
ĠAN SI
ambig uous
D id
in er
co mplement
Ġcon duct
sp end
form set
ĠS W
ĠF ree
ĠD ynamic
ĠB in
ok ing
sub missions
we red
Ġver s
Ġlocal host
}. ".
Ġslice d
sd ss
rep orter
Ġhour ly
mig rate
5678 9
) |
G D
v ature
me tic
Ġc bar
un e
ver ification
)) /
con tra
ĠS pace
ĠB ox
RE SOURCE
Ġfa vor
dis cover
ass istant
Resource s
present ation
Sign als
cnt l
Select ed
Ċĉĉĉĉĉĉ ĉ
REC ORD
Qual ity
+ ".
= /
B l
n best
ur lencoded
Ġe type
Ġto ur
Ġco arse
and roid
Ġde signed
ance stors
=' <
ho mo
op ub
ĠW in
join ed
ĠAn g
DO T
struct ured
DI T
lem ma
Ġdepth s
Ġbl ur
Ġsym metri
27 3
CP U
Ġcla uses
="" )
Ġintegr ated
Ġ"' {
ĠAuth or
Ġer ase
Component s
WA RE
("" ,
Sc roll
101 6
Ġdescend ants
Ġflo or
Coordin ate
âĸĪ âĸĪ
è° ĥ
B ranch
F ac
T ile
Z a
b enchmark
e ved
u gs
le sky
ro ck
Ġb isect
Ġd ur
ate gies
il lis
ĠT or
as numpy
od ate
Ġde viations
Ġr an
(" |
Ġtime steps
ĠR ight
ac ion
De lay
De termines
uni q
Ġsent inel
Str ategy
exclude s
Ġcompar isons
ĠWork flow
repos itories
åº Ķ
Ġcapt ured
STY LE
2 24
D NA
k nowledge
l z
Ġ ë
in ction
en ed
Ġa i
de ls
ar cs
Ġre act
Ġs lab
Ġb n
Ġ( ~
ĠRe quire
reg round
Ġsum maries
has hed
'} }
Ġmod s
Ġlon s
separ ate
VI EW
subnet s
Ġcrop ped
CONST ANT
ĠEOF Error
H EL
` ")
f am
Ġe quival
get argspec
and oc
file type
app id
pre ferences
pa res
do ct
** .
Ġmax val
ĠIn crement
plot ting
Ġapi key
transform ers
Ġtri ps
PAT CH
nb r
Be gin
Ġclip ped
Mapp er
G NC
Ġp config
un quote
Ġto ok
ti f
Ġper mutations
play ers
rec ision
OP ER
ĠDis able
ĠTensor Flow
glyph s
ĠBig Query
B OT
F Y
O pt
S witch
d L
o pp
æ Ģ
Ġp ushed
Ġin compatible
ut ations
ser ting
im mediate
ĠR ate
ins ic
Ġpri me
Ġexec utes
Ġfull path
14 2
Ġdraw s
DS A
stage s
è¿ ĩ
ĠCON F
ĠExec utes
Ġtrip les
Sha re
G IT
M aker
T W
T X
W ITH
h u
p unctuation
s wa
st ro
ar th
Ġ' ).
la mb
Ġan alog
Ġres ized
Ġen gines
ti ble
Ġquery ing
lib vlc
Ġfinal ize
mult iline
ven ient
edit able
security Handler
Ġspect ra
micro seconds
Ġ^ =
] *(
j p
k u
ch ore
Ġg rand
ĠI mplements
Ġdi com
Ġr pm
ĠC ard
out side
ename s
Ġad vance
Ġplot ter
au li
Ġsw itches
Ġmodify ing
Ġcomma s
Med iator
ĠGra b
Ġfre ed
EMP TY
ĠVER SION
C AT
R ANGE
c amel
f ts
t v
z ing
Ð ²
å ŀ
er mi
Ġi ll
Ġf cntl
Ġs outh
th row
ĠS chedule
ĠC UR
Ġv otes
__ ",
vent ions
Ġevent ually
face color
ĠQ R
Ġpredi ctor
virtual env
çĽ ®
ĠModi fy
R outer
b illing
h ort
n z
p key
æ ±
re play
Ġ( ),
th in
Ġuser data
ac celer
bu y
{} </
ab orn
ĠCon sole
Ġsome one
Ġdifferent ly
dev null
NO TE
ĠCall ing
lc dict
person al
interpre t
ĠRet ry
gat k
/ _
F un
L iteral
S aved
Z IP
] `.
e li
h mac
u ptime
x array
Ã ¶
å ·
le metry
Ġ( ('
Ġ" )"
Ġde mo
ĠP ull
ber os
debug plot
Ġcount ing
]] ))
RO W
Ġcl oned
mod ulus
(** {
rol led
sha res
Ġsha res
HE D
fast access
Ġ", "
For ward
ĠBo ot
SA FE
Ġwa its
Ġhyper parameters
Ġtrial s
Dest roy
ĠSD K
GEN ER
åŀ ĭ
D NS
d ra
č ĊĠĠĠĠĠĠĠĠĠĠ
or onoi
ĠT rigger
ĠI R
Ġnew est
Ġnum s
'. ")
ĠH AS
sub graph
Ġpy pi
alt t
Ġtoken ized
pr j
tx id
su fficient
De leted
Ġupper case
ĠField Type
ĠConstruct s
Ġprece ding
yco pg
æ ¡
Ġ ĊĠĠĠĠĠ
st ash
Ġa head
lf ill
() ``.
il ton
di mage
Ġ` "
data source
ĠF actor
Ġen sembl
ĠM ole
Ġro llo
Ġtrans ient
fl ds
pet ition
ĠPos itional
Ġwor st
Ġpresen ted
Ġexpen sive
ä½¿ çĶ¨
- ')
C ert
S pi
b an
b alan
e quivalent
Ġ unt
Ġb ri
Ġm b
(' !
Ġh c
Ġg y
ĠC l
Ġat tn
ĠB ot
ab la
AL S
Ġcmd line
Ġsa ys
ĠLo ck
Ġ201 3
Ġgre at
TIME STAMP
bi os
Ġentire ly
recur sion
ĠOper ators
ALY SIS
ĠENA BLE
A GER
P DF
S tri
g old
in cl
at o
Ġc ame
Ġd urations
urn ament
Ġto c
di ameter
Ġor phan
Ġpo ss
pa ren
ĠM ass
Data Instance
SS ING
ĠAllow ed
ĠPh ase
ĠLookup Error
= ")
B oth
F LOW
H dr
f light
h ue
u ds
} ):
æ Ł¥
Ġp ract
pe ptide
ĠA verage
qu iring
Ġdata Type
stri pe
contain ing
ĊĠĠĠĠĠĠĠĠĠĠĠĠĠĠĠĠĠĠĠĠĠĠĠĠĠĠĠĠĠĠĠĠĠĠĠĠĠĠĠĠĠĠĠĠĠĠĠĠĠĠĠĠĠĠĠĠ ĠĠĠĠĠĠĠĠĠĠ
oper ands
Request Error
Ġcer ts
Ġrece ipt
gp us
ĠIN FO
Ġconversion s
BO SE
week s
replic as
Attach ment
P rf
] _,
f type
m peg
re mainder
id ata
Ġas c
pro x
Ġkey file
Ġkey pair
fe red
Ġle ap
IN TS
pen alty
ID R
DE P
Ġsp rite
build ing
ĠUser s
200 4
clip board
gu ard
BE GIN
Comple te
igab ite
? ",
B r
O bs
P lay
R Y
g lobs
Ġfor warded
Ġu df
ĠI ts
ĠS te
ist ance
ĠR R
Ġun necessary
tra p
Ġte mpl
Ġ} ]
feren cing
AR RAY
Ġ'. ':
Ġsplit ter
Ġglobal ly
month ly
XX XX
Ġcut out
conv olve
break points
Ġmot ifs
æľ Ł
æĹ ¥
ĠExp licit
Ġshif ts
PyCdlib Invalid
Y AML
\ ",
¥ ¨
in dependent
re h
Ġre lat
Ġre vocation
ur y
Ġe lastic
Ġ` <
Ġname op
pre order
col lision
ca iro
op atch
=" #
ach er
Ex ternal
rc Params
Ġab bre
En codeError
Ġappro x
US H
Ġ201 1
ä¸ ²
Ġut ili
Ġsecurity Handler
Ġturn s
Ġretain ed
distrib ute
La unch
ĠSec ret
ĠOrig inal
C ar
S lice
é »ĺè®¤
Ġ rights
on o
Ġfor med
ad os
Ġse x
Ġh is
Ġg ues
ĠS UB
ĠC ell
Ġpar alleli
Ġpre pended
ag ain
ress or
Ġport folio
Ġencoding s
dist ro
Ġexpect ing
anis ms
prob a
azure arm
æĸ °
ĠPol ygon
compound s
ĠConfiguration Error
fu zzy
åıĤ æķ°
' ')
c pp
n ary
æ ¬
Ġb anner
un os
to ver
que t
ĠP EP
Ġres ampling
Ġv type
fo reground
ĠL ower
ca ches
Ġcont igs
tra il
Ġli m
Ġclass ical
SE EK
Ġweight ing
Ġeffect ively
attrib s
Ġpr intable
ĠContent Type
Ġunders cores
Public Key
Ġsemant ic
S ame
T ake
d ual
n orth
Ġe lasticsearch
ma j
Ġfile paths
ĠW idth
return ed
Ġsub missions
ĠIn dicator
Time s
Ġbin ning
Ġ'- ')
down loaded
201 1
Gener ating
CS V
Ġface color
conver ters
éĢ ģ
vox el
ĠâĶ Ĥ
Ġdbs Exception
> )
S Q
V ID
c name
o ses
x mpp
Ġa perture
Ġp or
Ġpro tect
Ġpar ame
Ġj body
Ġso ap
=" {}"
start time
ls m
32 6
open id
mag col
Ġab i
ĠDe velo
gg ers
Ġdetermin istic
Ġspan ning
ä» ·
glob altt
Ġmultip lication
ĠCON ST
ĠJo in
macro s
ĠLay out
Ġgrade book
elect ro
ske w
Pick le
RUNN ING
igabite thernet
' -
d arwin
m ongodb
è ±
Ġa w
Ġi mmutable
de legate
Ġs ms
ĠT s
ĠD oc
ĠE quivalent
ĠN X
Ġ** _
Ġtrain er
pid file
ĠApp ro
Ġrep orter
Ġtar ball
Handle s
ĠOverride s
ľĢ è¦ģ
, _
T x
s lashes
Ġf ron
ro bot
li et
ode s
Ġh ints
ĠC hemical
ind rical
lif etime
ten ess
Ġca pability
host ing
off er
Ġ[' --
stat istic
Ġenv s
EL LIP
ĠOr dered
Le g
vide os
lu ent
conj ugate
sam tools
Ġimplicit ly
ĠDes ign
C y
D ROP
S ens
ar ded
me ster
Ġd store
ĊĠĠĠĠĠĠĠĠĠĠĠĠĠĠĠĠ ĊĠĠĠĠĠĠĠĠĠĠĠ
ig raph
Ġv id
ĠL IM
Ġ3 9
db name
open ed
čĊ čĊĠĠĠĠĠĠĠĠĠĠĠĠĠĠĠ
ens us
has attr
Ġoriginal ly
her its
loop back
cla im
Ph one
pas ses
anno unce
W ER
e vals
he red
an u
Ġb illing
am bu
ĠP I
tri ggers
Ġpre ferences
ti a
ĠEx periment
ĠH andler
Ġtext wrap
lib ri
Ġqu aternion
Exception s
RO LE
Ġpe ek
Ġextract s
Ġ". ".
spe ak
ĠUser name
Ġtab lename
Speci fic
Ġglyph s
ĠLa TeX
centric ity
ĠPop ulate
Ġsucceed s
dead line
nowled ged
- (
i mplemented
re use
Ġre play
Ġin sensitive
Ġex tr
Ġpro posal
Ġoper ands
Ġgen omic
ĠOr g
radi i
Ġhand shake
embedding s
Short cut
Ġscr atch
sth rough
1 12
c ule
re li
re ts
Ġa e
Ġin serts
Ġu v
Ġde mand
set Current
file list
file paths
=' *',
Con version
Ġbase dir
sum maries
:// {
Ġwork dir
Ġarch ives
eric a
ĠReg ular
ĠReg isters
äº İ
Modi fy
Ġguarante es
(".") [
ĠCate gory
F ix
U pper
p lat
u fact
â ľ
st rom
al gorithms
Ġb read
ĠT ries
pp y
und o
add er
Ġtime line
mb ic
pla ined
ĠB GP
ĠTh er
Ġne gate
pri vile
Ġref erred
ret val
Ġpayload s
Ġtmp dir
Ġ7 0
ole ans
Ġphase d
åĪ Ļ
Ġrh ol
nick name
Sk y
Ġè İ·åıĸ
Sec ret
Ġopp osite
Ġmav util
inated List
) ["
A lpha
E poch
R ank
å ¿
he ights
le y
an i
Ġ' )[
Ġw av
ch isq
get members
Ġse d
ĠA re
path sep
Ġpro f
out liers
ĠE ffect
ST M
nd x
Ġdoc strings
trans lated
ĠQ MessageBox
ĠUn like
CE PT
20 3
Ġappro val
Ġimp orter
span ning
Ġ"{} .
calcul ation
/' +
Speci fied
ĠAct iv
Double Vector
Ġresample d
MULTI LINE
Runtime Error
Conf lict
åĨ ħ
ĠAltern atively
ç±» åŀĭ
REMO TE
' \\
/ ?
B P
N I
h andling
m w
n lp
Ċ ĊĠĠĠĠĠĠĠĠĠĠĠĠĠĠĠĠĠĠĠĠĠĠĠĠĠĠĠĠĠĠĠ
re visions
Ġb tn
ad y
ĠA ir
qu ot
Ġpar ty
ĠP ush
Ġpa ger
ĠG C
load txt
face ts
Ġav atar
open ssl
Ġtemp orarily
Ġdocument ed
Ġpost gres
Ġdir names
Ġbyte string
Comp osition
Ġsepar ation
App let
fetch er
suffix es
Pri mary
ĠCO MP
GR AM
UST OM
ĠCom bine
Extra ctor
Pay ment
erry py
) ]:
> /<
B AR
T D
_ ()
f ri
ã ĥ
de li
al located
Ġre visions
Ġn axis
Ġe cc
Ġ( <
Ġ+ -----+
') }
Ġv p
ign Key
ne monic
field names
Ġtra ding
Ġdb g
tifi cation
Ġpick led
ĠSo cket
Ġfasta file
= ':
= ()):
L inux
c riterion
p ids
| _
ç Ĳ
ot ic
def er
Ġfor ces
() '
set sockopt
ĠC D
ĠE nsures
spon ds
color map
ng l
itch en
Ġcent re
dic ated
Def ine
_' +
moment um
silent ly
ĠConst ant
ĠRET URN
Depend ency
Ġposit ives
è± ¡
" ;
G ateway
M ER
S afe
e ction
f all
¤ º
Ġt ty
Ġto wards
ch ord
[' -
Ġh yperedge
om al
Ġread only
64 00
Ġph ys
Ġhttp lib
Ġsim ultaneous
spect ral
Ġsur vey
ĠBo ol
SA ME
è¯ ¢
follow ing
COMP LETE
ĠProgram Error
æ³ ķ
uncer tainty
B lob
B undle
C tx
L ear
V ATE
W ave
a head
d urations
s it
Ġt weets
lo ops
la re
ode tic
(' (
con cept
Ġh m
Ġfile list
Ġx l
py rogram
Ġen ded
lin ed
Ġz abbix
EN TS
Ġab ility
Ġfail ing
Ġtri angular
Ġimplement ing
ĠSpeci fic
Ġ': '.
ĠWork er
ĠDesc riptor
tun ing
Ġembedding s
ĠMag IC
Sc ene
ĠTH IS
b v
y ticklabels
re boot
Ġin jection
ĠA utomatically
qu adratic
ĠR AM
mpl erate
work sheet
TO M
Ġve locities
accept ance
Ġedit ing
('.') [-
ĠSup er
Ġpul se
EXTEN SION
âķĲ âķĲ
ĠInvalidParameter Error
' ^\
2 14
[ ['
_ {}".
} \\
se verity
Ġc name
Ġs queeze
pe imc
li ef
Ġ( ((
as ible
Ġ_ :
ĠI C
Ġra ce
ti fy
Ġret ention
ump tions
man agers
any array
sym metry
('. '):
ĠOperation Class
Ġquant ities
experiment al
quant ile
Comm on
ENO ENT
Ġpyh peimc
æ¶Ī æģ¯
* ",
S izer
h line
re write
re wards
Ġf onts
am ble
as ynchronous
Ġg uild
te legram
Ġhe ights
ĠL ow
Ġsub fields
Ġsub sets
group ing
inter actions
ster day
]] ):
Ġsum s
Col ors
Ġrest ored
Ġmak ed
inc ident
Find s
Ġri ch
WIN DO
Keyboard Markup
2 20
= """
B lue
R DD
S Frame
i ents
in venio
li pt
Ġfor um
name list
Ġh er
Ġ1 20
Ġas array
ci ous
time period
=' #
ĠV RF
Ġinter sections
Se lf
Res olution
File Handler
Ġdf vfs
Me mbers
ĠWe ight
Ġstat istical
reference d
Ġperiod ogram
Ġdownload s
Ġsig clip
ä» £
Ġnumer ator
Ġann ual
ĠComm it
Ġdead line
overla ps
ĠLib rary
ĠFail ure
- "
> [
G IS
_ '):
Â °
Ġan si
() ")
di sease
as anyarray
con current
ve ta
Ġ+ ----------------
(" ~
add Action
ĠW a
Ġax s
amp aign
LO T
cont rollers
." ))
ze ug
Ġattemp ted
Ġcommit ted
mut ate
Ed ges
Ġrho g
Ġ19 2
ale o
Ġmagnitude s
åŃ ĺ
H o
T i
W CS
b irth
p format
s ma
æ ¯
re lax
at ts
Ġt im
Ġb unch
Ġh po
sp ir
Ġla unched
ĠB ind
so red
no aa
AN TS
ĠSe par
Ġ(' %
Ġafter wards
Ġlook ed
ĠComp ound
Ġbot tleneck
SO LU
Ġ'* ':
Table Name
ĠPre di
Ġleg al
Ġbi ases
hance d
Ġslic ing
; ")
B M
H int
f ine
k i
ç Ń
ì Ŀ
in oto
re stricted
st an
is at
am g
ol w
sp c
ĠI I
Re view
=' '
ca pability
sen ger
Ġcomp uter
De coder
part ner
Ġge ometries
US R
sym bolic
SA MPLE
mk stemp
)- >
plan es
Find er
ev t
Ġinject ed
want ed
A RE
C redential
E FF
` ]
f names
m h
m ir
ĠĠ ĊĠĠĠĠĠĠĠ
st ory
Ġre lay
ri ent
get mtime
(' =',
(" \\
ĠC he
ĠD uplicate
ĠM esh
line style
Ġsh allow
PI X
Ġpart ner
Ġ"" ))
pol ation
Ġhash ing
Ġob servable
PRO FILE
multi processing
activ ations
Ġedit able
ĠAR N
Ġchromosome s
ĠInst antiate
Ġacceler ation
indic ators
inoto py
" )),
$ ')
G U
H unt
M Y
f ns
g row
h ighest
z o
at ers
"" .
and ra
ĠP C
ĠL iteral
ĠU SE
db g
Ġ'. ')
Ġhelp ful
Ġ'_ '.
Ġindic ators
Reg istered
mk time
ĠVAL ID
Ġnest ing
Has Field
stddev s
hemer al
ufact ure
6 55
> ".
I SS
M ongo
i y
l xml
| :
Ġa se
ce e
ro te
ss is
el come
ext s
set item
(" $
cal ed
Ġget pass
Ġlog out
sc ra
Ġnew node
Ġpre par
ĠPar am
10 2
Res pon
AC ES
datetime s
ĠBe fore
Match ing
Ġneighbor hood
uli an
A ES
n me
p le
Ĵ Į
Ġf min
un register
ra dio
di go
DE C
cent ered
environ ments
sn ippet
orth o
Ġaux iliary
met al
vx lan
C rypto
T rain
U MP
f lex
} ={
Ġs lack
li ation
as i
ĠS ent
(" !
us al
out ing
tri angle
ĠN L
Ġ`` {
Ġ[] ),
Ex ceeded
Ġedge color
ze ta
foo bar
rect angle
SIG INT
('# '):
Rece ive
Ign oring
Evalu ate
T rigger
V Box
t ips
å ±
al location
Ġc ad
Ġb w
po res
ĠP V
ĠP ag
Ġun zip
ĠU pper
object id
Ġquery string
Ġcolor ize
Ġgen us
ĠK afka
bed file
Ġcontrol led
occur rence
Ġestab lished
Ã³ n
ĠUt ility
A Y
B SD
Z ATION
at um
at ten
Ġre ly
Ġin gest
Ġd amp
Ġlo s
py lab
bo ss
ĠM X
ans i
ĠU DP
Ġgra ds
Ġ5 3
App ro
ĠLog ical
conv olution
inv ite
Ġdig ital
estim ators
em ma
SY MBOL
WE B
Ġadapt ers
Ġ"* "
ĠOb tain
nost ics
TRA IN
Ġsemant ics
Pag inatedList
A SS
C ross
Ġt ie
Ġs ns
key file
sp ines
Ġkey stone
pre t
Ġj av
ME TRI
dis count
trans formation
Ġq os
Ġdatetime s
ĠAPI Error
pk s
Ġpredi cates
ĠProcess ing
CODE S
Ra ise
Sup port
Ġorth ogonal
Ġmagn etic
Ġrever sible
Dispatch er
Ġhel ps
ilton ian
D st
W L
k id
m ute
al ing
le le
Ġc am
Ġb irth
ul ner
Ġcon soli
ĠI NS
Ġx m
ity Error
Ġpre cip
ĠW atch
lit tle
Ċĉĉ Ċĉĉ
ab sent
Ġchange set
ĊĠĠĠĠĠĠĠĠĠĠĠĠ ĊĠĠĠ
ĠAn not
])) .
stack s
ĠComp ile
depth s
ĠDataFrame s
Dis able
200 9
Ġdat al
ĠBo keh
activ ities
Ġmut ually
Ġshortcut s
Ġnick name
Ġther mal
M G
N Y
O wner
S AS
T raining
a ches
g ro
n itude
s andbox
} `.
Ã §
Ġs olved
Ġm im
la ps
Ġ" ="
con sum
Ġl int
key board
ĠP hi
Ġy data
mo vie
log l
lat er
annot ated
CON TAIN
'} :
tax onomy
Ġconf usion
MO DI
Ġty pical
NotFound Exception
Ġrep lies
mesh grid
Ġtool bar
Bo ot
---+ ---+
INTER VAL
Ġstation ary
ĠScale Type
Ġpagin ator
ELLIP SIS
F P
N ER
U AL
n Data
s av
ì Ħ
in come
Ġf inis
lo st
Ġex cess
to s
Ġde limiters
Re cursively
rom an
vi ct
us hes
00 2
pre dicates
Ġpre trained
ĠG ive
ĠH er
ĠH and
work s
md l
tp u
ler t
ay es
Ġab breviation
Ġpers onal
ĠCommand Error
Ġsubscription s
Ġnom inal
Ġdum ped
A rc
A udio
B UT
G UI
R atio
S ends
b ys
h ips
n io
id ue
ta p
Ġdi mod
per mutations
ari o
In strument
Ġsource Time
sum s
ĠK wargs
roll ments
mal e
Ġ7 5
QU O
Ġimp lied
Te am
Ġneighb our
ĠState ments
AA AA
Exp and
ÑĢ Ð°
Ġparagraph s
issub set
xls x
D ynamic
F ACE
G uest
j unction
n ex
t ures
al lax
Ġc data
Ġn gram
Ġ( ...)
Ġco urses
te ams
Ġv host
ĠĠĠĠĠĠĠĠĠĠĠĠĠĠĠĠ ĠĠĠĠĠĠĠĠĠĠĠĠĠ
ĠB LAST
Ġper c
Ġbreak points
Ġag reement
Ġsum med
Ġus r
Ġinit iate
ient e
Ġarch ived
ru ption
spect ra
success or
ĠAd min
Ġinc ident
BY TE
smooth ing
IGNO RE
H ome
R s
X i
[ {
g am
y i
Ñ ĭ
Ġa ch
de que
un ge
is close
ort ex
ĠP ER
per ts
Ġx data
und ancy
ĠM P
Ġ< -
ari al
ĠW H
:` _
lic er
lic ated
Ġimport ance
xy gen
}} }
Ġbar code
Ġnb r
Ġrdf lib
("' %
('" ',
Ġsuggest ed
CONNE CT
æĮ ĩ
' (\
B EL
F ragment
O Frame
v able
² Ī
re ma
re cover
re covery
st al
he t
di ffer
key stone
ĠS lack
len ary
ĠM S
ĠW idget
Ġsub plots
Ġcomp liance
Ġ/ *
St ates
Ġ6 3
over view
Comp ound
AM S
Ġfill ing
FO RE
Ġprotocol s
indent ation
Ġanaly zer
Ġspect rogram
Ġden ied
decor ators
Ġpat ched
ĠMark down
åĬ ł
) ``,
. ).
D G
M aps
P ers
P adding
R AD
T ip
d vs
l ates
n up
č ĊĠĠĠĠĠĠĠĠĠĠĠĠĠĠĠĠĠĠĠĠ
Ġc url
Ġs quares
ex ons
Ġex pose
Ġ1 01
ĠI llegalState
Ġde co
ci a
Ġwh ence
ĠR ES
ĠG B
{} -
sing ular
St arts
na ive
Ġph en
coun tries
dot ted
Ġevalu ating
cd n
Source s
Ġknow s
STAT IC
Extract s
Ġmags arefluxes
overla pping
ATTRIBU TE
Cre ation
Ġbas ically
SECON DS
i ra
r q
ë ĭ
Ġm it
Ġl al
ĠA udio
po pen
ty pename
not her
ec ycle
ref lect
FI RST
]] ),
Lo gs
Ġsum marize
rop ic
An not
Ġdeploy ed
BO X
Ġgu ard
æľ ¬
Ġsubnet s
Ġneg ot
ĠNotFound Error
fort ran
ĠEstim ate
Div ision
. ),
K S
Y es
k al
p run
me ss
Ġo x
Ġd yn
li days
id y
Ġnot ice
Ġse per
set Value
ĠF raction
text ure
url join
-------- +
-------- --
qui libri
St ation
Ġindi vid
Ġcount ed
like ly
Ġinitial ly
Ġ6 00
Ġspecifi er
build s
Ġtransform ers
80 80
dec ision
socket s
Input s
Ġ"{} :
Link s
Ġregular ization
Ġbook mark
Ġpg mpy
Ġmarkers ize
ĠEd itor
ĠComple x
CONTRO L
= \"
F ig
G ame
k p
Ġ ĊĠĠĠĠĠĠĠĠĠĠ
re tention
Ġa ug
Ġre new
it ution
Ġn av
ro c
ad vanced
is co
get root
Ġg at
Ġelse where
Ġme ch
ĠC B
ĠC AN
Ġpro ximal
im ms
__ `
In crement
Ġsub directories
cs rf
start Time
place holders
Ġany where
32 0
Ġ'. ',
ob ao
aff inity
Ġcap able
scr atch
uro pe
C ut
J ar
g if
m ers
n ice
p Num
v owel
Ġi on
he l
ge bra
Ġ""" .
ver aging
Ġbe hind
sp ring
Ġel lipsoid
Ġal one
pro duce
time tuple
format ters
Ġne ural
Ġsh p
pop up
mt Inf
of s
Ġbit stream
Ġkind s
ĠPre dict
mot if
expect ation
ĠChange s
Ġgrant ed
warm up
Ġprivile ges
B LANK
C ERT
T XT
n apalm
v line
al ic
Ġp key
Ġw rt
Ġst ay
ter o
(" __
ĠP latform
ĠN ested
). \
Ġpre order
Ġint ensities
ĠU rl
ĠB LOCK
ir m
split ter
Ġ5 6
Ġqu arter
LO C
Ġextract ing
Ġnet mask
lear ner
Ġretry ing
Ad just
lar gest
Ġneur on
ĠDep ending
bul ent
ĠDes ired
ĠVari ant
NORM AL
Ġrelax ation
íĺ ¸
M at
R V
S n
b ang
c ds
g aia
n gram
Ġe b
""" )
id ge
Ġh h
key ring
Ġde precation
log dir
Ġz en
Ġover writing
Ġfound ations
Ġident ification
Ġselect ing
TR UE
200 8
database s
Ġweb driver
integr ity
Ġmeaning ful
ĠExp and
ĠDep end
ĠOper ator
Ġleader board
ĠPack et
Ġ655 35
' ;
M W
P hoto
l al
n av
o q
o lete
v rn
mp ts
am qp
Ġ_ )
Ġr nd
ĠS ensor
read me
Ġun quote
ĠG PIO
ag o
RE TRY
Ġlin ux
Get Value
rap id
download s
PAR T
clus ions
Ġdx py
Ġord inal
Ġcos ine
Bad Request
FE ATURE
ĠTer m
contour s
fort un
unders core
C trl
D on
O ld
b ams
s lab
s lide
Ġ questions
re ls
Ġin finity
ad vance
ma de
con currency
Ġr slt
ĠS cope
Ġy aw
ĠE lasticsearch
00 5
read ers
Ġnode list
IN IT
Ġcl r
hash lib
Ġclo ser
speci ally
CH O
AP H
Ġindent ed
Trans ition
ĠObject Id
ĠAss oci
Ġface ts
Ġcard inality
Ġquick ly
sph ase
dynam odb
ĠProtocol Error
ĠTop ic
Ġfoot print
²Ī íĺ¸
C ER
F lask
M ath
_ {}_
b en
s ms
æ ĭ
Ġp name
Ġd vs
fi ce
Ġ[ {}]
Ġlo cks
ĠS yntax
ĠC ancel
ĠD H
len ium
pre pared
pa ces
var type
ns wer
Ġsome where
direct ives
ĠHTTP S
Ġexit ed
Process Id
byte code
Ġupload ing
Ġæ ĸ
Ġmix ing
è¿ Ľ
ĠNetwork api
Ġweek day
ĠEnvironment Error
Ġprun ed
H idden
H DU
S hould
^ -
f amilies
k pc
v ors
Ġe mb
un q
bj ct
Ġout dict
ho ver
Ġun register
son ant
ag p
ĠIn v
OR IG
lib raries
Ġsp lunk
quen ess
0000 000
ĠCheck ing
oto pe
ĠNode s
trip les
digit al
ĠLook s
instrument s
dh cp
ĠComple te
Ġgran ularity
ĠChar acter
( ~
M V
e thernet
g andi
z ij
Ġi llegal
me chanism
Ġs on
ul se
Ġde compress
Ġ{ (
ĠS yn
ĠS UP
Ġpro v
Ġpa ssage
__ ).
Ġpath way
Ġne utron
be cause
call ing
ĠID D
net conf
Ġinst ant
Lo aded
project ed
qual name
Ġselect s
([' -
Ġmedi ates
expr s
Ġcp us
progress bar
Ġsto chastic
NET WORK
dbs Exception
UNI CODE
E p
M esh
O Auth
Z ONE
a che
ì ŀ
me mb
Ġp ep
Ġe tl
ent ific
Ġan t
Ġde comp
ĠS caling
data Type
ĠC S
Ġ== >
ci Ã³n
class ify
ĠB ar
ĠB reak
Ġj d
Ġbu dget
Ġ[' ']
ĠGet ting
termin ation
KE D
Ġgre p
Ġty pename
optim al
Over lap
Ġrdf value
Ġdistrib ute
Bound s
Ġdecl ination
Ġdescend ant
ĠDIS ABLE
D K
R ON
m nt
en di
Ġn w
Ġb lobs
Ġcon centration
ect ors
Ġ1 50
ren ew
pro ws
mo e
Ġsub directory
Ġover view
cent re
10 4
copy file
Ġtemp eratures
ĠPro vides
AD MIN
now ait
Ġcli que
US B
cluster ing
application s
Ġspe ech
ĠLog in
Ġaverage d
Ġanaly zed
Ġsyn apses
mut ex
Build ing
æľ Ģ
QUI SH
Ġocc u
pag ination
quis ite
S yntax
a de
h id
i ous
r ss
Ġc able
Ġre nd
Ġ" ;
'] )))
sp ent
ĠS witch
Ġres olves
Ġres olving
out line
Ġv l
Ġ2 50
pre decess
om it
ĠG ene
Ġsub title
Ġsh ards
ai o
PI C
lower case
De g
AC L
insert ion
34 5
cm c
Ġ:: =
Ġqual ifiers
ific ance
Print s
Dest ination
Ġcaref ul
' *
B and
D ONE
O A
b ump
k ms
Ġ è¯
ĺ ì
al ong
it ored
ĠT EMP
ĠS QUISH
Ġal tered
ĠP retty
bject s
ĠRe fer
art icles
Ġx p
error Code
ĠR C
Ġk illed
ag ue
vert ise
ĠJ S
cli m
NT U
Ġreq s
Ġconstruct ing
Ġactiv ations
actor s
Ġart icles
integr al
interpol ated
ĠMI B
DEN TI
Ġcas cade
Hy per
Ġliter als
C lasses
U V
k ube
n id
n ical
Ġ ĊĠĠĠĠĠĠĠĠĊĠĠĠĠĠĠĠ
en rich
Ġa pt
Ġi prot
ce f
""" .
Ġm ind
Ġst ale
is Valid
up sert
int r
ĠP otential
Ġv owel
Ġmax im
iter rows
Ġsp rint
Ġver ifier
link age
Res olve
ud ge
ran ks
net s
Ġentry point
Ġcomple tes
Ġvari ability
ker n
Ġredirect ed
UB LE
Ġspa w
Ġfree ze
ĠDef in
Multi Index
Char acter
balance d
Ġsens itivity
bol ite
Ġintro duced
( ...
D ensity
W ill
` \
m usic
p al
} &
č ĊĠĠĠĠĠĠĠĠĠĠĠĠĠĠ
Ġ ]:
Ġs lashes
Ġb t
Ġreturn code
Ġst ype
Ġst retch
Ġex ts
ta obao
ĠA rea
mo s
Ġ\ *
gra ded
Ġdate util
Ġtra cing
Ġq t
ĠType s
struct s
sort ing
ear ly
stack ed
ĠUn expected
norm s
Ġredirect s
hand shake
Ġdeal ing
Ġregard ing
rh ol
Ġcel ery
anu ary
L ab
U LE
d rift
e uclidean
n cols
o centric
y in
y ang
Ċ ĊĠĠĠĠĠĠĠĠĠĠĠĠ
Ġt ic
(' &
Ġra dio
om er
ĠG PG
os h
Ġapp arent
St ar
ast ro
mt x
Ġgen o
pol ynomial
Ġcli pping
Comp at
Event Type
AS N
AP PS
tw is
Ġprec ise
aggreg ations
Ġbuilt ins
Be arer
Ġsoft max
lick r
ĠâĢ ĺ
Ġfq dn
inherit ance
Ġutter ance
A VE
Q T
] [:-
d cm
u ate
à ¯
Ġa es
de letion
it a
Ġb undles
ss p
Ġcon c
Ġg allery
ĠA m
file size
ĠC N
ci m
Ġv y
fo ur
Ġ`` -
Ġcol lapsed
Ġun compressed
Ġ3 7
Ġmax imal
func name
ĠCon tract
Ġ"" ""
ass ume
ĠTO P
ĠLo oseVersion
card inality
cons istency
sd l
Ġ"{} ".
Ġstri ke
40 96
Ġden ote
ĠField s
ĠLe g
Ġcontract s
ALI ZE
fwd l
Expect ing
S aving
k d
Ġ ĊĠĠĠĠĊĠĠĠ
Ġa utom
Ġc one
pe l
Ġw sgi
is lice
ĠT rain
el en
ĠA ggreg
to bj
Ġde sk
ĠC MD
Ġpar ticipants
ub las
Ġat ten
der ive
ca ch
cur dir
Ġtr un
gr pc
Ġunique ly
Log ical
Comp iler
ĠIP s
Ġspace d
ĠIN DEX
Ġrank ed
Ġcompar ator
proto buf
ĠUnicode EncodeError
INST ANCE
ufacture r
A ge
I V
_ ),
p ls
s ip
Â ł
ur k
um bs
get Id
Ġse gs
Ġh ierarchical
Ġbe acon
to ks
__ ``
sub classes
np z
dis c
Ġpri mer
ell ar
ear th
Ġsuccess ive
Parser Mediator
Reg isters
ĠPO SI
Sp atial
ĠNormal ly
contrib ution
ä½ į
CHAR S
ĠTw itter
Ġdistingu ish
PARAME TER
INI TI
P NG
d z
x ffffffff
y data
Ġre factor
Ġre strictions
Ġp type
li k
Ġde leg
set Attribute
ĠC IDR
pre fs
ĠN A
ĠM achine
Ġro i
ĠV o
ĠO f
tra versal
sh tein
Ġiter ates
Ġ5 000
(* (
Lo c
cat alogs
FF T
Ġ'\ '
Ġip address
ater ial
upper case
rece ipt
ĠOpen SSL
Ġrect angular
SIG TERM
Ġclip board
backup s
ä½ ľ
iline ar
Site Rec
å¼ Ģ
Ġske leton
ales ce
Ġmention ed
erc ise
ĠSoft Layer
: {}'.
F ALSE
F luent
I LI
M icrosoft
V i
] },
o ken
t weets
å Ŀ
se lections
re ver
Ġa u
ad joint
Ġan ti
)) ).
ĠI ND
ĠC hain
ĠRe pe
Ġen closed
sc m
ĠR ename
ĠO PEN
mat gen
Ġj j
trans ient
Ġdf datetime
CO MPLE
No ise
ven shtein
zip file
sv n
Ġdisplay ing
"]) .
insert ed
Ġretry able
Ġkernel s
Function s
Uni mplemented
trunc ated
DIS ABLE
ĠMult ip
P anel
S ur
] ?
å ĵ
de ck
Ġc rypt
Ġre gs
Ġn dims
an other
Ġs ch
Ġcon venient
Ġl an
ĠF ort
cl in
ĠU cs
Ġbo oleans
** ,
sub system
io di
Get Row
Ġallow able
Ġim gs
Ġdist utils
EX IT
Ġimp ossible
([' --
(', ')]
STR U
TA IL
ĠColumn s
ĠPa rent
Ġstddev s
ĠPr inter
INST ALLED
supp lied
Ġwit ness
E scape
H P
K D
S SES
p ragma
in ferred
Ġn th
Ġn od
Ġin dep
Ġs nake
Ġb az
Ġg df
ig ar
ĠI MC
ers ions
ic er
py tz
op c
ph ens
Ġsub path
Ġexist ed
pr intable
ap du
Ġjson schema
sign er
Ġchar m
ĠAPI s
Ġ8 601
Ġ"% .
Ġcallable s
commit ted
ava il
Up grade
Be fore
ĠSN Ps
Vis ual
Ġdevelo per
ĠManage d
Activ ation
Am erica
L ower
P LAY
d B
v type
se ud
at ility
Ġp q
Ġif ield
Ġse m
Ġh orizon
Ġu fo
per to
Ġhe llo
ĠO pt
ĠW iki
Ġsub module
Ġsub folder
ak ed
Ġtrans mit
Ġta per
... '.
Ġ'/ ',
QU AL
CK ER
Ġeven ly
Ġgeo json
Ġvisual izer
stre et
ĠSum mary
ĠCor pNum
Spect rum
descend ants
xFFFF FFFF
! '.
C li
J ava
O k
l lier
w al
} ``
Ã µ
an alog
Ġcon currency
(' )
sp ider
Ġme d
Ġal though
ĠF older
ĠF AIL
ĠRe gex
tri angles
Ġlog gers
add Child
sc lient
ĠEx cel
Ġsh aring
10 5
Res Rec
Ġhost group
xml ns
UN ITS
33 3
Per missions
Ġpercent iles
Ġactiv ities
Sign ed
Range s
Ne ighb
conver ged
altern atives
çĲ Ĩ
: [
E B
E ither
S y
b iter
f info
k df
p ane
v n
x range
å ĳ
Ġn io
Ġg ss
file Path
ĠS S
ĠS lice
ĠS pan
Ġpar ms
format ting
Ġpre fetch
ans ible
ĠU npack
Con tract
not ice
Ġser v
stri ke
ĠCon cat
Ġ. /
Ġdiff usion
Ġpi ka
Ġpi cture
Ġ8 5
effici ency
sig clip
Ġå ¦Ĥæŀľ
Ġretrie ves
Ġnx t
meas ures
TRAN S
ĠHy per
Ġprox ied
¡ç ¥¨
F s
R ich
S AT
g auge
r us
r ator
at tack
Ġt ells
he ta
Ġp du
() +
am ber
Ġco vers
sp l
Ġdi e
ĠC L
Ġra re
00 3
pa int
ĠW ITH
Ġser ving
og gle
Ġvalid ates
ab ridge
Ġcommand line
lib input
sent inel
Ġarg parser
Ġvar args
Ġmodi fies
Reg istration
]+ )\
draw s
Ġinv ite
ĠDis crete
Ġmut ate
multip licity
chr one
ĠVM ware
Ġtax onomy
ĠEX IST
F ONT
G W
b kg
h la
Ġc ds
Ġb ios
ad am
'] >
con da
Ġ+ -+-+-+-+-+-+-+-+-+-+-+-+-+-+-+-+
Ġde posit
ĠP lan
Ġx ref
Ġ< !
ĠL azy
Ġcheck points
'], \
AN ALYSIS
Ġta ils
Ġhelp me
DI TION
Per forms
vers ity
ĠTrans late
Ġanaly tes
Ġir radiance
conflict s
Private Key
anim ation
åıĳ éĢģ
atex it
Ġnucleot ide
PROPER TY
ORIG IN
> _
P V
f ut
g ri
h yperedge
è ¾
pe ff
Ġ( =
ex posures
Ġg lobs
ĠI mplementation
str al
alt itude
DE SC
plot ter
Ġ5 2
iss calar
hash able
bit rary
ire ction
Ġbuffer ing
tool tip
Ġ<< <
Ġvide os
war p
Ġ204 8
subscri ber
; <
B est
P lain
S peed
h ive
i pp
j am
t qdm
è ĥ½
in n
Ġf k
Ġl ane
et ter
Re ci
ĠS imp
ub untu
ĠF latten
ĠM aster
valid ity
ĠL ED
Ġcomp licated
([ _
si a
Ġext reme
train able
Model s
Ġpop ulations
:% (
Ġreci procal
kit Error
mis p
flu ent
ĠBu ffer
å½ ĵ
ĠMat plotlib
MAG IC
ĠLIM IT
âľ ĵ
0 25
E PS
G aussian
K NOWN
P AN
T REE
a jax
g un
l g
m data
n args
| ,
Ġn max
Ġs sb
Ġ( '.
() ["
Ġh id
Ġg aia
ĠS pect
ĠS anity
ĠC HE
ĠP auli
col name
ne o
Ġ3 8
Ġsign s
child Nodes
ĠPro blem
ĠSt ats
Ġmon o
Read Only
cip ant
dl c
separ ation
Red uce
Ġrc Params
Ġpan els
ĠParameter Error
Ġcompound s
enc il
Ġinterest ing
buff ered
ALI AS
LAB LE
substit utions
who le
Ip Address
fed eration
IDENTI FIER
Ġexha usted
iddle ware
8 859
B RO
D RI
T MP
b lobs
g uild
Ġe i
ri ed
ĠT raining
as dict
key space
pro posal
ind ers
Ġpo ols
ip pets
ĠR s
Ġle f
Ġcomp ilation
ĠH DU
LE ASE
Pro t
TI T
vis itor
Ġtemp dir
LI T
ĠData frame
Ġdb name
16 6
comple tions
Ġlib virt
20 4
ET A
Ġcoun tries
Ġdat atypes
We ek
rr p
ĊĠĠ ĊĠ
vocab ulary
cancel led
RDF Datetime
simp lify
Ġmole cular
oint ment
. ::
D ays
I ss
S ince
â Ī
ë ²Īíĺ¸
ĠĠĠĠ ĊĠĠĠĠĠĠĠ
re search
ar range
Ġn ib
Ġs as
Ġb z
Ġcon firmed
Ġh alt
key name
ĠI V
out ube
pro du
ĠR ound
Ġcont rollers
Ġj itter
sh aring
ll ation
ĠEx tended
Ġbu ses
Ġread DataInstance
Ġover head
round s
ĠDe pth
Ġop name
=( ',',
Ġmeta class
ĠDis patch
36 5
Ġwatch er
Ġear liest
çĶ Ł
Ġ40 96
ĠVariable s
SPE CI
turb ation
E OF
F ront
S cores
T un
d uplicated
å ¦Ĥ
Ġ Ñģ
de viation
Ġp layers
Ġn lp
Ġn bins
Ġd g
ad b
to ms
ĠI MP
Ġx c
ĠG L
lin enum
we ixin
Key Id
function al
Ġdist ro
19 70
tensor flow
Ġsimple x
Ġbind s
sage maker
AND ARD
Ġabort ed
Pix el
Sto pping
distrib uted
ĠSO AP
Syn apses
!=' ':
- $(
S ig
T B
n axis
s lit
æ İ
Ġ river
Ġi oc
Ġf riction
it ched
Ġn ans
an or
Ġe ligible
un install
ul as
Ġex if
Ġex pert
Ġ+ ------------
Ġco upling
file info
return ing
Ġle aving
Ġcall ers
Ġtra vel
Par agraph
AC C
Ġform er
ĠData Calculating
connect ing
Fa ce
speci fy
chunk ed
vers arial
Ġutil ities
enum eration
READ ME
sol r
dynam ics
Produce Event
ĠAda pt
BUT TON
K W
S ym
` ;
s izer
re presen
er ator
ro oms
ra us
co ok
ri s
---- ---
Ġg db
vi es
Ġpro filing
Ġal phanumeric
Ġar cs
Ġj vm
split ted
Ġdis plays
Ġ4 10
Ġblock stack
ĠAn gle
qual ifiers
Ġgen otypes
serial izers
PO INTS
DI SP
IT ER
ctx t
CONFIG URATION
Ġmis c
PL U
Ġok ay
ĠAb ort
hd rs
ĠRel ation
Sha red
SIGN ATURE
Ġestab lish
) =
; ')
D ot
S ampRec
h dfs
w alker
in dep
he els
Ġin asafe
Ġe ight
Ġex ports
to ps
ĠS ym
Ġpro filer
ĠRe al
ĠB O
Ġsub reddit
Ġ\ "%
max iter
ds n
new s
cor por
ĠNote book
Form ats
Ġsl c
Bo ok
fasta file
scalar s
ĠST ART
Ġselector s
Match er
hour ly
âĢ Ŀ
Ut ility
Ġconflict ing
Ġ({}) ".
Ġ'@ '
Ġconj unction
ĠPA SS
PUB LIC
ĠdbsException Handler
C ycle
G PU
a cs
b right
p name
z es
å ĴĮ
ç «
or ry
Ġc lobber
Ġp ane
Ġe pilog
Ġfor bidden
'] ()
ĠC ross
]) **
Ġlog o
ĠB ayesian
ĠH IT
comp artment
stri des
pect ive
be havior
Ġpy ramid
Ġ... ")
Ġback ing
pk cs
ĊĠĠĠĠĠĠĠĠĠĠĠĠĠĠĠĠĠĠĠĠĠĠĠĠĠĠĠĠĠĠĠĠĠĠĠĠĠĠĠĠĠĠĠĠĠĠĠĠĠĠĠĠĠĠĠĠ ĠĠĠĠĠĠĠĠĠĠĠĠ
ĠLOG INFO
Ġcent roids
Device Get
Ġden oting
sy mpy
ĠAuth entic
('" ')
Ġartist s
DateTime Values
3333 3333
Ġhdu list
ĠSto res
ĠBEL Graph
sibl ings
Ign ore
Ġpropag ation
PACK AGE
F ocus
b ls
b rand
f re
s outh
t ilde
v ap
ç İ
Ġt end
Ġi ma
Ġc cd
Ġs ls
Ġe e
Ġb kg
Ġb orders
mp i
Ġst ash
Ġst aff
is link
th ird
'] *
end a
ĠC K
Ġname db
app lied
ĠRe verse
Ġmin s
ID X
ĠCon f
cy l
graph ics
Ġtw itter
CO OK
ĊĠĠĠĠĠĠĠĠĠĠĠĠĠĠĠĠĠĠĠĠ ĊĠĠĠĠĠĠĠĠĠĠĠĠĠĠĠĠĠĠĠ
bit mq
Ġdifferent ial
Ġow ns
ĠCh unk
Valid ated
Status Code
ĠElement s
ĠDef erred
Ġspecimen s
Pix map
Ġcyl indrical
) [::-
: *
N B
d rain
å §
he mat
Ġre cs
Ġn side
Ġn grams
Ġe ager
Ġe specially
Ġd na
ot t
Ġ# ###
ĠF ixed
kw d
]) +
=' ?',
Ġk afka
ĠW ORD
place d
debug ger
ost er
si ms
ĠException s
rt l
Ġref res
mod path
Sub mit
Ġpassword s
Ġunit ary
sq s
Ġhist orical
Ġfill s
sim ulate
Ġâ Ī
decor ated
ĠRed irect
ĠAct ivity
SN R
éĢ ļ
------+ ------+
Security Group
åŃĹç¬¦ ä¸²
onet ary
ĠANTs Image
Ġmaked irs
F raction
n avigation
p ypet
u ity
ch irp
[' <
Ġbe aring
qu arter
ĠC RL
Ġar range
ĠRe po
ĠD AT
") ;
Ġpa ste
ĠV AR
ĠG T
ag en
Ġbu gs
Ġclass ified
Ġver ts
AN NOT
Ġref ine
Ġph y
ident ify
Ġlib crypto
Ġretri eval
dat adir
defin es
As sert
ĠPre vent
anis ation
PRE SS
\' ',
Ġrecent ly
appro val
ĠAct ive
ĠDocument ation
ĠRef resh
ĠSeq IO
heat map
ĠCLA SS
M er
R adius
f ps
n am
Ġ ĊĠĠĠĠĠĠĠĠĠĠĠĠĠĠĠĠĠĠĠĠĠĠĠĠĠĠĠ
Ġh ole
') ;
Ġy p
ĠR en
Ġli e
AT T
Ġbu y
rig id
Ġwork unit
ĠSe arches
Ġpri mitives
iss pace
Comp are
ĠQt Widgets
ĠInitial izes
IF T
Ġgood logging
lc format
Pi pe
åº ¦
ĠAli as
MAN AGER
å¾ Ħ
Ġru pture
ALLOW ED
fortun ately
H ex
H tml
_ ='
æ ĥ
on sets
Ġt n
Ġt ill
de b
Ġn id
Ġn col
Ġin ternet
Ġo file
Ġe lection
Ġm us
la w
Ġan omaly
ri ane
Ġ" '"
Ġcon strained
Ġl inal
ser vo
ĠA DD
Re verse
Ġfile size
ĠD ay
ĠN TU
Ġ/ >
own ed
Ġinter rupted
ref erred
Ġsource code
']) ):
10 6
ĠUn its
No Such
ĠRun ning
gress ive
gre p
thread ing
ĠSome times
ĠTimeout Error
Ġadv an
tens ity
Ġmes hes
Ġheur istic
æ¬ ¡
GetRow Value
D aemon
P erson
g igabitethernet
m jd
Ð ´
Ġt one
Ġf am
"" )
---- +
Ġg am
ime zone
Ġco uple
Ġde creasing
Ġlo cs
Ġel l
ĠS AM
ĠF etches
ic a
ĠW alk
Ġconfig urable
Ġstart time
Ġac id
parse String
Ġ{' _
Ġcolor ing
Ġclo ses
inst ant
Ġpost fix
Ġker n
ĠĠĠĠĠĠĠĠĠĠĠĠĠĠĠĠĠĠĠĠĠĠĠĠĠĠĠĠĠĠĠĠ ĠĠĠĠĠĠĠĠĠĠĠĠĠĠĠĠĠĠĠĠĠĠĠĠĠĠĠĠĠĠĠĠ
Trans late
Do cker
aggreg ated
course id
è¯ ģ
+' /
Api Id
pag ation
Ġremain s
SING LE
Ġ+-+-+-+-+-+-+-+-+-+-+-+-+-+-+-+-+ -+-+-+-+-+-+-+-+-+-+-+-+-+-+-+-+
c j
r va
Ġt angent
Ġin fluence
is ns
'] [-
ĠS ch
ĠC ent
Ġal loc
iv ar
Ġ6 5
Ġcat alogs
utc fromtimestamp
Ġ"' %
contin uation
With EventData
Ġrout ines
ĠSup ports
stand ardi
VM ware
ĠSN R
ĠPi pe
ĠJava Script
Inst alled
æ¡ £
A IN
Q TextCursor
W ARN
è ĩ
Ġt ilt
Ġn g
Ġst ory
Ġh ang
Ġbe have
Ġr w
Ġpro jections
ĠP s
ĠRe st
tra vis
=" .
ĠIn ternational
with draw
led Error
dis position
sign ificant
ĠReturn ed
UN C
Ġmon key
rest ype
peri ence
ĠZ IP
Ġauto correlation
cla uses
Ġpipe s
wave form
ssib ilities
Ġsatis fies
Comple ted
ĠLa unch
Ġattrib s
ĠON LY
ĠLabel s
Ġhyd ro
Ġrem otes
ĠGalact ocentric
ProduceEvent WithEventData
PLU GIN
F etches
P layer
S caling
T rip
n bytes
le a
Ġp ic
it ative
Ġ' '):
def init
ex if
Ġg tk
Ġu d
ĠC atalog
Ġfile handle
Ġdef s
pre fetch
Ġsu cc
Ġsp am
trans mit
find text
Ġzip ped
Ġus b
*( -
IL Y
kind s
sens itivity
nu c
cipher text
Ġsci kit
Ġaccum ulator
shif ted
Ġposix path
perto ire
Ġlinal g
( :
2 11
8 02
C at
T Z
a ud
d ens
w r
y o
re striction
or acle
Ġn arrow
Ġb log
ch own
ĠT ran
Ġse rie
che str
Ġun matched
Ġpy bel
Ġ4 4
:// ',
change log
print Ln
FI ED
CE L
keep alive
Ġassoci ations
Ġauthor ize
Ġcomb ining
Desc ribe
mid t
('. /
extract all
ĠObject s
ĠSh ift
ĠSub classes
ĠInstance s
udi es
Predi ction
ĠSha red
MEDI A
HIG H
ĠCUR RENT
Ġach ie
Ġdesk top
P c
_ `
e ol
h ter
p q
s anit
Ñ Į
re cogn
st uff
Ġre order
Ġp ed
Ġp ex
Ġe id
Ġm data
Ġm df
Ġ: ].
ol t
Ġh dfs
ci de
ff f
Ġch ron
min imal
Id List
Pro cesses
Ġad joint
copy right
Ġman ner
mag series
Ġinitial izing
TR ACT
PRO XY
loss ary
tw isted
imp ro
Ġinv olved
Ġæ ĺ
ĠBack end
ĠSQL ite
Ġred shift
ĠXXX X
Ġ---------------------------------------- ----------------------------
Global File
Ġgreen let
ĠMon itor
Ġconcaten ation
ĠEngine ering
ĠCoordin ates
Dst n
+ (\
E F
G REEN
L AT
b undles
e i
Ġm usic
Ġ( _,
Ġse lections
ma intenance
)) }
Re pe
(" @
Ġar n
Ġv ms
pro ducer
Ġch root
ip ap
Ġpa ging
Ġpre serving
ĠW orld
ĠEx ternal
Ġno isy
sub st
Ġread me
block ed
var args
msg id
File System
Set Input
current ly
ĠPy PI
=[ ])
termin ated
Ġthrough put
ĠIN ST
mut ually
Ġown ership
ja co
super user
ĠÐ ¿
REF ERENCE
associ ate
associ ated
Ġva ex
Ġapproximate ly
Analy ses
Break point
: >
F oo
M ID
P hi
j et
Ġre draw
ro red
Ġe vals
Ġ' }'
Ġd rift
is m
---- --
Ġdi ction
Ġy r
ĠD river
ĠM a
ĠW raps
ste in
max len
sub parser
ak a
']) ]
no op
Ġiter ated
Ġarg in
open flow
extra ction
En cryption
Ġcha ssis
Ġpop up
ĠUser Warning
Ġcy thon
gt Key
Call ing
Ġdriver s
Ġmime types
æľ į
super class
Ġlc format
ĠFa ctory
Ġuncer tainties
tan h
SCA PE
Ren derer
H C
M ol
M akes
S RC
T or
T wo
a ily
d K
g ist
g pio
k no
p int
s ched
s ynchron
s aving
x or
© º
re build
Ġt max
Ġt ango
Ġf ptr
li ze
Ġ# %
el m
ĠA vailability
to ml
set Results
ren v
pre cip
bo keh
ĠO ct
use ful
)] ),
ome ter
exist ent
LI CATION
pk i
ĠSt atic
Ġaccess ion
Ġmod ulus
Ġsur faces
ĠTe ch
stit ute
geo json
Variable s
ffe rence
ATTRIBU TES
Ġom im
Ġadministr ator
HEL P
) [:-
D r
M ig
O AUTH
W BEM
c rl
d end
s mi
s ids
v ary
Ġt ro
Ġf wd
Ġs ids
', \
[' @
Ġex pl
Ġco vari
path way
ĠS ky
ĠC atch
Ġra mp
Ġra pid
Ġdef ect
Ġch errypy
`` ."""
Ġdo min
IN F
Ġca using
Ġsh orthand
pass ive
RO UND
Qu ant
gre y
ĠPer cent
Count ry
ĠHe aders
ACK ET
prob es
syn the
IST ER
åĲ Ī
mis match
å¤ ļ
Ġpul led
writel ines
PyCdlib InternalError
SCO PE
semant ic
isat ty
] ()
c data
c able
f con
m z
m andatory
r partition
s atellite
Ġ Ċĉ
at im
al ter
ra dec
() ._
ol ate
(' </
Ġu ptime
to bytes
Ġ_ `
Ġr data
ĠC rypto
Ġv iz
ĠE nergy
Ġx b
mo ji
port ions
ĠL eft
Ġk ick
ĠB undle
Ġle ar
ĠIn ference
01 234
ab ilities
si gs
no va
pl ug
pl ates
open quake
Comp ile
AG ENT
tor nado
Ġmicro second
Comple tion
nom inal
Ġsuggest ions
ĠMem ber
Ġwavelength s
Sim ilar
ĠMAV Link
ĠCond ition
wavelength s
Ġindivid ually
setResults Name
> ':
G reen
L ON
V ars
[ ^\
f v
v agrant
ar ison
al erts
ra ms
ser ves
), (
Ġpo isson
In d
Pro bab
ast imezone
Ġsort s
Ġaccess or
Gener al
FO LD
fact s
redu ction
Ġintegr ity
Ġæ ķ
Work s
Ver b
Com bo
ANCE L
Ġemp irical
SPE C
individual s
CLO SE
Help Formatter
Serialize ToString
Ġgd al
Division Error
P at
S olver
c ite
i ak
n exus
p fp
Ã ¼
Ġa ce
Ġre index
(' //
sp read
ort ion
ĠC y
ff mpeg
ĠN EW
Ġpo se
ip yn
ĠG reen
lement ary
Ġcomp liant
ĠH MAC
comp utation
ĠPar sed
01 6
Ġopen s
Ġ5 8
net mask
go als
ced ent
24 0
Ġmerge s
Field Name
Ġequal ly
Ġmonth ly
Ġpipe lines
Ġtor rent
ĠOver write
average s
lv in
Ðµ Ð½
utter ance
ĠLat itude
Ġsca ffold
čĊĠĠĠĠĠĠĠĠĠĠĠĠĠĠĠĠ čĊĠĠĠĠĠĠĠĠĠĠĠĠĠĠĠ
IMP ORT
Ġjav abridge
* ')
+ ")
> {}</
A W
M U
N v
h oriz
u pt
w ik
¨ ¡
Ġ ĊĠĠĠĠĠĠĠĠĠĠĠĠĠĠĠĠĠĠĠĠĠĠĠĠ
in j
Ġt g
me ch
Ġb an
ex ports
Ġde m
(" :
ist ing
ĠR ab
ĠR idge
In dicator
ĠB ED
ĠH ence
user info
inter rupt
face book
task id
mag enta
DI s
gy ro
cc d
Ġcha ospy
ru it
Ġcir cum
sto od
sy mm
simple filter
Location s
Ġinterpret ation
Datetime Index
ĠManage ment
hib it
Ġipy client
nes ses
" />
, :,
D ING
L icense
P rom
ç Ļ
en force
Ġi j
Ġf an
Ġs cheduling
Ġm h
Ġm z
up loaded
'] ='
Ġh am
ĠA nother
Ġkey name
ff s
all er
`` ),
Ġen caps
-------- --+
row n
Ġtext ual
igh th
Ġpy amg
SE ND
Un authorized
ĠK MIP
Index es
SC AN
VER BOSE
Ġ'{} _
vers ations
ĠRE F
ĠUser ID
Ġcut s
Job Fn
sy ms
ĠPY THON
ĠAttemp ts
Ġreplic ate
invert ed
Estim ator
Optim izer
Ġelectro de
A Z
V C
a utomatic
b h
m illis
n ml
p il
s low
v k
æ ®
ç ī
Ġt alk
Ġp ids
Ġd dof
ra ce
get s
', )
sp lunk
mo bile
IN S
we eps
ĠAr c
ĠCon tact
DE TAIL
SE P
Ġsc enarios
bar code
Ġsk i
Not Supported
ĠLO AD
cut out
TH READ
Ġndarray s
Ġjoin ing
Ġps ycopg
Ġbus iness
Ġbackup s
Ġincrement al
illa renv
Ġ'; '
Ġscra per
ELE MENT
Ġpract ice
M IC
M alformed
T ick
f an
h or
i mm
w m
¨ ĭ
Ã Ń
Ġ ]))
Ġt ips
Ġre ferencing
la bs
Ġ" ?
ĠF O
ĠRe ci
ĠD b
=' _
Ġhe art
Ġk g
Ġdis placement
Ġav oids
Ġlocal ized
mon o
Ġcomm unicate
20 8
au c
Ġvis cosity
ANG O
ĠNo Such
Ġregex es
Ġscheme s
Ġden otes
Ġmultip licity
ĠQuery Set
corr scan
perform ance
Ġuniform ly
REG ION
ĠModi fied
district s
Percent age
ĠContin ue
, ...
A cc
P mag
T ran
W F
a py
n pix
x sd
ur t
an tom
Ġs lim
Ġg ri
ĠS napshot
pro duced
ĠD id
Ġlog l
ĠN N
ĠN a
col lation
Ġpa used
fe rent
ĠIn line
`. "
Ġwhere as
mon otonic
Ġjust ify
au di
.* ?
For bidden
MI SSING
Ġplay ing
STATE S
Ġemp loy
ĠPos itive
reject ed
postgres ql
############ ###
Ġessential ly
æ± Ĥ
B rowser
B alancer
D irs
S lot
V e
r ds
s nake
in force
Ġre voke
Ġw ild
el lipse
ment ions
Ġdi fficult
ĠS amples
ĠS pin
ill ary
ho re
ĠM u
ĠR S
ĠR MS
ĠG E
ag reement
lin ter
AT AL
Ġca ps
ref ine
Ġmult id
ĠK L
ob serve
bl ur
Ġaccept ing
writ able
ĠHe alth
Call Error
Ġderiv ation
å® ¹
Vis itor
Ġrepeated ly
%%%% %%%%
Mis match
ĠSTR ING
ĠXY Z
Ġsil ence
quilibri um
ipyn b
F lush
R ename
b isect
c sc
c ensus
r nd
v host
á µ
Ġ č
in ternet
Ġc tr
Ġb urst
Ġw arm
id om
co pied
Ġl un
Ġlog store
ste st
Ġmax size
Ġvalid ating
Ġ[' .
change set
Ġob vious
ĠJSON Client
Ġbyte order
Ġ{" $
Comp osite
Exec utes
Code s
oto pes
Ġsat osa
ni que
RPC Error
Mag ic
ĠConst ants
Corre ct
ĠJSONClient Validated
3 11
E mit
G OR
O DS
f olds
p Lvl
Ġ Ï
st et
al a
Ġc lf
Ġc ats
Ġn tp
Ġto wer
Ġex clusion
Ġu dp
Ġ0 1
Ġma j
ĠD ot
Ġat ype
mo c
ĠR NA
ĠG D
node list
Ġ4 7
ĠCon version
use c
Ġcorre ctions
Ġq name
Un defined
mon str
ĠPro to
Ġtotal s
The ta
ĠLO CAL
ĠRuntime Warning
App lies
Table s
Ġdesc r
22 22
ĠHe ight
car rier
Ġpointer s
detect ed
ĠSup press
Ġaff inity
Modi fier
ĠRo ck
denom inator
contiguous array
capt cha
æĥ ħ
E qu
F lat
L ar
e be
r ance
y ak
Ļ ¨
Ġre create
mp state
ĠA sk
iz ar
ci f
red raw
ĠL P
ĠG R
sub title
Ġparam iko
sing leton
AN DS
ĠSe lection
ĠPro cesses
Ġlook back
UN IX
steps ize
ĠError s
Ġeigen value
ĠPri mary
Ġcolour s
ĠLong itude
ĠOk ay
æīĢ æľī
' _
* ((
C ha
a cons
b rowse
t u
in stead
Ġt v
or ters
de clarations
it u
Ġin serting
Ġe opatch
Ġb la
Ġd max
Ġst y
Ġst ress
ch rome
Ġ" </
ver ses
Ġcon sent
Ġl sm
sp ended
Ġde cryption
te ardown
ĠC SR
ub it
bo unded
:` \\
ĠH ook
Ġread ers
ĠCon straints
auth n
De precated
ĠFor ward
Ġdb Conn
Ġdepend ents
Object Type
LA S
optional ly
Ġ(" %
mount point
Ġclean ing
AP ID
Ġkw d
Ġweb hooks
Ġnorm s
Ġincre ased
(', '):
equal ity
Ġmis sed
yy yy
multiple x
Extension s
Ġoutcome s
ĠIndi ces
aro on
doct est
ĠIND RA
A MPLE
R b
R etrie
W allet
b ids
k ick
k nn
Ġp imms
ur andom
Ġn exus
Ġ' !
Ġd cm
Ġm q
un parse
is hed
get Name
'] [:,
Ġh or
Ġor acle
Ġ* \
qu at
Ġr n
ĠRe ason
Ġwe st
ĠR V
ĠG ateway
Ġk k
Ġsub str
cs m
by e
Ġ5 5
ĊĠĠĠĠĠĠĠĠĠĠĠĠĠĠĠĠĠĠĠĠĠĠĠĠĠĠĠĠĠĠĠĠĠĠĠĠĠĠĠĠĠĠĠĠĠĠĠĠĠĠĠĠĠĠĠĠ ĠĠĠĠĠĠĠĠĠĠĠĠĠ
Array s
Ġunder stood
Ġseries List
cb i
Ġweb browser
hy pot
estim ation
Ġmx net
SD L
simple x
âĶĢâĶĢ âĶĢ
ĠEvent s
ĠNetwork X
Ġrestart ed
WHITE SPACE
Ġsurvi val
/ ~
Q P
W a
ç ¼
re voke
en gines
Ġ' "%
ex er
up o
ith metic
Ġr na
ĠC trl
ĠF S
ĠF IL
ĠF oo
Ġv b
Ġ) [
Ġk pc
Ġqu iz
Ġhost port
ĠY ubi
Ġed ition
Ġenum er
DI FF
Ġvector ized
Ġ'- '.
Ġconnect s
Ġserial izers
Ġour selves
ĠNo Access
Pre vious
sim ulated
rep lies
Ġmove ment
Ġpredict ive
Ġconstruct s
sy llab
MI SSION
è¿ Ļ
expect ations
ĠEng lish
Gra dient
Ġtm ux
RGB A
exponent ial
Ġdynam ics
Ġopp osed
> âľĵ
A ff
E val
\ `
d itional
n h
n aming
x so
y lab
z yg
å Ļ¨
Ġ' }
Ġb ail
id f
Ġse ct
Ġth r
ve hicle
Ġen g
log z
ĠO ld
ĠG ithub
ĠH H
ĠH DX
Ġ3 65
Ġapp ends
RE DIRECT
Ġdis cret
flow Error
ĠDe serialize
Ġlink ing
Ġcustom ized
Ġ[[ [
Ġtool tip
ĠInitial ise
MI ME
repe ated
tran spa
Ġsubscri bed
Ġdas hes
ĠCHE CK
G V
I AM
N ative
S olution
_ .__
h umidity
m illiseconds
p list
s ynchronous
Ġi a
Ġs ongs
th ickness
as contiguousarray
list ed
to oth
Ġ- .
Ġdata file
(" ^
ĠF ace
Ġv v
Ġv en
pro grams
ĠN ONE
col names
ĠM W
ĠM ambu
"] (
lic enses
Ċĉĉ ĠĠĠĠĠĠĠĠĠĠĠĠĠĠĠĠĠĠĠĠĠĠĠĠĠĠĠĠĠĠĠĠ
Ġpy emu
ĠJ acobian
32 5
``. *
diff use
ĠDi ff
Ġclick ed
imp orter
Ġå °
"> %
analy zer
BR ARY
Ġadapt ed
Ġsit uations
Ġprivile ge
-~-~ -~-~
Ġug ly
ä¾ ĭ
Ġcoer ced
Ġssb io
) %
A E
C amera
Z ERO
e lection
j b
n ational
s al
x pos
in veta
Ġc ash
Ġre raise
Ġs parsity
un ame
co ffset
co conut
ĠT S
Ġ` --
ĠS hell
ĠP atch
art z
dict item
Ġk o
Ġsub sequence
Ġ\ `
ĠEx clude
ec dsa
pos als
Ġz i
ĠAr chive
Ġformat ters
SI C
Add resses
Ġsa ver
Ġnet s
Ġconver ters
plan ar
ĠGit lab
Raw Response
Ġack nowledge
Ġfre quent
Des ign
ĠSk ipping
ĠDefin ition
DateTimeValues Event
>âľĵ </
( {}
+ )',
6 74
H SM
a bu
z max
re lay
st ale
Ġin spector
Ġin vestig
pt p
') ],
Ġpro teins
ĠF ont
pi lot
ĠM AT
ĠB its
ĠB ASE
ĠH ex
Ġover writes
pri mitives
ap lo
Ar ch
Ġdiff use
20 48
ĠDi fferent
Ġpe ptides
Text ure
Ġsur rounding
Ġpool ing
200 7
invalid ation
predi ctor
cn f
predict ive
Ġev olution
Meta Data
Ġplan es
âĢ ĵ
watch er
Import Error
ĠWeb Socket
Ġrx n
åĬ Ł
adi ct
Trace back
occur rences
('\\ ',
Ġshe ar
Ġpropag ated
Coordin ates
Ġincl ination
amazon aws
Ġzen ith
misp here
D ecor
H W
H DF
S w
c raft
c rash
t ld
w g
æ Ľ
Ġn k
Ġn pts
Ġs name
ĠT TL
'] ._
Ġco ok
ig mp
to uched
im ation
version ed
ĠL oc
os itions
ard ware
Con venience
Ġtra it
Pro vide
Ġ(' ',
Ar r
pol ling
DI C
Ġ7 2
Ġinvalid ation
Ġbit map
Image s
slice d
OP T
Ġscan ned
nb sp
(', ',
Su ffix
("- ",
PA Y
arc cos
ãĢ ģ
Ġ({}) '.
priv key
Ġsaf ety
æĮ ģ
ĠME SSAGE
ĠINS ERT
; ",
N IST
S i
h px
k le
s parql
y um
Ġa veraging
Ġf ps
Ġs andbox
Ġst m
ri cs
il bert
ĠT reat
Ġg one
Ġr q
ĠC G
ĠC re
ĠP CA
ms h
ic ing
text Cursor
jo bject
-------- -+
Ġun directed
Ġun successful
ĠG CS
Ġsub dirs
IN TEGER
sub mitted
Ex tended
params dict
move Position
inter act
LE CTION
Ġ5 1
iss parse
Ġshape ly
Ġtf p
uni verse
Ġgraph ics
\\ \
access ion
13 7
66 6
Ġscan ning
sur vey
ĠOpen ID
mar ily
Ġdry Run
Ġphone tic
Defin itions
meas ured
Ġsd k
ĠHE AL
SOCK ET
writel n
Ġdeli vered
Ġrepet itions
Ġeff ort
Ġfreed om
ĠFort ran
ĠEXIST S
3 75
C ENTER
n ullable
t one
t utorial
u um
x n
{ %
Ġn bytes
(' ---
Ġpro ducer
ow ski
Ġkey store
ĠD ATE
append Child
pa used
config file
fix es
si ded
SE Q
... ".
Ġsim ulations
rho g
Sp line
ĠST D
need le
Ġrev oked
subscri bers
ĠShort cut
CONTAIN ER
= ?
N x
Q C
e type
h ack
l ut
r ts
t max
{ /
in ge
Ġt rend
de tailed
Ġf leet
Ġc rl
Ġre construction
Ġp lo
Ġp lat
Ġp mid
Ġin ches
ue l
co vs
Ġ( #
ĠT E
Ġcon cepts
Ġl inter
Re store
vi ol
Ġdata points
Ġkey space
ĠE Q
Ġpo ps
__ _
ĠR UN
ĠG MT
ĠW allet
ST AR
block stack
Par ts
db us
Ġ... ],
gen s
Ġattr name
Ġvi p
ĠCreate d
ĠPro duce
FA M
total s
Ġinvalid ate
================ ========
align ments
ene as
)+ "
Task s
ĠOutput s
Ġes ri
CA ST
Pl us
ĠDO I
ĠPass ing
equ ation
TAG S
overall RC
Sm art
fron tier
PEND ING
ĠSTAT US
ìŀ Ĳ
J OIN
J PEG
W orld
p lease
Ġa le
he ssian
Ġp RF
Ġin fra
Ġd sn
Ġw ar
ri ers
get attribute
None Type
el li
Ġg m
ĠThe ta
Ġy axis
Ġ{} ):
ĠG ame
Ġid p
ag ency
Ġfield Name
ĠH MC
Data Source
sent ry
12 6
Ġbreak ing
Ġform set
bit map
0000 1
ob ile
inst antiate
Ġunicode data
dot s
Ġ"/ ".
ĠString s
IM UM
ĠPo isson
hy d
Ġdataframe s
flatten ed
ĠNe gative
decor ate
Ġlst m
mx net
mags arefluxes
Ġmi ssion
associ ations
magn etic
KMIP Version
; ',
A vg
D SP
J WT
S ql
U npack
k dims
u f
v ni
æ µ
ç ¤º
é Ŀ
in del
re tain
at ol
or ange
Ġa ffi
al Error
it lement
Ġin herits
Ġw ake
co ms
ol ded
ble s
Ġde tached
ĠC ourse
ĠP ur
red o
app name
ti po
** (-
ax vline
AN SI
Ġmsg id
ns igma
Ġag ree
Ġcopy right
ĠPro vider
11 5
FA ST
QU ENCE
ĠEn coding
Ġhy phens
hy po
Api Error
Ġpublish ing
game s
Ġamp li
Ġaffect s
Ġacc ident
abc def
Ġ---------------------------------------- --------------------------------
Authentication Error
ĠNeed s
iq r
('; ')
Ġsli der
orph ic
dop ing
" $
E m
R ATE
_ ",
a SAFE
r ls
y ms
de scri
ar a
Ġp st
Ġin cr
Ġd fa
def ect
is Enabled
'] /
ĠS F
ĠN P
Ġpa int
Ġpa ren
Ġdo copt
os i
Ġid f
join path
ST D
Ġup loads
find ing
Ġval u
25 4
Time d
Ġgraph ic
En semble
Ġlib vlc
Ġtmp file
Ġsuper cell
Ġrece ivers
({' _
13 5
sig moid
Ġneighb ours
Ġadjust ments
artist s
blacklist ed
Ġsubscri bers
æĶ ¶
QUE UE
ĠREAD ME
Ġí Į
Ġju icer
) //
C red
C USTOM
G RESS
S pecs
Y EAR
c z
c ors
Ñ ĩ
in gest
at an
or o
or ation
Ġin let
Ġe lev
Ġw b
Ġl u
pp able
Ġdata point
ĠS igma
data file
ĠC enter
Ġ== ===
ĠP SF
ĠF ake
py py
sc f
Ġhe ssian
ĠV ideo
log it
ĠO UT
fa vor
Ġuser names
Ġle s
iven ess
md s
ep ub
Res ize
PO L
Ġind x
posit ives
Ġ'{ '
String s
_{ \
high er
driver s
Function Type
Ġpipe tte
Ġmut ated
cod ename
Ġquant um
æĸĩ æ¡£
Ġneur ite
gw py
ske leton
å° ı
å¯¹ è±¡
Ġhypot hesis
Separ ator
Ġsimultaneous ly
irection al
B ed
B GP
C ls
C ampaign
N R
P rd
V PC
b read
Ġ ].
Ġi python
Ġre sets
Ġn iter
ĠT P
Ġl xc
ĠS U
ĠS un
ĠF lags
ci ble
ff olds
ip a
Ex act
ĠAr t
tp lot
block Signals
Ġ[' %
File Type
EN SE
Ġlimit ing
hash er
ĠPro duces
other wise
istr ations
CE F
TH RESH
ĠOr bit
Ġrot ations
HTTP Request
(', '.
('_ '):
bi ased
ital ic
Ġarc name
Test s
Ġrgb a
Dep loyment
ĠWith out
upy text
Some thing
ĠZero DivisionError
SCA LE
upd ater
ilo ver
Ġmen age
ĠSw agger
CRY PT
ĠQuant um
ĠTho se
Ġaudi ence
rient ation
Ġfinis hes
+ ':
1 16
: #
C RC
G ATE
O sid
T ier
s db
s ystems
Ġi opts
Ġf ly
Ġs atellites
Ġb ubble
id p
Ġcon ventions
con crete
Ġg z
Ġco inc
ĠA A
and b
ĠS i
ĠS urface
ĠN AT
Ġen queue
ĠM icrosoft
ĠL im
Ġ{} ),
ĠO B
sen ding
LE T
cy thon
copy tree
Ġvi rt
cer tificates
Ġerr back
Ġdisable s
('/ ')[
SP ACES
Inter active
Ġcor rupted
Le arning
umbna ils
ĠSome thing
Ph ysical
ĠVAL UE
PRI MARY
Termin al
åı¯ ä»¥
Ġsynthe tic
Ã§ Ã£o
Ġæķ °
E nergy
I llegal
K it
l un
ĊĠĠĠĠĠĠĠĠ ĊĠĠĠĠĠĠĠĠĊĠĠĠĠĠĠĠ
Ġa part
Ġc delt
Ġin j
Ġin secure
lo s
lo ver
() *
par g
ath on
(' ['
Re ject
ĠS HO
ĠS ampRec
Ġas sess
Ġla gs
ĠL ar
ĠO mega
In dx
Ġsub script
Ġsub modules
Ġtable Name
dis cord
Ġshape file
Ġform ated
LI GHT
En crypted
pc ion
fra ctions
any cast
ĠCh ild
cla ve
Ġexpect ations
Ġ? ,
BO O
syn onyms
JSON Encoder
cha ospy
æĪ ĸ
Ġens uring
Ġmor pho
issub dtype
è·¯ å¾Ħ
satis fied
ĠCRE ATE
3 000
3 15
e asy
p ressed
s il
z k
re covered
Ġc ave
Ġs ps
pe ople
li cal
Ġm ine
is Checked
am t
ĠI de
ĠD ue
ĠE OS
Ġout let
`` `
Ġun masked
ĠB us
01 5
ap ing
TE ND
top level
Ġfunc name
ank s
est he
train er
*( \
payload s
ox mpp
}\ ''.
Ġast ro
syn set
Ġarc py
Hist ogram
ĠPart ial
Ġincorrect ly
Ġorbit al
Extraction Warning
Ġposs ibility
SOLU TION
æ® µ
1 33
b al
x dr
ç ©º
Ġ )))
Ġt arg
st ress
Ġc ry
Ġre map
Ġre direction
Ġs ized
ent ions
def n
Ġis olated
th readed
ma sses
Ġh al
Ġde lays
Ġ{ \
po ps
Ġpro tection
ts k
ĠRe ply
Ġy o
ĠD ir
Ġle ak
Ġli es
wa ke
ST ER
Ġrun nable
ai oxmpp
ap ig
nt il
Ġtask id
Ġtimeout s
Ġcmd args
Ġsum mar
book mark
cos mo
Ġchain ing
ĠAl t
ĠCol ors
lev ance
iterable s
ĠForm ula
lig and
oo keeper
Ġrid ge
Http Response
(""" \
Ġgrow th
SECON D
Ġreli able
reh ension
BLANK LINE
. **
S aves
b ai
h ale
j r
| .
å »
de composition
ge vent
Ġb all
Ġw r
el ts
par ticipants
to scape
qu ash
path To
set timeout
Ġ{ [
Ġr fc
Ġon error
iv ities
Ġla ck
log gers
min max
Ġadd on
Ġsub field
max val
ich io
Ġno va
Ġdis cussion
off ered
Get Output
root dir
Ġ'% .
bit MQ
11 4
org anism
UN IT
IO S
PRO P
Ġsigma s
Ġrepe ating
Ġdiag nostic
adjust ment
Ġcar bon
stud ents
ITE M
Ġmail box
FORM ATION
MON TH
ĠPoly axon
L H
Q R
U ns
u fo
de crease
ro sa
Ġb m
Ġb other
Ġd sp
ot s
Ġst aging
ch roma
key pair
ĠA st
ren derers
ĠC ircuit
ĠM c
Ġ{} ;
fa i
ti ers
sh lex
Ġcomp utations
ST EP
RE AL
Ġper iodi
yste matic
link ing
Ġauth n
Ġneed le
FI CATION
EL L
Ġmod path
Ġ9 7
Ġassign ing
Ġdown time
defin ite
estim ates
feed s
"> </
ĠMessage s
ĠÐ ²
Ðµ ÑĤ
~~~~~~~~ ~~~~~~~~
ĠPK CS
QUO TE
anor oll
Ġlear ner
+ ='
C AR
I AS
I llegalState
U DF
n bins
t re
ç ´
ķ Ĩ
re map
st retch
ur ated
to il
to array
Ġ` /
ĠS afe
ĠC hem
Ġtime period
size of
Ġk args
ener ate
Ġ4 9
mi b
Pro b
ĠJ inja
ud nn
Ġcorre lations
side s
Class ification
tmp file
Ġ9 6
bot tleneck
Ġinstall ing
ural Network
Ca ched
Ġsn ps
sur rogate
accept s
CM C
semb ler
Ġvariance s
Ġpersist ence
hyper visor
Ġpys at
who is
ogen ous
ĠDatetime Index
ç»ĵ æŀľ
Ġachie ved
* _
, ...,
M ay
V m
o sp
o cs
y t
Ġ čĊĠĠĠĠĠĠĠĠĠĠĠ
re defined
de tections
Ġc im
Ġin de
ct g
ent e
get ting
ĠT T
Ġcon cordance
Ġex plained
list Regex
ĠA PP
po ut
ĠP lay
ĠRe places
ĠD one
ic mp
Ġpo ssibilities
py snmp
Ġpre condition
01 2
ash ion
AN CH
Ġqu oting
test ed
:] ),
Ġleft most
Ġpack ing
CK ET
200 2
Ġtermin ator
ĠLog ging
ĠBe arer
ĠGroup s
("' ",
Ġgzip ped
eg gs
ĠGeo JSON
Ġmolecule s
explo rer
ĠIdent ify
Ġrepet ition
Ġpyn os
crimin ator
ĠDevelo per
B D
E thernet
T V
b son
e u
f ord
g mt
Ġn odata
Ġin clusion
Ġ# ####
Ġh over
Ġco var
ĠP UB
ho les
ĠM gtKey
ĠV ertex
ĠL ines
ĠG M
ĠB ed
ĠAr g
sum marize
Ġ4 6
var names
Ġback slash
prefix ed
gen omic
Ġcl c
rs vp
ĠUn der
PO P
Ġsa id
Form ation
Ġregister ing
AB ILI
Ġfl ds
TER MIN
14 8
nn z
PATH S
Ġincre ases
Ġdry run
DA O
METH ODS
ĠCate gorical
é¡ µ
DEP TH
Ġæĺ ¯
FOLD ER
L ONG
X R
b ic
g f
n odata
è µ
re act
Ġre wards
Ġin del
ra form
la cp
il tered
di angle
el b
Ġr ub
res ized
low est
__ "
Ġla z
Ġun bound
ĠL icense
Ġso cial
ls b
ac quisition
ef it
Ġsh uff
arg count
Ġtrans mission
St im
av oid
Ġmo bile
trans Axes
vid end
LO OP
Ġab c
=[ [
ĊĠĠĠĠĠĠĠĠĠĠĠĠĠĠĠĠĠĠĠĠĠĠĠĠĠĠĠĠĠĠĠĠĠĠĠĠĠĠĠĠĠĠĠĠĠĠĠĠĠĠĠĠĠĠĠĠ ĠĠĠĠĠĠĠĠĠĠĠĠĠĠĠ
Ġ'{ "
Ġfix es
nan exus
Ġinternal s
Dis abled
Ġhy phen
Ġbad ge
chan ger
Ġsol r
ĠPh ys
Fetch ing
Ġstyles heet
perf ect
Ob tain
Ġwor ry
Exists Error
CONNE CTION
FAIL URE
suc ceeded
pax es
Ġpredecess or
Ġgy ro
ĠPOSI X
B T
M i
R AM
U cs
[ ,
d sp
f min
f olding
p ure
s aml
v name
en es
Ġb f
): \
un escape
Ġof ficial
is ions
', ))
as px
Ġth roats
od d
qu ist
Ġ` -
Ġstr ategies
Ġ% -
Ġar biter
Ġy c
Ġx axis
pa uli
ĠM any
Ġtype code
Ġun handled
ĠL IST
In c
ĠW OR
Ġsub node
RE PORT
arg types
sk learn
lib rosa
no logy
Pro tein
Ġsc ans
Ġ"" ),
Ġlink age
termin als
Ġpop ped
Al tern
åı £
Ġtransp osed
IF Y
bus y
sw arm
Can vas
Ġwa iter
mot ifs
URI TY
Ġgame s
("" .
SUB JECT
wind ll
OPTION AL
ĠCPU s
ĠClean up
æĿ ĥ
ĠPmag SpecRec
Ġreplic as
Dimension s
Ġorth o
frozen set
ĠCOL UM
Produce ExtractionWarning
9 00
S ender
c itations
d ask
k afka
Ġ Â
ion al
Ġre used
Ġd ra
Ġd path
ed ited
ĠT ile
ol tz
'] [:
int ra
Ġde ck
Re gression
Ġdi vergence
Ġstr at
ĠS core
ĠS PE
(" (
bo b
ary centric
om im
tra its
own ers
ĠH am
da e
ac cel
Ġfa bric
check plot
Ġcontinue d
ĠQ is
number Of
De precationWarning
uni prot
mod ulename
Ġvari ogram
Ġmon itors
git lab
100 000
MO VE
Parse Exception
Base Error
Of Prd
Ġpid file
77 7
Ġsv d
Ġvisual ize
OB J
åħ ³
ĠCont rols
ĠPop bill
Pop up
ĠRece ive
Ġmav link
Ġprot otype
ĠEnter prise
ĠPopbill Exception
) `,
A utomation
C lip
F W
S PI
c sp
d am
e ager
k ron
v ac
se a
Ġt an
Ġi map
me l
Ġf ancy
Ġn z
Ġan sible
qu il
ĠS PI
Ġal erts
time d
ĠD ouble
Ġun subscribe
ĠG H
node Name
work unit
Ġper haps
:// '):
sk ipping
DE LI
ĠJ PEG
UL D
ĠK B
Ġlat ency
ĠAt tr
Config Error
Ġpost ed
Ġpol ler
Ġsent ry
By Id
Ġcor rupt
install er
Ġho pe
WS GI
Exec uting
hy p
Num bers
Ġconsider ing
ĠFormat ted
FIELD NAME
åº ı
vx vv
outcome s
Ġefficient ly
Retry Error
through put
EE E
Ġ`{} `.
mess aging
/ *.
2 32
3 01
: {}
> ":
C AN
E EXIST
H older
H IT
O US
a ver
d ms
z fs
č ĊĠĠĠĠĠĠĠĠĠĠĠĠĠĠĠĠĠĠĠĠĠĠĠĠĠĠ
Ħ çĲĨ
re raise
st aging
Ġc val
Ġre covered
Ġo gr
Ġd rain
ot or
Ġto mo
ol erance
con cepts
ĠNone Type
Ġde letions
ĠS olve
pro vide
ĠTh reshold
Ġ.. /
lib c
filter ing
10 8
Se quences
play book
net cdf
Ġcomple teness
=[ ('
CH ED
Ġge ometric
Or d
Input Error
56 7
Start ed
Ġcir cles
scheme s
ĠImage s
Ġgeo graphic
Ġinstanti ation
CLA SSES
quant iles
Ġmeth s
Align ments
ĠAnd roid
ĠCorre sponds
Ġflu ent
Tr unc
________________ ________________
Li quid
Ġthrot tled
erk zeug
again st
STRU CT
* "
/ [
D ense
I B
N Z
W hether
d nanexus
m ber
s ar
v our
à ¹
æ ¨¡
Ġp ron
Ġn best
Ġ' >'
par c
Re vision
Ġr dtype
po isson
ĠC redentials
ĠC lick
Ġfile server
Ġv d
pa id
Ġnew s
Ġnew path
"] '
Ġapp name
Ġdis persion
ost a
Ġread ings
ME S
ME NU
cre th
PI L
Ġmult ivariate
Ġ'% '
Ġcoord ination
bro ks
sa f
Ġbit string
TO OL
.* )
API CallError
Ġmedi ator
Valid ates
clip ped
cn tr
repe ats
mis sed
neg ot
}}, ),
ĠEd it
mant ic
åľ °
ĠRow s
pagin ator
/ ")
G Y
I mplementation
K T
S pa
T OT
d R
s se
u is
in fra
Ġi am
Ġin et
ing o
li dx
Ġ" ?"
', ),
sp ort
qu art
ĠC RS
ĠF urther
Ġfile Path
Ġv pn
Ġv Center
ĠD ET
ĠE ven
Ġpa uli
Ġdo f
ĠO ID
Ġk p
"] }
ste am
Con tain
sub module
sub script
Ex amples
Ġtrans fers
float s
Ġdel attr
")) .
Ġevalu ations
byte order
Ġdrop let
Ca pture
ĠPo ints
Block s
bus iness
Struct ured
('# ')
war der
tur icreate
Ġcrypto graphy
neur on
pul se
Ġstim ulus
Ġgrace fully
contra st
Ġdamp ing
+ "\
C ir
V D
h dd
l cf
v owels
y et
é ĺ
Ġt ight
me ts
Ġc lin
Ġe f
Ġ' ']
Ġd B
Ġis dir
Ġan chore
um able
ol r
)) ;
ĠI mplement
res ol
res nums
ĠP ix
Ġv name
red shift
Ġout path
ĠM utable
ĠM icro
bel l
ĠB PM
node id
we bsite
RE SOLUTION
Ġ-------- -----
ject or
Ġmatch obj
Ġtrans lator
ĠJ ID
Ġmsg pack
Ġresource Version
Ġjob Graph
Ġstream er
Ġcalcul ator
meta bolites
UN CTION
PO CH
MP C
Ġcustom ization
mal low
SP LIT
API Exception
]+ ',
Ġpick ed
cons umption
ĠWindows Error
AF TER
conver gence
rx n
("_ ",
chi eve
ĠEl lipsis
substit ution
Ġtur bulent
Ada pt
Orig inal
wit ness
Ġcollision s
spher ic
cach ing
å§ ĭ
> &
F ULL
N i
R d
b k
p unct
x o
ļ Į
Ġp il
an tification
Ġb atched
Ġm pi
um ulative
'] '.
con centration
') (
ext rap
Ġ* [
age Maker
pro vides
ĠD ummy
ĠE mbed
]) -
ind y
ĠM ix
ca ught
class method
Ġbo dies
Ġuser info
tra cing
da cl
Ġstart Time
AT OM
RE CTION
Ġiter ative
Ġassert ions
ĊĠĠĠĠĠĠĠĠĠĠĠĠĠĠĠĠĠĠĠĠĠĠĠĠĠĠĠĠĠĠĠĠĠĠĠĠĠĠĠĠĠĠĠĠĠĠĠĠĠĠĠĠĠĠĠĠ ĠĠĠĠĠĠĠĠĠĠĠĠĠĠ
15 9
=% (
Ġtx id
bed s
tab ulate
Ġhy brid
cr umbs
Ġinv oking
Command s
Ġrepe ats
Color map
READ Y
BR ACKET
Comple x
styles heet
Cho ose
Ġconj ugate
Ġconsum ers
ĠSUP PORTED
' `,
E Q
G re
L B
h ift
t min
z order
re vert
Ġa str
le ms
Ġan ten
ch ase
is inf
am ond
Ġh sp
ĠC er
ĠC ast
Ġra id
ĠE M
Ġ`` --
). ")
Ġcol names
Ġk nn
ther mo
yn olds
ĠEx act
rst ate
RE DIS
10 9
Ġpri mal
Me ter
Ġref und
Ġexp orter
Ġcache dir
meta class
Ġob serv
fs m
ĠTo ol
Ġiss uing
ie i
(- (
Ġbro ad
Ġve to
ĠBe gin
Ġpotential s
Back ward
Ġwave let
SM TP
kv store
Pattern s
equ ipamento
Ġsci ence
altern ate
numer ical
Ġprovision ing
Ġcance led
Ġnucleot ides
ĠExpect s
è¯· æ±Ĥ
çº ¿
Ġconduct ivity
endi x
TIT LE
OfPrd v
C ron
C ASE
C ANCEL
O c
Q Widget
S ampler
b untu
p ump
v ex
w ks
x si
re strictions
de letions
Ġs rs
lo Error
Ġb k
ra i
Ġto il
Ġl name
Ġg i
to mo
ĠC artesian
ĠD uration
ĠE P
ĠE arth
=' +',
Ġk de
ĠTh rows
RE PLACE
for ces
pen g
Ġdis cord
table Name
no un
Ġ... "
ĠQ uestion
su cc
Di gest
\\ \\
20 2
unit ary
Ġho les
Command Error
Ġve cs
sur vi
internal s
ĠCur sor
circ ular
ĠSerial izes
ĠTemp orary
tid y
ä¸Ń æĸĩ
ĠCorre ct
NORM ALIZE
Ġtranspa rency
Lim its
ĠCOMM AND
Spi ce
Ġfron tier
Ġconsoli dated
listRegex es
* -
F ire
H ow
I AL
I ES
P recision
R B
b is
e lev
g db
i id
t et
t arg
re o
re servation
Ġs ystemd
Ġ""" )
Ġth reat
set Graph
ĠP B
pro portion
], '
ĠM Q
Con firm
map hore
err it
Ġqu orum
Ġ(' -
play ing
ĠCo pies
replace ments
temp s
Un handled
DO UBLE
GE O
bin ning
Ġcho osing
Ġstack s
IO Loop
edge color
URL S
Inter faces
Ġtensor board
nn abla
Ġsql Query
Ġconver ge
Ġbro kers
bet ter
CP P
optim ized
BO OK
BO UND
aut ore
evalu ated
bra ce
tor rent
decimal s
Ġslug ify
phot os
AI LABLE
Ġoct et
oser s
subscri bed
Mult ip
Obs Track
$ "
) (*
. <
1 64
1 34
F latten
I m
M iddleware
N u
N othing
d ut
s ns
Ċ ĊĠĠĠĠĠĠĠĠĠĠĠĠĠĠ
re views
Ġf al
pe ptides
co upon
ad or
Ġbe ha
set uptools
Ġpar ticip
ist ries
Ġv r
url safe
ĠM R
Ġnew name
Ġro ster
Ġpath To
Ġcomp artment
Con cat
not null
not hing
ĠEx t
da mp
rid den
Ġpoint ed
Ġsp ider
10 7
err back
12 4
comm unities
ush y
thing s
20 7
ĠMe asurement
EL S
Ġyour self
af fi
bed tools
tl ing
Option Error
(? :\
oto ServerError
Ġcast ing
Ġrecur rence
Ġgenes is
ĠCom bin
Ġhorizontal alignment
Ġnice ly
ĠCond itional
ĠAir flow
" ``,
C Z
C s
L ater
M ix
S Array
U i
U DA
^ *
a q
w rapping
en ode
Ġa db
de compose
Ġc rd
Ġp et
Ġis file
() ')
el ch
Ġde mag
Ġde crement
ĠS B
Ġx t
add Item
sc oring
Ġun ary
Ġun mapped
ĠB ing
arch ived
RE LEASE
arg name
si bility
ĠX s
cent s
Di ms
]] ])
LI BRARY
Ġ8 6400
Ġgo id
Ġskip s
33 39
Ġbit mask
('- ')[
Ġjoin s
Ġ200 9
writ ers
Lay ers
Ġspa cer
ĠMethod s
DATE TIME
GR APH
Ġneg ated
ĠNum eric
Ċĉĉĉĉĉĉ ĉĉ
Ġnor med
regular izer
ĠPAR AME
Ob server
episode s
æĶ ¯
æĮĩ å®ļ
Plain Text
áµ Ģ
ĠHEAL Pix
Ġæķ° æį®
? ,
C ti
D rag
\ ',
b attery
v f
w kt
in validate
Ġre lies
ur a
un changed
Ġto y
ĠT EST
ol lar
Ġg ro
ĠI on
ĠC ir
ĠD own
ĠM ut
ĠR ank
class ical
Ġspeci e
AT H
sub sets
action point
Pro jection
Ġab br
Ġvar Num
Ġgo ids
Ġob fus
Ġbit coind
install ation
Dis covery
rank ing
ĠBe ta
('_ ')[
Ġforward s
Ġmis matches
cod ons
ĠSerial izer
retri eved
ĠShow s
rout ers
Dec re
Ġcyl inder
Ġrollo ut
" [
( {},
> -
B IG
I SE
N IC
P ad
S id
r ings
s ymb
y x
Ġ vice
ad ic
il x
Ġh ive
ĠS ID
ĠS olar
Ġra ke
__ ('
om b
ph rases
if old
Con straints
gra ce
sub string
ep hem
lib nl
Ġindi cation
rt m
12 2
Ġag gr
exec uted
Ġ'/ >\
ĠTo o
55 55
Ġcomment ed
Ġgre edy
Ġ$ (
mar c
Ġæ Ī
maked ir
vor onoi
Ġfact s
æĺ ĵ
Ġbed file
ĠIte ms
Ġaccum ulated
Ġcra s
Scan ner
Estim ate
èĢ ĥ
Authentic ate
DEFIN ED
DOT ALL
rever sible
å» º
C DR
H AS
O ct
V OL
W hat
] =='
d ust
i at
l h
s urname
u uids
x F
Ġa chieve
Ġi y
Ġn avigation
Ġthe ore
Ġb v
ra id
mp o
Ġ( ):
get boolean
di e
con vention
ser s
ta ges
Ġco oling
ĠA V
Ġde dicated
res cale
Ġy e
ĠD en
ile up
Ġcur vature
tra it
{} {}
Ġend time
lat trib
pen se
Co lour
mi ko
AL PH
dis connected
ĠJ upyter
color ize
comm ission
ĠKey words
Ġcomple ter
Ġcomm unities
16 7
ĠDi rection
ĠRes pon
EX PI
Per manence
vers als
PC A
200 6
imp ute
ĠObject ive
walk ers
Rel ative
Ġupd ater
Web Socket
Dep loy
COMM IT
Ġdestroy ed
Pop ulate
Ġphot os
å¸ ¸
plex ity
ĠAUT H
Ġvers us
NY U
GOR ITH
apig ateway
D n
F ollow
H MAC
M et
U ME
m ation
} ],
Ġ 9999
re w
re main
Ġt ied
Ġf v
Ġn ational
Ġs dp
Ġs litlet
Ġb rowse
un subscribe
ra ble
co upling
Ġ( **
() "
ĠT odo
sp lice
to csr
Ġme l
ĠS at
ĠRe ynolds
ind b
Ġlen out
ĠB B
ĠH orizontal
Ġpy matgen
dis cr
File Info
rt t
Ġtop k
=( -
gre SQL
Model Index
SO FT
SP IN
Instance Name
display ed
bind s
Sh adow
âĶ Ĥ
rece ivers
Ġcla zz
è¯ ¥
Ġquote char
CB I
deriv atives
Ġpay off
Ġstandardi zed
Ġstrong ly
ĠProbab ility
æŁ¥ è¯¢
F M
H K
J K
S ch
W W
Y ields
g mtime
l cs
p mid
v gp
at ile
Ġt name
Ġt sv
is function
() )),
il it
am odel
th roats
'] +
Ġbe zier
Ġco o
Ġco he
od s
te en
age d
ĠS TE
ĠC ut
ĠP L
ĠP ad
pa ging
ĠG EN
Ġrequest er
ĠH ave
Ġdis ambig
Ġwork book
ĠY es
Ġdest inations
Ġpi cks
16 9
den y
Response Exception
ED GE
ĠDE SC
He alth
IS HED
conv ex
)+ '
"> <
Work ing
ĠOR M
Rece iver
åĬ ¨
sci ence
ĠCalled ProcessError
coin id
ĠFrequency Series
ĠQis kitError
/ '):
C LE
H GNC
N M
P LE
a vi
b ly
c ion
n th
v center
v card
in ite
in direct
re cf
re cursively
Ġf rm
Ġc sphase
Ġin version
Ġs ip
ame d
Ġif ile
Ġm obj
pt c
Re v
Ġra fcon
ĠP OP
Ġlist ify
ĠE CEF
mm mm
Ġla s
log pdf
ĠO ur
In voke
cur ie
base url
Ġz eta
ĠPar allel
Ġmin val
Ġpy psa
Ġtrans ferred
ĠCon straint
exec uting
gr r
bro ken
cf m
En coded
ĠLo gs
access or
ĠLOG ERROR
Ġmain ly
Ġren aming
desc s
Group Id
ĠEn cryption
Exec utable
gt k
PAR SE
ĠTe am
Ġdetermin ation
accept able
ä» İ
Ġlic enses
oct ave
Ġsink s
mf cc
BACK END
../ ../
Like lihood
ĠFOR MAT
ĠHist ogram
Ġaugment ed
COLUM N
swa paxes
setGraph Val
S tage
r k
é ľĢè¦ģ
ì Ĺ
ĠĠ ĊĠĠĠ
st on
Ġi g
Ġp ca
Ġin er
Ġif os
ing ress
ra iden
ul um
ta ches
set Checked
po pt
ĠN T
ip h
spon ding
port folio
Ġj am
Ġuse less
Ġsub cmd
Ġne utral
ml st
df vfs
onent ial
Ġq c
12 1
print ed
stream er
exp num
char ges
bro k
conf s
Ġ'_ ',
rec id
14 0
UP LOAD
We ights
hy brid
åĪ ¶
Ġboto core
Param File
Ġcar rier
Transform er
Indi vidual
Ġ'| '.
pagin ate
Ġgal axy
Ġinform ations
ĠCOM MA
Google APICallError
TIFI CATE
wor st
Ġæĸ ĩ
" <
" `
+ -
D AG
G N
h alt
y ards
Ġb cc
Ġst ability
ch g
um ask
get Local
di cular
Ġex ce
Ġfi red
Ġas m
Ġra m
`` -
Ġro l
om ers
ĠR enders
ĠO FF
ĠW GS
ĠW rong
Ġuse cols
Ġte e
01 01
cy g
pr s
io ps
gen ic
uri er
Me asurement
Not Implemented
Ġmeta bolite
Ġsi mpler
Ġcons ul
Ġmod al
Ġinsert ions
Ġcharacter istic
Ġ200 8
release d
rand range
tical ly
Qt macs
Part i
Back up
Dist rib
ATOR S
Connect ing
Ġsol ving
Ġrout ers
under line
===== +
èĤ ¡ç¥¨
ĠMole cule
Ġgues sed
K ER
P B
P retty
h sv
y z
} ({
ª Į
Ġt ies
de coding
Ġre current
Ġre quiring
Ġs ched
co oling
Ġan ime
Ġ" *.
[' {
ta per
sp er
ĠI llegal
ĠS ql
ĠS mooth
Ġname server
ĠF UNCTION
ĠĠĠĠĠĠĠĠĠĠĠĠĠĠĠĠ ĠĠĠĠĠĠĠĠĠĠĠĠĠĠĠ
Ġout s
error Message
Ġtime periods
ĠL ab
ĠW F
ach ans
for cing
vert ised
Ġpy wbem
Data Base
Ġ... ')
open ing
Ġab und
gener ally
pol ler
mark ed
SET S
percent iles
Ġcsv file
Ġ'# ':
mix ing
äº Ĩ
ĠAct ual
Ġindependent ly
tunnel s
Cal endar
,,,, ,,,,
Ġspread sheet
Ġintr insic
Diag ram
tg bot
Ġflex ible
Ġspaw ned
Ġtrun cation
1 999
4 40
V ectors
n iter
q emu
x en
½ æķ°
Ġre do
Ġn ex
Ġw k
Ġm ist
un ches
is upper
th r
Ġh unk
sp ents
': {'
set ta
ĠF allback
Ġfrom list
ms rest
pre fer
__ ":
user data
Ġnumber Of
pen dicular
Ġinter ior
Co verage
ĠX X
Ġpri marily
32 1
}) \
Ġref lection
cat ter
11 9
20 5
ĠLo ader
ĠDi ameter
Ġcha ined
Ġ12 34
ĠDE SCRIPTION
ĠĠĠĠĠĠĠĠĠĠĠĠĠĠĠĠĠĠĠĠĠĠĠĠĠĠĠĠĠĠĠĠ Ġ
Ġexit code
17 2
Ġpartition ed
Ġtar info
ĠTensor Board
Ġmut ual
appro ve
SY S
Ġbalance d
Attr s
ĠGPU s
Ġcraw ler
è½ ¬
Ġarri val
) {
H orizontal
I OT
R TS
T a
T AB
_ ")
f cn
k x
m ip
n in
n col
n pts
o bo
s ftp
x scale
y aw
Ġre mot
Ġp data
Ġin set
Ġin bound
ing Box
Ġb attery
id d
is olated
get frame
ĠT ick
up loads
ve led
int el
Ġar p
pro tect
ĠR ST
string ify
Ġbo keh
Ġadd rs
Ġj unction
attr getter
cs u
bs d
ac ct
lat ency
Ġversion ed
Ġread out
']) [
ĠCon sumer
current Index
script ive
Ġjob ID
go id
Ġvar Binds
ĠUn less
bl end
Ġmod ulo
chain ed
Ġsha de
cos ine
dat atypes
18 5
ĠXML Error
VI SI
VI RON
94 96
nu cleot
Ġsy mp
Ġfall ing
USE D
SN P
TT L
Jo hn
REG ISTER
Ġpolynomial s
Ġaccum ulate
Ġcapt cha
LABEL S
Ġdh cp
Press Event
spi cious
fro g
Ġequival ence
lipt ic
, .
3 04
? :
A DED
C p
V ersions
b cbio
c ance
h po
t elnet
z f
æ ²
en umber
Ġn row
Ġo d
Ġb rand
pe ech
co ur
ch root
Ġ== =
ase q
Ġar ange
ĠRe member
Ġy t
add on
ĠG auss
ĠG ROUP
tra ction
ag onal
do e
Ġsp lice
clo uds
msg pack
Pro vided
Ġ5 4
)] ]
ĠY Y
Ġad versarial
Ġorig ins
SI TY
ĠDe tails
Ġbin aries
Ġmask ing
Ġlib cloud
ĠLo ss
Ġloop ing
Ġnd min
Ġhigh ly
SP F
URL Error
cr umb
cu its
85 7
cn m
cn v
ĠURI s
Ġâ ī
Ali ve
!! !
Module s
FORMAT S
ĠCa pture
CB C
Ġadapt ive
ĠDraw s
umin osity
suggest ions
ARG UMENT
OG LE
Ġsho cks
ĠSpark Context
Manage d
Ġenrich ment
INTERN AL
ĠCAS RN
éĶ Ļ
ĠNamed TemporaryFile
äº¤ æĺĵ
balan cers
( ([
. /(
1 32
E ach
I RA
S trip
W ARD
h b
n it
s name
s atellites
x E
z abbix
| %
} ?
Â ·
ç Ĥ
al man
Ġf etches
Ġn points
Ġs os
Ġb lo
ul ong
Ġ" ):
Ġl z
ble matic
ĠA riane
ren cies
ĠC p
ĠC ALL
ĠD FA
ĠM et
class ified
Ġcont rolling
Ġk d
Ġpass ive
Se ed
File Dialog
Ġph rases
CO VER
mon omial
ĠK ernel
speci fier
Ġmark ing
02 00
Ġflag ged
TR ACE
PAR SER
web driver
44 3
repe t
Speci al
Com bin
Ġdesign ated
Ġide mpot
clock wise
Attemp ts
Ġamb ig
gal axy
Ġtopo logical
ĠDimension s
BL ACK
Ġcod ename
Ġgray scale
èĢ ħ
éĻ ¤
Ġphen otypes
" }}
) _
D ig
T COD
W alker
X IS
l x
p he
s anity
v box
Ċ Ċĉĉĉĉ
re voc
de cls
Ġn ii
Ġw orth
ĠT imer
Ġex cel
Ġg tf
Ġ== =====
Ġpro ducing
ĠF l
ĠE rr
Ġout lier
ĠW IN
max es
mit ian
Ġno cover
AT K
RE P
Ġgroup er
cy c
De vices
cor ners
######## #
pub sub
ob servable
PO LL
IO D
pkg name
CP D
track ed
Page s
76 8
Port s
Ġbra ces
Ġvertical alignment
Ġcn f
Rect angle
Ġelect ron
ĠStri ct
ĠStat istics
æł¼ å¼ı
ĠMX Net
COMPLE TED
ĠRab bitMQ
/ ``
> :<
C ost
H ot
c ubic
h ier
h orizon
é ķ
č Ċĉĉ
Ġ atexit
on ame
al pix
Ġc ij
Ġre dd
Ġp tc
Ġp lenary
Ġd ts
th reat
ult im
ĠS ender
ĠC li
ĠC ha
ĠF ed
Ġres istance
out bound
Ġv n
ĠRe served
Ġkey chain
ĠE MP
Ġx ls
code cs
tri angular
ip address
Ġen forced
ĠM ATCH
ps util
ĠV e
ca ve
ĠW ater
cur rence
ĠB i
sh rink
ich r
place ments
Ġdis c
led ger
10 3
Pro mpt
Ġ(' \
Ġtemp o
Ġview port
NT AX
ĠRE G
expand vars
Ġbuf size
bank s
pipe lines
Ġactor s
phan tom
Ġbroadcast ing
mn ist
Ġvcf utils
>. <
éĩ ĳ
sector s
ĠVis cosity
Ġpow ers
!!!! !!!!
remo val
ĠTher mal
- {}'.
B ulk
C r
L on
^ (
n dimage
p gp
Ł ³
he v
Ġp ch
Ġin ode
Ġe scal
Ġw arp
un mapped
Ġan c
am er
ĠI MAGE
Ġv ulner
text wrap
Ġat mo
Ġpre processor
ER IC
arch itecture
ac m
RE QUI
01 1
Ġ4 3
Ġiter ators
Ġph antom
Ġvi olation
irs peed
sq la
Auth Error
cursor s
pool ing
Ġinstall er
Ġpkg name
Ġ"{} /
Ġdrop na
Ġlinear ly
ĠCur ve
åĲ Į
ĠUnicode Error
Ġemit ter
don or
Ġì ķ
Fore ignKey
PRI VATE
å¯ Ĩ
Poly Data
chedul ers
ĠAvailable Methods
æŃ £
Manage ment
Ġcraw l
Mac ro
consum ers
Ġski prows
A vailability
C nt
Q uestion
on nx
Ġre fobj
Ġre aches
Ġn pix
un hexlify
() /
Ġth readed
ve re
to dict
Re quires
ĠS ageMaker
ĠE r
Ġx xx
ho c
Ġdo ck
Ġtype def
Ġro c
om l
Ġun resolved
ne igh
Ġcomp ri
shape file
mi os
AL OG
Pro c
Ġq r
cli que
ĠNot ify
site map
language TypeId
ĠCO DE
Ġplan et
Pos itions
rv r
ĠDist rib
Ġec centricity
Ġjump kind
gd al
Ġflip ped
Rep lication
Conver ting
chem ical
osa ic
Ġstick y
datal ab
ä»£ çłģ
" /
R MS
W alk
d block
d theta
i ec
i mplement
ê °
Ġa Process
he ss
Ġf size
Ġb right
Ġd name
pe st
ate st
fi able
Ġm as
Ġ""" *
ul y
la ve
get pass
Ġl ut
Ġh older
Ġg auss
data path
=' -
ĠM er
ne ver
Ġbo unded
Ġuse arch
IN K
Ġser vo
Ġcode d
match ers
Ġparent hesis
Ġsome how
nan max
report ing
Parse FromString
Ġspe aker
PS D
Sign ing
Part ial
Ġgr ph
bad ge
analy tes
appro ved
ĠCloud Watch
stand alone
ĠRO I
AV A
Ġprom ise
åı¯ éĢī
MEM ORY
Ġstre et
Ġviol ations
WINDO W
Ġrefres hed
- )
A g
[...]
