{
  "version": "1.0",
  "truncation": null,
  "padding": null,
  "added_tokens": [
    {
      "id": 0,
      "content": "<|endoftext|>",
      "single_word": false,
      "lstrip": false,
      "rstrip": false,
      "normalized": true,
      "special": true
    }
  ],
  "normalizer": null,
  "pre_tokenizer": {
    "type": "ByteLevel",
    "add_prefix_space": false,
    "trim_offsets": true,
    "use_regex": true
  },
  "post_processor": {
    "type": "ByteLevel",
    "add_prefix_space": true,
    "trim_offsets": false,
    "use_regex": true
  },
  "decoder": {
    "type": "ByteLevel",
    "add_prefix_space": true,
    "trim_offsets": true,
    "use_regex": true
  },
  "model": {
    "type": "BPE",
    "dropout": null,
    "unk_token": null,
    "continuing_subword_prefix": "",
    "end_of_word_suffix": "",
    "fuse_unk": false,
    "byte_fallback": false,
    "ignore_merges": false,
    "vocab": {
      "<|endoftext|>": 0,
      "!": 1,
      "\"": 2,
      "#": 3,
      "$": 4,
      "%": 5,
      "&": 6,
      "'": 7,
      "(": 8,
      ")": 9,
      "*": 10,
      "+": 11,
      ",": 12,
      "-": 13,
      ".": 14,
      "/": 15,
      "0": 16,
      "1": 17,
      "2": 18,
      "3": 19,
      "4": 20,
      "5": 21,
      "6": 22,
      "7": 23,
      "8": 24,
      "9": 25,
      ":": 26,
      ";": 27,
      "<": 28,
      "=": 29,
      ">": 30,
      "?": 31,
      "@": 32,
      "A": 33,
      "B": 34,
      "C": 35,
      "D": 36,
      "E": 37,
      "F": 38,
      "G": 39,
      "H": 40,
      "I": 41,
      "J": 42,
      "K": 43,
      "L": 44,
      "M": 45,
      "N": 46,
      "O": 47,
      "P": 48,
      "Q": 49,
      "R": 50,
      "S": 51,
      "T": 52,
      "U": 53,
      "V": 54,
      "W": 55,
      "X": 56,
      "Y": 57,
      "Z": 58,
      "[": 59,
      "\\": 60,
      "]": 61,
      "^": 62,
      "_": 63,
      "`": 64,
      "a": 65,
      "b": 66,
      "c": 67,
      "d": 68,
      "e": 69,
      "f": 70,
      "g": 71,
      "h": 72,
      "i": 73,
      "j": 74,
      "k": 75,
      "l": 76,
      "m": 77,
      "n": 78,
      "o": 79,
      "p": 80,
      "q": 81,
      "r": 82,
      "s": 83,
      "t": 84,
      "u": 85,
      "v": 86,
      "w": 87,
      "x": 88,
      "y": 89,
      "z": 90,
      "{": 91,
      "|": 92,
      "}": 93,
      "~": 94,
      "¡": 95,
      "¢": 96,
      "£": 97,
      "¤": 98,
      "¥": 99,
      "¦": 100,
      "§": 101,
      "¨": 102,
      "©": 103,
      "ª": 104,
      "«": 105,
      "¬": 106,
      "®": 107,
      "¯": 108,
      "°": 109,
      "±": 110,
      "²": 111,
      "³": 112,
      "´": 113,
      "µ": 114,
      "¶": 115,
      "·": 116,
      "¸": 117,
      "¹": 118,
      "º": 119,
      "»": 120,
      "¼": 121,
      "½": 122,
      "¾": 123,
      "¿": 124,
      "À": 125,
      "Á": 126,
      "Â": 127,
      "Ã": 128,
      "Ä": 129,
      "Å": 130,
      "Æ": 131,
      "Ç": 132,
      "È": 133,
      "É": 134,
      "Ê": 135,
      "Ë": 136,
      "Ì": 137,
      "Í": 138,
      "Î": 139,
      "Ï": 140,
      "Ð": 141,
      "Ñ": 142,
      "Ò": 143,
      "Ó": 144,
      "Ô": 145,
      "Õ": 146,
      "Ö": 147,
      "×": 148,
      "Ø": 149,
      "Ù": 150,
      "Ú": 151,
      "Û": 152,
      "Ü": 153,
      "Ý": 154,
      "Þ": 155,
      "ß": 156,
      "à": 157,
      "á": 158,
      "â": 159,
      "ã": 160,
      "ä": 161,
      "å": 162,
      "æ": 163,
      "ç": 164,
      "è": 165,
      "é": 166,
      "ê": 167,
      "ë": 168,
      "ì": 169,
      "í": 170,
      "î": 171,
      "ï": 172,
      "ð": 173,
      "ñ": 174,
      "ò": 175,
      "ó": 176,
      "ô": 177,
      "õ": 178,
      "ö": 179,
      "÷": 180,
      "ø": 181,
      "ù": 182,
      "ú": 183,
      "û": 184,
      "ü": 185,
      "ý": 186,
      "þ": 187,
      "ÿ": 188,
      "Ā": 189,
      "ā": 190,
      "Ă": 191,
      "ă": 192,
      "Ą": 193,
      "ą": 194,
      "Ć": 195,
      "ć": 196,
      "Ĉ": 197,
      "ĉ": 198,
      "Ċ": 199,
      "ċ": 200,
      "Č": 201,
      "č": 202,
      "Ď": 203,
      "ď": 204,
      "Đ": 205,
      "đ": 206,
      "Ē": 207,
      "ē": 208,
      "Ĕ": 209,
      "ĕ": 210,
      "Ė": 211,
      "ė": 212,
      "Ę": 213,
      "ę": 214,
      "Ě": 215,
      "ě": 216,
      "Ĝ": 217,
      "ĝ": 218,
      "Ğ": 219,
      "ğ": 220,
      "Ġ": 221,
      "ġ": 222,
      "Ģ": 223,
      "ģ": 224,
      "Ĥ": 225,
      "ĥ": 226,
      "Ħ": 227,
      "ħ": 228,
      "Ĩ": 229,
      "ĩ": 230,
      "Ī": 231,
      "ī": 232,
      "Ĭ": 233,
      "ĭ": 234,
      "Į": 235,
      "į": 236,
      "İ": 237,
      "ı": 238,
      "Ĳ": 239,
      "ĳ": 240,
      "Ĵ": 241,
      "ĵ": 242,
      "Ķ": 243,
      "ķ": 244,
      "ĸ": 245,
      "Ĺ": 246,
      "ĺ": 247,
      "Ļ": 248,
      "ļ": 249,
      "Ľ": 250,
      "ľ": 251,
      "Ŀ": 252,
      "ŀ": 253,
      "Ł": 254,
      "ł": 255,
      "Ń": 256,
      "ĠĠ": 257,
      "ĠĠĠĠ": 258,
      "ĠĠĠ": 259,
      "ĠĠĠĠĠĠĠĠ": 260,
      "ĠĠĠĠĠĠĠ": 261,
      "in": 262,
      "se": 263,
      "re": 264,
      "ĊĠĠĠĠĠĠĠ": 265,
      "ĊĠĠĠĠĠĠĠĠ": 266,
      "on": 267,
      "at": 268,
      "Ġt": 269,
      "er": 270,
      "or": 271,
      "st": 272,
      "en": 273,
      "Ġa": 274,
      "ĊĠĠĠ": 275,
      "Ġ=": 276,
      "Ġi": 277,
      "de": 278,
      "he": 279,
      "ar": 280,
      "al": 281,
      "le": 282,
      "me": 283,
      "ĊĠĠĠĠĠĠĠĠĠĠĠ": 284,
      "Ġf": 285,
      "Ġc": 286,
      "\"\"": 287,
      "ion": 288,
      "Ġre": 289,
      "lf": 290,
      "self": 291,
      "Ġp": 292,
      "ur": 293,
      "it": 294,
      "Ġn": 295,
      "Ġin": 296,
      "an": 297,
      "ct": 298,
      "Ġthe": 299,
      "ce": 300,
      "Ġo": 301,
      "Ġs": 302,
      "ro": 303,
      "ge": 304,
      "Ġe": 305,
      "ame": 306,
      "Ġif": 307,
      "ut": 308,
      "ing": 309,
      "lo": 310,
      "Ġ'": 311,
      "ue": 312,
      "Ġb": 313,
      "Ġd": 314,
      "Ġself": 315,
      "--": 316,
      "):": 317,
      "ent": 318,
      "pe": 319,
      "ĊĠĠĠĠĠĠĠĠĠĠĠĠĠĠĠĠ": 320,
      "urn": 321,
      "li": 322,
      "\"\"\"": 323,
      "turn": 324,
      "ate": 325,
      "Ġw": 326,
      "ĊĠĠĠĠĠĠĠĠĠĠĠĠĠĠĠ": 327,
      "fi": 328,
      "Ġm": 329,
      "ot": 330,
      "ss": 331,
      "un": 332,
      "Ġ\"\"\"": 333,
      "ra": 334,
      "Ġto": 335,
      "Ġ#": 336,
      "id": 337,
      "def": 338,
      "Ġfor": 339,
      "co": 340,
      "ĊĊĠĠĠĠĠĠĠ": 341,
      "mp": 342,
      "Ġis": 343,
      "ed": 344,
      "Ġreturn": 345,
      "ad": 346,
      "one": 347,
      "ul": 348,
      "la": 349,
      "val": 350,
      "Ġ(": 351,
      "Ġan": 352,
      "Ġof": 353,
      "Ġ:": 354,
      "ĊĊĠĠĠ": 355,
      "pt": 356,
      "Ġst": 357,
      "ch": 358,
      "ata": 359,
      "ri": 360,
      "is": 361,
      "ype": 362,
      "ck": 363,
      "um": 364,
      "()": 365,
      "il": 366,
      "get": 367,
      "name": 368,
      "None": 369,
      "ter": 370,
      "es": 371,
      "ĠT": 372,
      "am": 373,
      "di": 374,
      "ke": 375,
      "ex": 376,
      "Ġ\"": 377,
      "el": 378,
      "ation": 379,
      "ol": 380,
      "._": 381,
      "Ġnot": 382,
      "',": 383,
      "up": 384,
      "Ġse": 385,
      "par": 386,
      "th": 387,
      "ma": 388,
      "gs": 389,
      "ver": 390,
      "ath": 391,
      "Ġand": 392,
      "as": 393,
      "Ġcon": 394,
      "value": 395,
      "))": 396,
      "Ġth": 397,
      "ult": 398,
      "ction": 399,
      "----": 400,
      "ode": 401,
      "['": 402,
      "('": 403,
      "']": 404,
      "Ġex": 405,
      "con": 406,
      "ve": 407,
      "Ġl": 408,
      "Ġh": 409,
      "ror": 410,
      "key": 411,
      "ĊĠĠĠĠĠĠĠĠĠĠĠĠĠĠĠĠĠĠĠ": 412,
      "Ġbe": 413,
      "type": 414,
      "ble": 415,
      "ĊĠĠĠĠĠĠĠĠĠĠĠĠĠĠĠĠĠĠĠĠĠĠĠĠ": 416,
      "end": 417,
      "ser": 418,
      "list": 419,
      "ĠNone": 420,
      "Ġg": 421,
      "Ġfi": 422,
      "ta": 423,
      "orm": 424,
      "Ġ+": 425,
      "ime": 426,
      "int": 427,
      "Ġor": 428,
      "ect": 429,
      "pp": 430,
      "ith": 431,
      "Ġu": 432,
      "Ġco": 433,
      "bj": 434,
      "et": 435,
      "Ġ1": 436,
      "ĠA": 437,
      "od": 438,
      "')": 439,
      "param": 440,
      "sp": 441,
      "ig": 442,
      "ption": 443,
      "ext": 444,
      "':": 445,
      "and": 446,
      "iz": 447,
      "Ġ[": 448,
      "to": 449,
      "Ġ*": 450,
      "Ġ_": 451,
      "ment": 452,
      "qu": 453,
      "ĠI": 454,
      "Ġde": 455,
      "Ġ-": 456,
      "ort": 457,
      "Ġlo": 458,
      "Re": 459,
      "te": 460,
      "age": 461,
      "path": 462,
      "set": 463,
      "Ġel": 464,
      "Ġdi": 465,
      "Ġ`": 466,
      "Ġ{": 467,
      "form": 468,
      "Ġelse": 469,
      "str": 470,
      "args": 471,
      "Ġstr": 472,
      "rom": 473,
      "Ġr": 474,
      "vi": 475,
      "Ġme": 476,
      "file": 477,
      "po": 478,
      "ly": 479,
      "Ġdata": 480,
      "ise": 481,
      "ĠS": 482,
      "(\"": 483,
      "Ġ0": 484,
      "Ġas": 485,
      "ance": 486,
      "Ġ%": 487,
      "data": 488,
      "ren": 489,
      "ĠC": 490,
      "put": 491,
      "Ġvalue": 492,
      "ĠĠĠĠĠ": 493,
      "rue": 494,
      "Ġ==": 495,
      "rror": 496,
      "Error": 497,
      "Ġname": 498,
      "res": 499,
      "Ġpro": 500,
      "Ġpar": 501,
      "ry": 502,
      "Ġwith": 503,
      "ine": 504,
      "ord": 505,
      "ub": 506,
      "ase": 507,
      "Ġal": 508,
      "Ġar": 509,
      "que": 510,
      "cal": 511,
      "able": 512,
      "Ġra": 513,
      "ĠP": 514,
      "ĠF": 515,
      "ite": 516,
      "per": 517,
      "Ġres": 518,
      "ew": 519,
      "ist": 520,
      "ack": 521,
      "Ġma": 522,
      "stance": 523,
      "us": 524,
      "Ġfile": 525,
      "bject": 526,
      "ize": 527,
      "che": 528,
      "ci": 529,
      "\",": 530,
      ">>": 531,
      "alse": 532,
      "out": 533,
      "Ġv": 534,
      "),": 535,
      "ow": 536,
      "fo": 537,
      "fig": 538,
      "Ġlist": 539,
      "Ġfrom": 540,
      "ers": 541,
      "red": 542,
      "pro": 543,
      "app": 544,
      "mple": 545,
      "ts": 546,
      "ĠThe": 547,
      "tr": 548,
      "eld": 549,
      "time": 550,
      "Ġraise": 551,
      "ault": 552,
      "ĠĠĠĠĠĠĠĠĠĠĠĠĠĠĠĠ": 553,
      "kw": 554,
      "Ġdef": 555,
      "our": 556,
      "format": 557,
      "ms": 558,
      "Ġon": 559,
      "ĠRe": 560,
      "quest": 561,
      "Ġy": 562,
      "ure": 563,
      "..": 564,
      "Ġkey": 565,
      "date": 566,
      "ĠD": 567,
      "dex": 568,
      "\")": 569,
      "ĠE": 570,
      "ff": 571,
      "ĊĠĠĠĠĠĠĠĠĠĠĠĠĠĠĠĠĠĠĠĠĠĠĠ": 572,
      "art": 573,
      "ha": 574,
      "kwargs": 575,
      "])": 576,
      "ic": 577,
      "sion": 578,
      "all": 579,
      "lass": 580,
      "00": 581,
      "ray": 582,
      "rent": 583,
      "Ġthat": 584,
      "Ġwh": 585,
      "Ġx": 586,
      "ind": 587,
      "ĊĠĠĠĠĠ": 588,
      "ange": 589,
      "],": 590,
      "Ġthis": 591,
      "Ġget": 592,
      "ource": 593,
      "Ġ2": 594,
      "Ġlen": 595,
      "code": 596,
      "Ġout": 597,
      "Ġch": 598,
      "ht": 599,
      "sed": 600,
      "ill": 601,
      "und": 602,
      "len": 603,
      "text": 604,
      "tri": 605,
      "Ġlog": 606,
      "ust": 607,
      "iv": 608,
      "``": 609,
      "cess": 610,
      "atch": 611,
      "='": 612,
      "pre": 613,
      "add": 614,
      "url": 615,
      "mm": 616,
      "ameter": 617,
      "ĠN": 618,
      "error": 619,
      "Ġpo": 620,
      "Ġat": 621,
      "append": 622,
      "Ġset": 623,
      "ity": 624,
      "cept": 625,
      "Ġby": 626,
      "jo": 627,
      "thod": 628,
      "im": 629,
      "odel": 630,
      "ho": 631,
      "unt": 632,
      "''": 633,
      "ger": 634,
      "col": 635,
      "Ġ``": 636,
      "ip": 637,
      "ctor": 638,
      "ile": 639,
      "reate": 640,
      "dd": 641,
      "py": 642,
      "Ġpa": 643,
      "ug": 644,
      "Ġen": 645,
      "ition": 646,
      "Ġare": 647,
      "Ġresult": 648,
      "cl": 649,
      "ĊĊĠĠĠĠĠĠĠĠĠĠĠ": 650,
      "mo": 651,
      "ive": 652,
      "low": 653,
      "turns": 654,
      "pa": 655,
      "sc": 656,
      "lif": 657,
      "Ġdo": 658,
      "ument": 659,
      "ber": 660,
      "bo": 661,
      "pi": 662,
      "unction": 663,
      "Ġobject": 664,
      "==": 665,
      "ces": 666,
      "__": 667,
      "Ġtime": 668,
      "ary": 669,
      "ĠTrue": 670,
      ").": 671,
      "ĠM": 672,
      "Ġhe": 673,
      "--------": 674,
      "dict": 675,
      "spon": 676,
      "Ġit": 677,
      "Ġnp": 678,
      "instance": 679,
      "ĊĠ": 680,
      "read": 681,
      "ute": 682,
      "Ġcol": 683,
      "ample": 684,
      "Ġelif": 685,
      "der": 686,
      "Ġtype": 687,
      "roup": 688,
      "ĠIf": 689,
      "ssage": 690,
      "ps": 691,
      "Ġnew": 692,
      "Ġwe": 693,
      "Ġro": 694,
      "ĠV": 695,
      "Ġtry": 696,
      "rint": 697,
      "Ġla": 698,
      "om": 699,
      "Ġwill": 700,
      "Ġpre": 701,
      "info": 702,
      "ans": 703,
      "log": 704,
      "ule": 705,
      "Ġ<": 706,
      "ded": 707,
      "Ġ**": 708,
      "valid": 709,
      "Ġexcept": 710,
      "Ġpath": 711,
      "ign": 712,
      "Ġstring": 713,
      "Ġnum": 714,
      "ssion": 715,
      "ĠR": 716,
      "port": 717,
      "version": 718,
      "Ġun": 719,
      "peci": 720,
      "Ċĉ": 721,
      "Ġall": 722,
      "ĠL": 723,
      "ari": 724,
      "dir": 725,
      "Ġ)": 726,
      "True": 727,
      "ator": 728,
      "vent": 729,
      "Ġ{}": 730,
      "ca": 731,
      "Ġ>>": 732,
      "ork": 733,
      "op": 734,
      "ĠO": 735,
      "##": 736,
      "\":": 737,
      "sponse": 738,
      "cation": 739,
      "Ġ'''": 740,
      "ĠFalse": 741,
      "bel": 742,
      "class": 743,
      "ĠĠĠĠĠĠ": 744,
      "ery": 745,
      "Ġint": 746,
      "Ġ>>>": 747,
      "ild": 748,
      "ave": 749,
      "ĠU": 750,
      "ĠG": 751,
      "tain": 752,
      "mb": 753,
      "ception": 754,
      "[\"": 755,
      "ore": 756,
      "In": 757,
      "fe": 758,
      "ys": 759,
      "update": 760,
      "min": 761,
      "load": 762,
      "False": 763,
      "size": 764,
      "Ġcont": 765,
      "ken": 766,
      "ated": 767,
      "ameters": 768,
      "ph": 769,
      "Ġdefault": 770,
      "config": 771,
      "fa": 772,
      "'.": 773,
      "ĠReturns": 774,
      "mage": 775,
      "lock": 776,
      "Ġrequest": 777,
      "hape": 778,
      "lement": 779,
      "Ġk": 780,
      "Ġisinstance": 781,
      "loat": 782,
      "pla": 783,
      "sen": 784,
      "gument": 785,
      "ti": 786,
      "Ġcur": 787,
      "Ġ>": 788,
      "Ġfunction": 789,
      "ĠW": 790,
      "alue": 791,
      "ne": 792,
      "son": 793,
      "Ġos": 794,
      "heck": 795,
      "cur": 796,
      "line": 797,
      "os": 798,
      "Ġmethod": 799,
      ":`": 800,
      "string": 801,
      "Ġoption": 802,
      "lit": 803,
      "Ġid": 804,
      "vice": 805,
      "index": 806,
      "mat": 807,
      "ĊĠĠĠĠĠĠĠĠĠĠĠĠĠĠĠĠĠĠĠĠĠĠĠĠĠĠĠĠĠĠĠĠ": 808,
      "query": 809,
      "umn": 810,
      "Ġbo": 811,
      "ener": 812,
      "Ġhas": 813,
      "čĊĠĠĠĠĠĠĠ": 814,
      "Ġadd": 815,
      "Ġuser": 816,
      "join": 817,
      "Ġprint": 818,
      "\"]": 819,
      "Ġspeci": 820,
      "ĠB": 821,
      "Ġj": 822,
      "array": 823,
      "tra": 824,
      "uld": 825,
      "rite": 826,
      "Ġ[]": 827,
      "ĠTh": 828,
      "return": 829,
      "arget": 830,
      "ste": 831,
      "Ġfil": 832,
      "Ġ+=": 833,
      "ER": 834,
      "lient": 835,
      "trib": 836,
      "Ġcan": 837,
      "mmand": 838,
      "():": 839,
      "ther": 840,
      "Ġdict": 841,
      "attr": 842,
      "ag": 843,
      "Ġuse": 844,
      "ok": 845,
      "Ġline": 846,
      "yn": 847,
      "ial": 848,
      "sh": 849,
      ".__": 850,
      "num": 851,
      "back": 852,
      "if": 853,
      "Ġconfig": 854,
      "atus": 855,
      "ĊĠĠĠĠĠĠĠĠĠĠĠĠĠĠĠĠĠĠĠĠĠĠĠĠĠĠĠĠĠĠĠĠĠĠĠĠĠĠĠĠ": 856,
      "ask": 857,
      "scri": 858,
      "Ġsub": 859,
      "Ġle": 860,
      "Ġoutput": 861,
      "uth": 862,
      "ting": 863,
      "ir": 864,
      "unc": 865,
      "do": 866,
      "iven": 867,
      "Ġcomp": 868,
      "Ġnode": 869,
      "gth": 870,
      "Ġte": 871,
      "ant": 872,
      "Ġ/": 873,
      "ard": 874,
      "mport": 875,
      "word": 876,
      "ON": 877,
      "node": 878,
      "ĠThis": 879,
      "lin": 880,
      "base": 881,
      "Ġ\\": 882,
      "ty": 883,
      "ress": 884,
      "ll": 885,
      "Ġso": 886,
      "Ġne": 887,
      "Con": 888,
      "max": 889,
      "not": 890,
      "Ġfield": 891,
      "].": 892,
      "ĠEx": 893,
      "**": 894,
      "odule": 895,
      "own": 896,
      "ates": 897,
      "Ġvalues": 898,
      "ĠH": 899,
      "=\"": 900,
      "ĊĠĠĠĠĠĠĠĠĠĠĠĠĠĠĠĠĠĠĠĠĠĠĠĠĠĠĠ": 901,
      "fix": 902,
      "count": 903,
      "qui": 904,
      "Ġ3": 905,
      "cs": 906,
      "mpl": 907,
      "obj": 908,
      "Ġgiven": 909,
      "lot": 910,
      "Ġ..": 911,
      "mit": 912,
      "Ġapp": 913,
      "Ġerror": 914,
      "bug": 915,
      ".\"\"\"": 916,
      "rame": 917,
      "ĊĠĠĠĠĠĠĠĠĠ": 918,
      "by": 919,
      "ĠValue": 920,
      "user": 921,
      "ader": 922,
      "\".": 923,
      "cord": 924,
      "ec": 925,
      "ich": 926,
      "gra": 927,
      "da": 928,
      "Ġret": 929,
      "ml": 930,
      "Ġli": 931,
      "Ġmax": 932,
      "field": 933,
      "Ġresponse": 934,
      "Ġno": 935,
      "fied": 936,
      "pos": 937,
      "IN": 938,
      "ump": 939,
      "point": 940,
      "Ġite": 941,
      "ree": 942,
      "start": 943,
      "arch": 944,
      "Ġcall": 945,
      "group": 946,
      "uple": 947,
      "lic": 948,
      "Ġstart": 949,
      "ĠIn": 950,
      "tern": 951,
      "ach": 952,
      "vel": 953,
      "bs": 954,
      "Ġ!": 955,
      "Ġinput": 956,
      "rst": 957,
      "ning": 958,
      "map": 959,
      "ĠValueError": 960,
      "ude": 961,
      "([": 962,
      "AT": 963,
      "Ġ|": 964,
      "work": 965,
      "wa": 966,
      "Ġnumber": 967,
      "Ġmodel": 968,
      "Ġargs": 969,
      "act": 970,
      "split": 971,
      "Ġ!=": 972,
      "ls": 973,
      "Ġtr": 974,
      "sub": 975,
      "ang": 976,
      "Ġac": 977,
      "ence": 978,
      "ac": 979,
      "Ġcontain": 980,
      "Ġkwargs": 981,
      "ory": 982,
      "Ġwhich": 983,
      "result": 984,
      "Ġcheck": 985,
      "Ġz": 986,
      "sert": 987,
      "md": 988,
      "we": 989,
      "Ġmessage": 990,
      "Ġindex": 991,
      "ariable": 992,
      "Ex": 993,
      "Ġused": 994,
      "Ġinstance": 995,
      "uct": 996,
      "ST": 997,
      "ull": 998,
      "params": 999,
      "Ġcurrent": 1000,
      "default": 1001,
      "model": 1002,
      "ations": 1003,
      "bu": 1004,
      "Ġarray": 1005,
      "ound": 1006,
      "{}": 1007,
      "ep": 1008,
      "comp": 1009,
      "Ġcreate": 1010,
      "from": 1011,
      "'s": 1012,
      "Ġser": 1013,
      "Ġend": 1014,
      "ak": 1015,
      "RE": 1016,
      "its": 1017,
      "ding": 1018,
      "ses": 1019,
      "ies": 1020,
      "state": 1021,
      "Ġone": 1022,
      "Ġimport": 1023,
      "Ġ--------": 1024,
      "hould": 1025,
      "ifi": 1026,
      "ĠAr": 1027,
      "ds": 1028,
      "Ġper": 1029,
      "values": 1030,
      "Ġparam": 1031,
      "Ġfa": 1032,
      "ĠPar": 1033,
      "request": 1034,
      "ron": 1035,
      "iter": 1036,
      "Ġfloat": 1037,
      "Ġax": 1038,
      "nel": 1039,
      "Ġpass": 1040,
      "ight": 1041,
      "ject": 1042,
      "lat": 1043,
      "sing": 1044,
      "stri": 1045,
      "Ġrange": 1046,
      "place": 1047,
      "option": 1048,
      "debug": 1049,
      "shape": 1050,
      "())": 1051,
      "spa": 1052,
      "ils": 1053,
      "for": 1054,
      "move": 1055,
      "ctory": 1056,
      "[:": 1057,
      "label": 1058,
      "Ġ}": 1059,
      "object": 1060,
      "pect": 1061,
      "Ġbase": 1062,
      "write": 1063,
      "ten": 1064,
      "tent": 1065,
      "ax": 1066,
      "ual": 1067,
      "Ġmust": 1068,
      "====": 1069,
      "Ċĉĉ": 1070,
      "row": 1071,
      "ream": 1072,
      "pen": 1073,
      "Ġformat": 1074,
      "tp": 1075,
      "01": 1076,
      "Ġonly": 1077,
      "Ġdire": 1078,
      "'):": 1079,
      "com": 1080,
      "Ġshould": 1081,
      "with": 1082,
      "Ġargument": 1083,
      "Ġcal": 1084,
      "Ġrun": 1085,
      "Ġurl": 1086,
      "so": 1087,
      "vert": 1088,
      "Ġca": 1089,
      "ature": 1090,
      "Ġbu": 1091,
      "items": 1092,
      "sor": 1093,
      "be": 1094,
      "inter": 1095,
      "Ġhave": 1096,
      "Ġcode": 1097,
      "ef": 1098,
      "Ġversion": 1099,
      "Ġent": 1100,
      "Ġsu": 1101,
      "Ġdis": 1102,
      "ost": 1103,
      "'t": 1104,
      "Ġreg": 1105,
      "Ġtext": 1106,
      "json": 1107,
      "led": 1108,
      "gn": 1109,
      "tes": 1110,
      "og": 1111,
      "reg": 1112,
      "Ġmin": 1113,
      "ote": 1114,
      "np": 1115,
      "Ġvalid": 1116,
      "ou": 1117,
      "Ġstate": 1118,
      "Ġsh": 1119,
      "Ġeach": 1120,
      "ctions": 1121,
      "Type": 1122,
      "inal": 1123,
      "Ġquery": 1124,
      "run": 1125,
      "igh": 1126,
      "####": 1127,
      "Ġexist": 1128,
      "ield": 1129,
      "Ġsup": 1130,
      "Ġinter": 1131,
      "Ġimage": 1132,
      "ab": 1133,
      "space": 1134,
      "Ġevent": 1135,
      "keys": 1136,
      "Ġany": 1137,
      "func": 1138,
      "Ġlogger": 1139,
      "Ġmat": 1140,
      "Ġread": 1141,
      "nd": 1142,
      "Ġitem": 1143,
      "lay": 1144,
      "'],": 1145,
      "Ke": 1146,
      "ler": 1147,
      "Ġcolumn": 1148,
      "Ġmatch": 1149,
      "feren": 1150,
      "ref": 1151,
      "Ġ@": 1152,
      "arg": 1153,
      "thon": 1154,
      "df": 1155,
      "//": 1156,
      "adata": 1157,
      "][": 1158,
      "mplate": 1159,
      "ments": 1160,
      "lename": 1161,
      "ix": 1162,
      "ical": 1163,
      "idth": 1164,
      "Ġtarget": 1165,
      "Ġlin": 1166,
      "Ġrow": 1167,
      "ename": 1168,
      "cket": 1169,
      "Ġpy": 1170,
      "ution": 1171,
      "LE": 1172,
      "tribute": 1173,
      "ID": 1174,
      "Ġother": 1175,
      "aders": 1176,
      "Ġup": 1177,
      "Ġsource": 1178,
      "output": 1179,
      "names": 1180,
      "andle": 1181,
      "message": 1182,
      "Ġspecified": 1183,
      "ĠParameters": 1184,
      "fil": 1185,
      "filename": 1186,
      "Name": 1187,
      "OR": 1188,
      "::": 1189,
      "sum": 1190,
      "clude": 1191,
      "((": 1192,
      "alt": 1193,
      "token": 1194,
      "Ġ4": 1195,
      "here": 1196,
      "call": 1197,
      "Ġfirst": 1198,
      "ME": 1199,
      "Ġgroup": 1200,
      "Ġtrans": 1201,
      "lob": 1202,
      "Ġclass": 1203,
      "status": 1204,
      "ĠArgs": 1205,
      "new": 1206,
      "lable": 1207,
      "lect": 1208,
      "itle": 1209,
      "ft": 1210,
      "Ġparams": 1211,
      "Ġoptional": 1212,
      "Ġdate": 1213,
      "rid": 1214,
      "parse": 1215,
      "table": 1216,
      "main": 1217,
      "Ġelement": 1218,
      "Ġ----------": 1219,
      "Co": 1220,
      "nection": 1221,
      "St": 1222,
      "annel": 1223,
      "Ġbool": 1224,
      "Ġwhen": 1225,
      "si": 1226,
      "Ġcommand": 1227,
      "ched": 1228,
      "Ġover": 1229,
      "Ġtra": 1230,
      "input": 1231,
      "Key": 1232,
      "block": 1233,
      "://": 1234,
      "sk": 1235,
      "uration": 1236,
      "Ġupdate": 1237,
      "view": 1238,
      "amples": 1239,
      "Ġpos": 1240,
      "Ġsize": 1241,
      "Ġinto": 1242,
      "Ġtuple": 1243,
      "'])": 1244,
      "tadata": 1245,
      "etwork": 1246,
      "method": 1247,
      "item": 1248,
      "pts": 1249,
      "orre": 1250,
      "rig": 1251,
      "av": 1252,
      "Ġfiles": 1253,
      "ted": 1254,
      "check": 1255,
      "lib": 1256,
      "ĊĊĠĠĠĠĠĠĠĠĠĠĠĠĠĠĠ": 1257,
      "ctionary": 1258,
      "ĠCon": 1259,
      "scription": 1260,
      "Ġ{'": 1261,
      "api": 1262,
      "Ġcontin": 1263,
      "sg": 1264,
      "utes": 1265,
      "yste": 1266,
      "Ġfilename": 1267,
      "Ġlabel": 1268,
      "Ġtoken": 1269,
      "ong": 1270,
      "use": 1271,
      "rc": 1272,
      "Ġcontent": 1273,
      "var": 1274,
      "rix": 1275,
      "source": 1276,
      "arning": 1277,
      "Data": 1278,
      "().": 1279,
      "Ġtable": 1280,
      "DE": 1281,
      "old": 1282,
      "lete": 1283,
      "čĊĠĠĠĠĠĠĠĠĠĠĠ": 1284,
      "ash": 1285,
      "Ġgener": 1286,
      "Ġpoint": 1287,
      "filter": 1288,
      "ody": 1289,
      "Ġfound": 1290,
      "no": 1291,
      "mi": 1292,
      "itial": 1293,
      "Ġsp": 1294,
      "Ġver": 1295,
      "unk": 1296,
      "create": 1297,
      "Ġpl": 1298,
      "ĠX": 1299,
      "ins": 1300,
      "nect": 1301,
      "oth": 1302,
      "Ġ----": 1303,
      "job": 1304,
      "clo": 1305,
      "ark": 1306,
      "amp": 1307,
      "types": 1308,
      "ous": 1309,
      "ures": 1310,
      "umpy": 1311,
      "ume": 1312,
      "Ġvariable": 1313,
      "pec": 1314,
      "Ġcontinue": 1315,
      "process": 1316,
      "cre": 1317,
      "ackage": 1318,
      "face": 1319,
      "host": 1320,
      "lean": 1321,
      "off": 1322,
      "content": 1323,
      "---": 1324,
      "ai": 1325,
      "(),": 1326,
      "PI": 1327,
      "Par": 1328,
      "Ġopen": 1329,
      "ference": 1330,
      "Id": 1331,
      "action": 1332,
      "length": 1333,
      "client": 1334,
      "tings": 1335,
      "response": 1336,
      "ids": 1337,
      "cy": 1338,
      "AR": 1339,
      "ormal": 1340,
      "Ġht": 1341,
      "Ġ->": 1342,
      "files": 1343,
      "raw": 1344,
      "Ġusing": 1345,
      "event": 1346,
      "ay": 1347,
      "AL": 1348,
      "Ġthen": 1349,
      "Ġobj": 1350,
      "SE": 1351,
      "cent": 1352,
      "10": 1353,
      "ging": 1354,
      "onent": 1355,
      "ries": 1356,
      "Ġbut": 1357,
      "Ġdoes": 1358,
      "module": 1359,
      "msg": 1360,
      "Ġfilter": 1361,
      "image": 1362,
      ")))": 1363,
      "andler": 1364,
      "Pro": 1365,
      "err": 1366,
      "ystem": 1367,
      "quence": 1368,
      "ped": 1369,
      "AN": 1370,
      "Ġ__": 1371,
      "sent": 1372,
      "ast": 1373,
      "`.": 1374,
      "Ġass": 1375,
      "dis": 1376,
      "ized": 1377,
      "Ġwork": 1378,
      "db": 1379,
      "core": 1380,
      "Ġcontext": 1381,
      "Ġiter": 1382,
      "Ġmo": 1383,
      "column": 1384,
      "Ġ...": 1385,
      "ors": 1386,
      "lp": 1387,
      "men": 1388,
      "ĠJ": 1389,
      "float": 1390,
      "Ġdoc": 1391,
      "plot": 1392,
      "quired": 1393,
      "ats": 1394,
      "Ġsign": 1395,
      "Ġmodule": 1396,
      "Ġresults": 1397,
      "cul": 1398,
      "pop": 1399,
      "trans": 1400,
      "Ġmsg": 1401,
      "lection": 1402,
      "ĊĠĠĠĠĠĠĠĠĠĠĠĠĠĠĠĠĠĠĠĠĠĠĠĠĠĠĠĠĠĠĠ": 1403,
      "ĊĠĠĠĠ": 1404,
      "idx": 1405,
      "]:": 1406,
      "mt": 1407,
      "Ġgra": 1408,
      "otal": 1409,
      "pping": 1410,
      "target": 1411,
      "match": 1412,
      "ches": 1413,
      "auth": 1414,
      "Ġassert": 1415,
      "dire": 1416,
      "cale": 1417,
      "andom": 1418,
      "rial": 1419,
      "Ġdictionary": 1420,
      "ns": 1421,
      "pri": 1422,
      "Se": 1423,
      "Ġdefin": 1424,
      "indow": 1425,
      "Ġfe": 1426,
      "chema": 1427,
      "Ġclient": 1428,
      "attern": 1429,
      "ĠSe": 1430,
      "Ġlength": 1431,
      "cls": 1432,
      "context": 1433,
      "ĊĠĠĠĠĠĠĠĠĠĠ": 1434,
      "iled": 1435,
      "pr": 1436,
      "io": 1437,
      "Ġyou": 1438,
      "link": 1439,
      "rtype": 1440,
      "Ġsort": 1441,
      "Ġ['": 1442,
      "mpty": 1443,
      "Ġwhile": 1444,
      "ap": 1445,
      "tag": 1446,
      "Ġjson": 1447,
      "Ġblock": 1448,
      "Ġ--": 1449,
      "Ġ.": 1450,
      "ld": 1451,
      "Ġparameters": 1452,
      "Res": 1453,
      "fore": 1454,
      "reak": 1455,
      "ync": 1456,
      "Ġreturns": 1457,
      "Ġoptions": 1458,
      "TE": 1459,
      "tx": 1460,
      "utils": 1461,
      "Ġresource": 1462,
      "ible": 1463,
      "of": 1464,
      "ĊĊĠ": 1465,
      "command": 1466,
      "pl": 1467,
      "level": 1468,
      "ved": 1469,
      "find": 1470,
      "Ġprocess": 1471,
      "Ġarguments": 1472,
      "Ġrecord": 1473,
      "Get": 1474,
      "Ġwas": 1475,
      "ating": 1476,
      "Ġoff": 1477,
      "cond": 1478,
      "Ġprovi": 1479,
      "Ġorder": 1480,
      "Ġlast": 1481,
      "ccess": 1482,
      "Ġauth": 1483,
      "mbda": 1484,
      "ud": 1485,
      "Ġcorre": 1486,
      "Ġact": 1487,
      "Ġval": 1488,
      "resh": 1489,
      "Ġpri": 1490,
      "options": 1491,
      "Ġuni": 1492,
      "Ġparameter": 1493,
      "Ġ5": 1494,
      "range": 1495,
      "pend": 1496,
      "Ġcls": 1497,
      ")]": 1498,
      "Ġparent": 1499,
      "Ġav": 1500,
      "[-": 1501,
      "ĠException": 1502,
      "nt": 1503,
      "fter": 1504,
      "Ġqu": 1505,
      "Ġoper": 1506,
      "Ġextra": 1507,
      "Ġhost": 1508,
      "TI": 1509,
      "Ġyield": 1510,
      "sign": 1511,
      "Ġ('": 1512,
      "ify": 1513,
      "Ġ-------": 1514,
      "Ġta": 1515,
      "ifier": 1516,
      "Ġback": 1517,
      "formation": 1518,
      "Ġsc": 1519,
      "Ġreturned": 1520,
      "ĊĠĠĠĠĠĠĠĠĠĠĠĠĠ": 1521,
      "Ġindi": 1522,
      "ĠQ": 1523,
      "queue": 1524,
      "play": 1525,
      "right": 1526,
      "Ġsame": 1527,
      "ready": 1528,
      "root": 1529,
      "File": 1530,
      "ĠY": 1531,
      "session": 1532,
      "Ġcase": 1533,
      "Ġserver": 1534,
      "coding": 1535,
      "cate": 1536,
      "viron": 1537,
      "lines": 1538,
      "Ġad": 1539,
      "ĠCo": 1540,
      "replace": 1541,
      "Ġchange": 1542,
      "Ġstatus": 1543,
      "Ġnames": 1544,
      "man": 1545,
      "Ġtask": 1546,
      "Ġfol": 1547,
      "Ġdirectory": 1548,
      "Ġneed": 1549,
      "imum": 1550,
      "doc": 1551,
      "čĊĠĠĠ": 1552,
      "64": 1553,
      "Ġproper": 1554,
      "temp": 1555,
      "ran": 1556,
      "Ġq": 1557,
      "iss": 1558,
      "rit": 1559,
      "Ġchar": 1560,
      "32": 1561,
      "strip": 1562,
      "Ġparser": 1563,
      "Set": 1564,
      "Ġmode": 1565,
      "Ġsys": 1566,
      "'))": 1567,
      "Ġpart": 1568,
      "Ġarg": 1569,
      "Ġmult": 1570,
      "efault": 1571,
      "stamp": 1572,
      "PE": 1573,
      "su": 1574,
      "Ġed": 1575,
      "Ġwhere": 1576,
      "mode": 1577,
      "ner": 1578,
      "number": 1579,
      "Ar": 1580,
      "xy": 1581,
      "width": 1582,
      "Ġdiff": 1583,
      "Ġshape": 1584,
      "ĊĠĠĠĠĠĠĠĠĠĠĠĠ": 1585,
      "ome": 1586,
      "frame": 1587,
      "Ġmake": 1588,
      "color": 1589,
      "tributes": 1590,
      "store": 1591,
      "current": 1592,
      "rt": 1593,
      "copy": 1594,
      "12": 1595,
      "Ġload": 1596,
      "Ġkeys": 1597,
      "ĠID": 1598,
      "List": 1599,
      ")):": 1600,
      "ain": 1601,
      "req": 1602,
      "itions": 1603,
      "RL": 1604,
      "Ġaction": 1605,
      "ĠAn": 1606,
      "Ġheader": 1607,
      "Ġtf": 1608,
      "'),": 1609,
      "prefix": 1610,
      "Ġfind": 1611,
      "wise": 1612,
      "change": 1613,
      "ization": 1614,
      "Ġcount": 1615,
      "order": 1616,
      "TP": 1617,
      "cmd": 1618,
      "Ġnext": 1619,
      "vid": 1620,
      "comm": 1621,
      "Un": 1622,
      "gen": 1623,
      "are": 1624,
      "ĠGet": 1625,
      "loc": 1626,
      "Ġbreak": 1627,
      "cache": 1628,
      "lower": 1629,
      "Ġaxis": 1630,
      "})": 1631,
      "ative": 1632,
      "Ġtag": 1633,
      "De": 1634,
      "uri": 1635,
      "les": 1636,
      "Ġlocal": 1637,
      "lobal": 1638,
      "last": 1639,
      "ailable": 1640,
      "Ġnumpy": 1641,
      "arts": 1642,
      "Ġident": 1643,
      "ffer": 1644,
      "Ġport": 1645,
      "(*": 1646,
      "ingle": 1647,
      "Ġtimeout": 1648,
      "Ġparse": 1649,
      "fields": 1650,
      "Ġcolor": 1651,
      "AC": 1652,
      "Ġsession": 1653,
      "header": 1654,
      "resource": 1655,
      "ĠReturn": 1656,
      "Ġrepre": 1657,
      "ises": 1658,
      "limit": 1659,
      "Ġallow": 1660,
      "address": 1661,
      "print": 1662,
      "function": 1663,
      "ĠType": 1664,
      "'].": 1665,
      "Ġmore": 1666,
      "EN": 1667,
      "lease": 1668,
      "Ġchild": 1669,
      "na": 1670,
      "axis": 1671,
      "ties": 1672,
      "uto": 1673,
      "ustom": 1674,
      "Ġthan": 1675,
      "...": 1676,
      "Ġalready": 1677,
      "']:": 1678,
      "lication": 1679,
      "du": 1680,
      "Ġplot": 1681,
      "Ġdel": 1682,
      "ell": 1683,
      "vis": 1684,
      "To": 1685,
      "Ġpage": 1686,
      "search": 1687,
      "ols": 1688,
      "DO": 1689,
      "Ġinte": 1690,
      "Element": 1691,
      "argument": 1692,
      "Ġdtype": 1693,
      "},": 1694,
      "vector": 1695,
      "ĠFor": 1696,
      "Ġag": 1697,
      "Ġ'.": 1698,
      "Ġmay": 1699,
      "conds": 1700,
      "cor": 1701,
      "Ġdf": 1702,
      "Ġorig": 1703,
      "Ġsupport": 1704,
      "uid": 1705,
      "Ġexception": 1706,
      "ternal": 1707,
      "exist": 1708,
      "task": 1709,
      "server": 1710,
      "Ġfla": 1711,
      "stream": 1712,
      "Ġobjects": 1713,
      "ster": 1714,
      "graph": 1715,
      "Ġservice": 1716,
      "Exception": 1717,
      "Ġthere": 1718,
      "Me": 1719,
      "ĊĠĠĠĠĠĠ": 1720,
      "ymb": 1721,
      "Ġpas": 1722,
      "Ġman": 1723,
      "ib": 1724,
      "http": 1725,
      "struct": 1726,
      "Ġheaders": 1727,
      "Ġroot": 1728,
      "FI": 1729,
      "Ġinfo": 1730,
      "ister": 1731,
      "Ġref": 1732,
      "Ġfields": 1733,
      "mary": 1734,
      "ĊĠĠĠĠĠĠĠĠĊĠĠĠĠĠĠĠ": 1735,
      "Ġsingle": 1736,
      "Ċĉĉĉ": 1737,
      "title": 1738,
      "SS": 1739,
      "like": 1740,
      "Ġtw": 1741,
      "tps": 1742,
      "pass": 1743,
      "top": 1744,
      "Ġtest": 1745,
      "parent": 1746,
      "========": 1747,
      "child": 1748,
      "atures": 1749,
      "open": 1750,
      "offset": 1751,
      "zer": 1752,
      "yload": 1753,
      "mail": 1754,
      "element": 1755,
      "Ġexec": 1756,
      "Ġprovided": 1757,
      "Ġdest": 1758,
      "mplement": 1759,
      "pth": 1760,
      "Ġlay": 1761,
      "net": 1762,
      "fy": 1763,
      "stra": 1764,
      "Ġcmd": 1765,
      "LO": 1766,
      "ose": 1767,
      "mension": 1768,
      "script": 1769,
      "Ġenum": 1770,
      "Ġbet": 1771,
      "Ġsearch": 1772,
      "part": 1773,
      "Di": 1774,
      "]]": 1775,
      "Value": 1776,
      "pected": 1777,
      "Ġlimit": 1778,
      "hether": 1779,
      "Ġform": 1780,
      "RO": 1781,
      "Ġhelp": 1782,
      "uster": 1783,
      "Ġcallback": 1784,
      "exec": 1785,
      "Ġentry": 1786,
      "ĠKey": 1787,
      "Ġpi": 1788,
      "Ġinformation": 1789,
      "Ġoffset": 1790,
      "ager": 1791,
      "Ġ>=": 1792,
      "`,": 1793,
      "----------------": 1794,
      "Ġtemp": 1795,
      "Ġ'%": 1796,
      "Ġtemplate": 1797,
      "']['": 1798,
      "Ġjob": 1799,
      "mission": 1800,
      "mote": 1801,
      "wait": 1802,
      "gor": 1803,
      "ential": 1804,
      "Ġproject": 1805,
      "Ġlevel": 1806,
      "ĠDefault": 1807,
      "env": 1808,
      "local": 1809,
      "Ġstream": 1810,
      "Ġnon": 1811,
      "quen": 1812,
      "ĠSet": 1813,
      "########": 1814,
      "Ġlogging": 1815,
      "cli": 1816,
      "page": 1817,
      "yle": 1818,
      "Ġinclude": 1819,
      "Return": 1820,
      "pha": 1821,
      "(_": 1822,
      "Ġpassed": 1823,
      "ween": 1824,
      "exception": 1825,
      "Frame": 1826,
      "Ġfunc": 1827,
      "Ġattribute": 1828,
      "mask": 1829,
      "record": 1830,
      "Ġsome": 1831,
      "ide": 1832,
      "erge": 1833,
      "gment": 1834,
      "test": 1835,
      "gram": 1836,
      "GE": 1837,
      "ret": 1838,
      "contain": 1839,
      "ĊĠĠĠĠĠĠĠĠĠĠĠĠĠĠĠĠĠ": 1840,
      "ĠWe": 1841,
      "close": 1842,
      "({": 1843,
      "LI": 1844,
      "round": 1845,
      "cope": 1846,
      "000": 1847,
      "Ġhasattr": 1848,
      "uni": 1849,
      "ql": 1850,
      "mag": 1851,
      "returns": 1852,
      "Ġcl": 1853,
      "flow": 1854,
      "Ġits": 1855,
      "html": 1856,
      "Ġword": 1857,
      "Ġprefix": 1858,
      "Ġcontaining": 1859,
      "Ġinst": 1860,
      "Ġlines": 1861,
      "Ġab": 1862,
      "ML": 1863,
      "Ġph": 1864,
      "Ġexp": 1865,
      "Ġbytes": 1866,
      "util": 1867,
      "nown": 1868,
      "bytes": 1869,
      "Ġattr": 1870,
      "Ġ<=": 1871,
      "ĊĠĠĠĠĠĠĠĠĠĠĠĠĠĠĠĠĠĠĠĠĠ": 1872,
      "exp": 1873,
      "gener": 1874,
      "hash": 1875,
      "Ġ\"\"": 1876,
      "Lo": 1877,
      "dered": 1878,
      "SI": 1879,
      "CO": 1880,
      "Ġremove": 1881,
      "starts": 1882,
      "Ġcoord": 1883,
      "cat": 1884,
      "ĠData": 1885,
      "las": 1886,
      "Ser": 1887,
      "bin": 1888,
      "ĠAdd": 1889,
      "Ġsalt": 1890,
      "Ġvi": 1891,
      "Ġwrite": 1892,
      "Ġmetadata": 1893,
      "Ġsum": 1894,
      "ĊĠĠĠĠĠĠĠĠĠĠĠĠĠĠĠĠĠĠĠĠĠĠĠĠĠĠĠĠĠĠĠĠĠĠĠĠĠĠĠĠĠĠĠĠĠĠĠĠ": 1895,
      "the": 1896,
      "remove": 1897,
      "Ġign": 1898,
      "ĠPy": 1899,
      "bose": 1900,
      "init": 1901,
      "Ġ&": 1902,
      "project": 1903,
      "Ġmatrix": 1904,
      "Ġafter": 1905,
      "``.": 1906,
      "std": 1907,
      "Ġinitial": 1908,
      "Ġmap": 1909,
      "ugh": 1910,
      "Ġcache": 1911,
      "char": 1912,
      "fn": 1913,
      "points": 1914,
      "ĠCreate": 1915,
      "term": 1916,
      "erate": 1917,
      "metadata": 1918,
      "headers": 1919,
      "Ġcopy": 1920,
      "Ġaddress": 1921,
      "orage": 1922,
      "tree": 1923,
      "Ġlocation": 1924,
      "callback": 1925,
      "ities": 1926,
      "mon": 1927,
      "encode": 1928,
      "Ġitems": 1929,
      "connect": 1930,
      ".')": 1931,
      "Ġsample": 1932,
      "ĠDe": 1933,
      "parser": 1934,
      "pack": 1935,
      "send": 1936,
      "Ġconvert": 1937,
      "box": 1938,
      "qual": 1939,
      "Ġbefore": 1940,
      "pper": 1941,
      "[:,": 1942,
      "Ġcomple": 1943,
      "Ġ6": 1944,
      "Ġdatetime": 1945,
      "del": 1946,
      "datetime": 1947,
      "]))": 1948,
      "sort": 1949,
      "ility": 1950,
      "25": 1951,
      "ĊĠĠĠĠĠĠĠĠĠĠĠĠĠĠĠĠĠĠĠĠ": 1952,
      ".\")": 1953,
      "ass": 1954,
      "Ġbody": 1955,
      "Ġrequired": 1956,
      "location": 1957,
      "ux": 1958,
      "ear": 1959,
      "ident": 1960,
      "channel": 1961,
      "TTP": 1962,
      "vo": 1963,
      "iod": 1964,
      "Ġbetween": 1965,
      "Ġpackage": 1966,
      "cry": 1967,
      "ĠTypeError": 1968,
      "olume": 1969,
      "ither": 1970,
      "Ġlink": 1971,
      "template": 1972,
      "coun": 1973,
      "Ġspecifi": 1974,
      "lation": 1975,
      "go": 1976,
      "tric": 1977,
      "UT": 1978,
      "rap": 1979,
      "build": 1980,
      "service": 1981,
      "tring": 1982,
      "Ġcomm": 1983,
      "itional": 1984,
      "handle": 1985,
      "startswith": 1986,
      "Ġdataset": 1987,
      "čĊ": 1988,
      "logger": 1989,
      "Ġtop": 1990,
      "Ġclo": 1991,
      "Ġfollow": 1992,
      "Ġgen": 1993,
      "post": 1994,
      "gr": 1995,
      "Ġframe": 1996,
      "ful": 1997,
      "ownload": 1998,
      "ights": 1999,
      "verse": 2000,
      "Ġter": 2001,
      "Ġerrors": 2002,
      "}'.": 2003,
      "Ġfull": 2004,
      "Ġstruct": 2005,
      "Ġsequence": 2006,
      "Ġnormal": 2007,
      "Ġavailable": 2008,
      "ĊĠĠĠĠĠĠĠĠĠĠĠĠĠĠĠĠĠĠ": 2009,
      "Time": 2010,
      "Ġgraph": 2011,
      ".,": 2012,
      "ular": 2013,
      "UL": 2014,
      "ĠK": 2015,
      "dtype": 2016,
      "cer": 2017,
      "wer": 2018,
      "ĠAPI": 2019,
      "RI": 2020,
      "Ġconnection": 2021,
      "Ġchannel": 2022,
      "Ġgetattr": 2023,
      "pol": 2024,
      "fla": 2025,
      "idget": 2026,
      "Ġmem": 2027,
      "ĠList": 2028,
      "dim": 2029,
      "\"):": 2030,
      "ĊĠĠĠĠĠĠĠĠĠĠĠĠĠĠĠĠĠĠĠĠĠĠĠĠĠĠĠĠĠĠĠĠĠĠĠ": 2031,
      "timeout": 2032,
      "Ġ10": 2033,
      "Ġconfiguration": 2034,
      "Ġthread": 2035,
      "bar": 2036,
      "exists": 2037,
      "Ġcom": 2038,
      "variable": 2039,
      "bool": 2040,
      "ĠPro": 2041,
      "Ġtwo": 2042,
      "ification": 2043,
      "bro": 2044,
      "pression": 2045,
      "ens": 2046,
      "Ġdevice": 2047,
      "99": 2048,
      "licy": 2049,
      "ĊĠĠĠĠĊĠĠĠ": 2050,
      "izer": 2051,
      "only": 2052,
      "mod": 2053,
      "SON": 2054,
      "Ġcolumns": 2055,
      "ĊĠĠĠĠĠĠĠĠĠĠĠĠĠĠ": 2056,
      "ored": 2057,
      "ĊĠĠĠĠĠĠĠĠĠĠĠĠĠĠĠĠĠĠĠĠĠĠĠĠĠĠĠĠ": 2058,
      "Ġvar": 2059,
      "bit": 2060,
      "={": 2061,
      "ward": 2062,
      "Ġold": 2063,
      "ges": 2064,
      "fer": 2065,
      "stack": 2066,
      "ensor": 2067,
      "Ġenumerate": 2068,
      "nodes": 2069,
      "Ġnetwork": 2070,
      ":]": 2071,
      "Ġdb": 2072,
      "MA": 2073,
      "ination": 2074,
      "ĊĠĠĠĠĠĠĠĠĠĠĠĠĠĠĠĠĠĠĠĠĠĠĠĠĠ": 2075,
      "cf": 2076,
      "Ġempty": 2077,
      "spec": 2078,
      "ym": 2079,
      "serial": 2080,
      "16": 2081,
      "rs": 2082,
      "arn": 2083,
      "0000": 2084,
      "ice": 2085,
      "Ġ]": 2086,
      "ank": 2087,
      "ĠUn": 2088,
      "est": 2089,
      "Ġdocument": 2090,
      "Ġhandle": 2091,
      "xml": 2092,
      "Ġbuild": 2093,
      "Ġsorted": 2094,
      "AD": 2095,
      "Ġapi": 2096,
      "let": 2097,
      "Ġraw": 2098,
      "etch": 2099,
      "Ġali": 2100,
      "mem": 2101,
      "tuple": 2102,
      "ptional": 2103,
      "very": 2104,
      "]['": 2105,
      "ING": 2106,
      "Ġlook": 2107,
      "Ġ8": 2108,
      "my": 2109,
      "pub": 2110,
      "abled": 2111,
      "utf": 2112,
      "itor": 2113,
      "Ġerr": 2114,
      "NA": 2115,
      "Sub": 2116,
      "pk": 2117,
      "settings": 2118,
      "results": 2119,
      "delete": 2120,
      "cho": 2121,
      "Ġtotal": 2122,
      "sample": 2123,
      "Ġcalled": 2124,
      "TY": 2125,
      "Add": 2126,
      "ĊĠĠĠĠĠĠĠĠĠĠĠĠĠĠĠĠĠĠĠĠĠĠ": 2127,
      "Ġalso": 2128,
      "Ġsk": 2129,
      "Ġ''": 2130,
      "ions": 2131,
      "The": 2132,
      "ics": 2133,
      "Ġcalcul": 2134,
      "ont": 2135,
      "opts": 2136,
      "Ġbeen": 2137,
      "cle": 2138,
      "proper": 2139,
      "Ġcreated": 2140,
      "ĠTO": 2141,
      "over": 2142,
      "body": 2143,
      "Ġnamespace": 2144,
      "Ġpassword": 2145,
      "vals": 2146,
      "Ġnodes": 2147,
      "ĠCheck": 2148,
      "ait": 2149,
      "warning": 2150,
      "Ġchunk": 2151,
      "Ġbin": 2152,
      "Ġtitle": 2153,
      "ends": 2154,
      "meta": 2155,
      "11": 2156,
      "Ġexten": 2157,
      "ĠSt": 2158,
      "parameters": 2159,
      "ymbol": 2160,
      "rop": 2161,
      "vironment": 2162,
      "ants": 2163,
      "seq": 2164,
      "now": 2165,
      "iple": 2166,
      "=[": 2167,
      "angu": 2168,
      "anguage": 2169,
      "org": 2170,
      "Ġlat": 2171,
      "grid": 2172,
      "Ġdescription": 2173,
      "other": 2174,
      "pon": 2175,
      "Ġexists": 2176,
      "quire": 2177,
      "container": 2178,
      "Ġdiffe": 2179,
      "čĊĠĠĠĠĠĠĠĠĠĠĠĠĠĠĠ": 2180,
      "riter": 2181,
      "lambda": 2182,
      "Fa": 2183,
      "lper": 2184,
      "ĠNot": 2185,
      "itude": 2186,
      "next": 2187,
      "decode": 2188,
      "Ġsave": 2189,
      "Ġlike": 2190,
      "Ġmask": 2191,
      "Ġsee": 2192,
      "Ġcomponent": 2193,
      "entry": 2194,
      "Ġfinal": 2195,
      "issing": 2196,
      "ĠRa": 2197,
      "Ġpoints": 2198,
      "Ġbound": 2199,
      "save": 2200,
      "istr": 2201,
      "ĊĠĠĠĠĠĠĠĠĠĠĠĠĠĠĠĠĠĠĠĠĠĠĠĠĠĠĠĠĠĠĠĠĠĠĠĠĠĠĠĠĠĠĠĠĠĠĠĠĠĠĠĠĠĠĠĠ": 2202,
      "columns": 2203,
      "medi": 2204,
      "batch": 2205,
      "gest": 2206,
      "older": 2207,
      "(**": 2208,
      "tails": 2209,
      "olean": 2210,
      "lasses": 2211,
      "step": 2212,
      "ĠSee": 2213,
      "roll": 2214,
      "cp": 2215,
      "description": 2216,
      "ĊĠĠĠĠĠĠĠĠĠĠĠĠĠĠĠĠĠĠĠĠĠĠĠĠĠĠĠĠĠ": 2217,
      "derr": 2218,
      "extra": 2219,
      "full": 2220,
      ")[": 2221,
      "network": 2222,
      "labels": 2223,
      "Ġreference": 2224,
      "coord": 2225,
      "ĊĠĠĠĠĠĠĠĠĠĠĠĠĠĠĠĠĠĠĠĠĠĠĠĠĠĠ": 2226,
      "olution": 2227,
      "rol": 2228,
      "conf": 2229,
      "Ġsettings": 2230,
      "Not": 2231,
      "vices": 2232,
      "section": 2233,
      "lice": 2234,
      "comment": 2235,
      "En": 2236,
      "hed": 2237,
      "Ch": 2238,
      "mark": 2239,
      "irs": 2240,
      "Col": 2241,
      "ĠURL": 2242,
      "\\\\": 2243,
      "Ġdatabase": 2244,
      "ob": 2245,
      "ugin": 2246,
      "oc": 2247,
      "Ġgo": 2248,
      "sup": 2249,
      "pace": 2250,
      "ript": 2251,
      "CE": 2252,
      "Ġpattern": 2253,
      "oper": 2254,
      "gex": 2255,
      "Ġwidth": 2256,
      "Ġexample": 2257,
      "Ġim": 2258,
      "ĠAt": 2259,
      "ride": 2260,
      "vious": 2261,
      "layer": 2262,
      "Ġrandom": 2263,
      "Ġhash": 2264,
      "Ġsuccess": 2265,
      "ush": 2266,
      "Ġkeyword": 2267,
      "Ġvari": 2268,
      "tocol": 2269,
      "cont": 2270,
      "mean": 2271,
      "left": 2272,
      "Ġshow": 2273,
      "Ġstep": 2274,
      "Ġext": 2275,
      "Ġtypes": 2276,
      "Ġposition": 2277,
      "speci": 2278,
      "den": 2279,
      "matrix": 2280,
      "Ġcli": 2281,
      "ined": 2282,
      "alog": 2283,
      "CH": 2284,
      "Ġcharact": 2285,
      "UN": 2286,
      "pdate": 2287,
      "clu": 2288,
      "Ġop": 2289,
      "annot": 2290,
      "ponse": 2291,
      "Ġthem": 2292,
      "Ġ'/": 2293,
      "Ġencoding": 2294,
      "Ġob": 2295,
      "'][": 2296,
      "stat": 2297,
      "Ġsplit": 2298,
      "Ġbased": 2299,
      "mult": 2300,
      "ĠET": 2301,
      "Ġenv": 2302,
      "sa": 2303,
      "ves": 2304,
      "Ġattributes": 2305,
      "Ġpub": 2306,
      "comple": 2307,
      "Ġplt": 2308,
      "connection": 2309,
      "').": 2310,
      "Ġrequests": 2311,
      "PO": 2312,
      "Ġdefined": 2313,
      "indi": 2314,
      "Ġbatch": 2315,
      "paths": 2316,
      "has": 2317,
      "Ġhttp": 2318,
      "ĠIt": 2319,
      "Ġsend": 2320,
      "dist": 2321,
      "Ġwhether": 2322,
      "umber": 2323,
      "package": 2324,
      "Ġidx": 2325,
      "vate": 2326,
      "-+": 2327,
      "extend": 2328,
      "dump": 2329,
      "Ġtree": 2330,
      "Ġselect": 2331,
      "Ġopt": 2332,
      "Ġdimension": 2333,
      "keep": 2334,
      "Ġaccess": 2335,
      "objects": 2336,
      "``,": 2337,
      "diff": 2338,
      "Ġpython": 2339,
      "Ġeither": 2340,
      "oci": 2341,
      "Ġjust": 2342,
      "ĠExample": 2343,
      ".\"": 2344,
      "Ġdepend": 2345,
      "MP": 2346,
      "Ġwant": 2347,
      "inst": 2348,
      "No": 2349,
      "Ġstd": 2350,
      "DI": 2351,
      "Ġlib": 2352,
      "aded": 2353,
      "ĠTODO": 2354,
      "Ġextension": 2355,
      "Ġdelete": 2356,
      "gin": 2357,
      "bound": 2358,
      "ĠRun": 2359,
      "Ġlabels": 2360,
      "Ġind": 2361,
      "ATE": 2362,
      "Ġexisting": 2363,
      "ick": 2364,
      "ĠNote": 2365,
      "thing": 2366,
      "Ġsa": 2367,
      "rapper": 2368,
      "strib": 2369,
      "gress": 2370,
      "Path": 2371,
      "cies": 2372,
      "FA": 2373,
      "Ġ\"%": 2374,
      "Ġvector": 2375,
      "stead": 2376,
      "Ġreplace": 2377,
      "Ġinteger": 2378,
      "reshold": 2379,
      "crypt": 2380,
      "Ġmark": 2381,
      "Create": 2382,
      "Ġstop": 2383,
      "Ġ'-": 2384,
      "vari": 2385,
      "Config": 2386,
      "Ġelements": 2387,
      "Ġview": 2388,
      "Ġlayer": 2389,
      "20": 2390,
      "ĠKeyError": 2391,
      "Ġforce": 2392,
      "ĠLO": 2393,
      "Dict": 2394,
      "password": 2395,
      "ssible": 2396,
      "Ġstrings": 2397,
      "pc": 2398,
      "alid": 2399,
      "posit": 2400,
      "orig": 2401,
      "alys": 2402,
      "ffix": 2403,
      "wh": 2404,
      "Ġotherwise": 2405,
      "ĠLo": 2406,
      "stop": 2407,
      "Ġcorrespon": 2408,
      ":`~": 2409,
      "ince": 2410,
      "Ġschema": 2411,
      "Ġfeature": 2412,
      "entic": 2413,
      "=(": 2414,
      "Ġrule": 2415,
      "first": 2416,
      "src": 2417,
      "'''": 2418,
      "ng": 2419,
      "valu": 2420,
      "ents": 2421,
      "side": 2422,
      "addr": 2423,
      "Ġcontainer": 2424,
      "med": 2425,
      "schema": 2426,
      "ĠJSON": 2427,
      "duct": 2428,
      "Ġpost": 2429,
      "Object": 2430,
      "gory": 2431,
      "ww": 2432,
      "device": 2433,
      "handler": 2434,
      "try": 2435,
      "LA": 2436,
      "Ġpayload": 2437,
      "stats": 2438,
      ")),": 2439,
      "pattern": 2440,
      "random": 2441,
      "cade": 2442,
      "zone": 2443,
      "olve": 2444,
      "Ġrepresen": 2445,
      "rough": 2446,
      "CT": 2447,
      "active": 2448,
      "Ġtmp": 2449,
      "ranch": 2450,
      "cause": 2451,
      "Ġright": 2452,
      "Ġsuper": 2453,
      "Ġoriginal": 2454,
      "','": 2455,
      "]):": 2456,
      "Ġconnect": 2457,
      "exc": 2458,
      "rans": 2459,
      "fl": 2460,
      "Ġhere": 2461,
      "Ġzip": 2462,
      "groups": 2463,
      "buffer": 2464,
      "delta": 2465,
      "ĠName": 2466,
      "Ġ'{": 2467,
      "__['": 2468,
      "profile": 2469,
      "Ġmeta": 2470,
      "igma": 2471,
      "Th": 2472,
      "ily": 2473,
      "FF": 2474,
      "Ġexc": 2475,
      "opt": 2476,
      "Ġglobal": 2477,
      "ven": 2478,
      "Ġsen": 2479,
      "zip": 2480,
      "redential": 2481,
      "rm": 2482,
      "gorith": 2483,
      "ings": 2484,
      "rary": 2485,
      "access": 2486,
      "ĠDi": 2487,
      "fs": 2488,
      "fra": 2489,
      "Ġprofile": 2490,
      "samples": 2491,
      "Ġoperation": 2492,
      "Ġsi": 2493,
      "ators": 2494,
      "ived": 2495,
      "Ġsystem": 2496,
      "Ġcoordin": 2497,
      "ason": 2498,
      "ĠPython": 2499,
      "Class": 2500,
      "Ġthey": 2501,
      "Ġcustom": 2502,
      "tags": 2503,
      "dataset": 2504,
      "requen": 2505,
      "Ġwindow": 2506,
      "Invalid": 2507,
      "At": 2508,
      "rule": 2509,
      "verage": 2510,
      "Ġvariables": 2511,
      "zeros": 2512,
      "direct": 2513,
      "Ġhandler": 2514,
      "math": 2515,
      "ĠRaises": 2516,
      "domain": 2517,
      "Ġnow": 2518,
      "Request": 2519,
      "ero": 2520,
      "Ġcontains": 2521,
      "Ġqueue": 2522,
      "Ġstat": 2523,
      "CON": 2524,
      "Ġfig": 2525,
      "Ġwait": 2526,
      "Ġinstead": 2527,
      "show": 2528,
      "raph": 2529,
      "ĠHTTP": 2530,
      "rate": 2531,
      "style": 2532,
      "sys": 2533,
      "eded": 2534,
      "Ġleft": 2535,
      "Ġcond": 2536,
      "rows": 2537,
      "Ġmodi": 2538,
      "ĠRes": 2539,
      "ĠMe": 2540,
      "}\".": 2541,
      "lied": 2542,
      "ĠOptional": 2543,
      "Ġfollowing": 2544,
      "hot": 2545,
      "true": 2546,
      "TION": 2547,
      "Ġdon": 2548,
      "Ġlambda": 2549,
      "Returns": 2550,
      "Ġpla": 2551,
      "directory": 2552,
      "ĊĠĠĠĠĠĠĠĠĠĠĠĠĠĠĠĠĠĠĠĠĠĠĠĠĠĠĠĠĠĠ": 2553,
      "Ġcer": 2554,
      "ker": 2555,
      "Ġsrc": 2556,
      "ndarray": 2557,
      "Ġ',": 2558,
      "raise": 2559,
      "Ġrows": 2560,
      "sv": 2561,
      "tmp": 2562,
      "Po": 2563,
      "ias": 2564,
      "day": 2565,
      "Ġignore": 2566,
      "TYPE": 2567,
      "04": 2568,
      "Ġmissing": 2569,
      "Ġhttps": 2570,
      "cell": 2571,
      "Ġfailed": 2572,
      "Ġdistance": 2573,
      "alysis": 2574,
      "ffect": 2575,
      "Ġsection": 2576,
      "her": 2577,
      "total": 2578,
      "Ġunique": 2579,
      "OT": 2580,
      "mal": 2581,
      "rel": 2582,
      "optional": 2583,
      "txt": 2584,
      "system": 2585,
      "Ġseconds": 2586,
      "rip": 2587,
      "Ġus": 2588,
      "Ġmapping": 2589,
      "Ġ'\\": 2590,
      "salt": 2591,
      "lative": 2592,
      "ake": 2593,
      "\"],": 2594,
      "ĠLOG": 2595,
      "Ġ'_": 2596,
      "ton": 2597,
      "Ġmultiple": 2598,
      "mplemented": 2599,
      "rec": 2600,
      "down": 2601,
      "position": 2602,
      "Ġremo": 2603,
      "Ġunicode": 2604,
      "helper": 2605,
      "unit": 2606,
      "Ġaccount": 2607,
      "IT": 2608,
      "Ġdifferent": 2609,
      "Ġdir": 2610,
      "Ġregion": 2611,
      "Ġdirect": 2612,
      "tect": 2613,
      "Ġpd": 2614,
      "String": 2615,
      "Ġtags": 2616,
      "fici": 2617,
      "EL": 2618,
      "brocade": 2619,
      "stru": 2620,
      "termin": 2621,
      "Ġ[\"": 2622,
      "scale": 2623,
      "Ġip": 2624,
      "sha": 2625,
      "book": 2626,
      "normal": 2627,
      "Ġfail": 2628,
      "Ġstore": 2629,
      "ink": 2630,
      "Ġverbose": 2631,
      "Ġparsed": 2632,
      "Ġmean": 2633,
      "ply": 2634,
      "hell": 2635,
      "abs": 2636,
      "andard": 2637,
      "wd": 2638,
      "Node": 2639,
      "50": 2640,
      "NAME": 2641,
      "ek": 2642,
      "Ġge": 2643,
      "make": 2644,
      "Ġpol": 2645,
      "gorithm": 2646,
      "Ġcho": 2647,
      "Ġsupported": 2648,
      "Ġpe": 2649,
      "ced": 2650,
      "Ġadded": 2651,
      "ĠTo": 2652,
      "username": 2653,
      "Log": 2654,
      "select": 2655,
      "Ġ(\"": 2656,
      "ered": 2657,
      "timestamp": 2658,
      "ĠWh": 2659,
      "dest": 2660,
      "eve": 2661,
      "Ġserial": 2662,
      "Ġsecond": 2663,
      "24": 2664,
      "ET": 2665,
      "ites": 2666,
      "Ġremote": 2667,
      "Ġskip": 2668,
      "Ġsignal": 2669,
      "cret": 2670,
      "ually": 2671,
      "Ġreport": 2672,
      "Ġ7": 2673,
      "Ġunit": 2674,
      "Form": 2675,
      "dev": 2676,
      "namespace": 2677,
      "Ġsix": 2678,
      "Ġretri": 2679,
      "const": 2680,
      "Ġprevious": 2681,
      "ULT": 2682,
      "Ġsim": 2683,
      "Ġopts": 2684,
      "ĊĊĠĠĠĠĠĠĠĠĠĠĠĠĠĠĠĠĠĠĠ": 2685,
      "Ġabs": 2686,
      "stim": 2687,
      "Ġgenerate": 2688,
      "Ġspecify": 2689,
      "State": 2690,
      "can": 2691,
      "cker": 2692,
      "Ġpk": 2693,
      "hist": 2694,
      "Ġ{}\".": 2695,
      "ware": 2696,
      "itch": 2697,
      "gy": 2698,
      "Ġproperties": 2699,
      "Ġund": 2700,
      "Ġcent": 2701,
      "Ġsamples": 2702,
      "Ġbecause": 2703,
      "Ġusername": 2704,
      "curs": 2705,
      "chunk": 2706,
      "ighb": 2707,
      "height": 2708,
      "-+-+": 2709,
      "Ġiss": 2710,
      "Ġassoci": 2711,
      "Ġbyte": 2712,
      "Ite": 2713,
      "tach": 2714,
      "python": 2715,
      "async": 2716,
      "serv": 2717,
      "tf": 2718,
      "fit": 2719,
      "Ġlong": 2720,
      "stribution": 2721,
      "models": 2722,
      "Ġrece": 2723,
      "straint": 2724,
      "bl": 2725,
      "Ġ{\"": 2726,
      "Ġdisplay": 2727,
      "Ġmain": 2728,
      "Index": 2729,
      "dot": 2730,
      "\"])": 2731,
      "exit": 2732,
      "Ġcons": 2733,
      "Ġextract": 2734,
      "Check": 2735,
      "indices": 2736,
      "alled": 2737,
      "stdout": 2738,
      "component": 2739,
      "NT": 2740,
      "02": 2741,
      "Ġgrid": 2742,
      "Ġloop": 2743,
      "Ġresp": 2744,
      "plo": 2745,
      "known": 2746,
      "Ġproperty": 2747,
      "SubElement": 2748,
      "gine": 2749,
      "Ġawait": 2750,
      "uture": 2751,
      "Response": 2752,
      "Ġwithin": 2753,
      "pository": 2754,
      "Ġ\".": 2755,
      "aml": 2756,
      "Ġwarning": 2757,
      "Ġconn": 2758,
      "ĠComp": 2759,
      "import": 2760,
      "Ġthrough": 2761,
      "ian": 2762,
      "Ġexpected": 2763,
      "ĠUse": 2764,
      "vider": 2765,
      "Ġalpha": 2766,
      "ie": 2767,
      "au": 2768,
      "Ġmy": 2769,
      "Ġedge": 2770,
      "ency": 2771,
      "ansp": 2772,
      "cc": 2773,
      "sq": 2774,
      "asure": 2775,
      "depth": 2776,
      "ater": 2777,
      "Ġinvalid": 2778,
      "case": 2779,
      "Ġpossible": 2780,
      "window": 2781,
      "ways": 2782,
      "calar": 2783,
      "istry": 2784,
      "Ġtrain": 2785,
      "Ġrel": 2786,
      "andas": 2787,
      "Comp": 2788,
      "Ġtimestamp": 2789,
      "train": 2790,
      "</": 2791,
      "ely": 2792,
      "15": 2793,
      "Ġtheir": 2794,
      "actions": 2795,
      "Ġregister": 2796,
      "Ġmaximum": 2797,
      "errors": 2798,
      "Ġmon": 2799,
      "Ġpresent": 2800,
      "SC": 2801,
      "Ġsepar": 2802,
      "Ġmerge": 2803,
      "ĠGener": 2804,
      "Ġrepresent": 2805,
      "conn": 2806,
      "execute": 2807,
      "Ġflag": 2808,
      "rest": 2809,
      "Ġscale": 2810,
      "Ġnote": 2811,
      "Qu": 2812,
      "Ġdomain": 2813,
      "Ġcoun": 2814,
      "cast": 2815,
      "Ġappro": 2816,
      "interface": 2817,
      "Ġvis": 2818,
      "cut": 2819,
      "gre": 2820,
      "Ġtrue": 2821,
      "Ġdecor": 2822,
      "river": 2823,
      "ĊĠĠĠĠĠĠĠĠĠĠĠĠĠĠĠĠĠĠĠĠĠĠĠĠĠĠĠĠĠĠĠĠĠĠĠĠĠĠĠ": 2824,
      "chron": 2825,
      "ured": 2826,
      "Ġdist": 2827,
      "Ġsent": 2828,
      "Ġren": 2829,
      "way": 2830,
      "Ġdisable": 2831,
      "Ġcorrect": 2832,
      "Ġindices": 2833,
      "'}": 2834,
      "ters": 2835,
      "sl": 2836,
      "Ġmod": 2837,
      "uted": 2838,
      "ĠIP": 2839,
      "Ġfit": 2840,
      "ithub": 2841,
      "tract": 2842,
      "Text": 2843,
      "chain": 2844,
      "sets": 2845,
      "coder": 2846,
      "Ġyour": 2847,
      "]),": 2848,
      "mount": 2849,
      "Ġheight": 2850,
      "33": 2851,
      "methods": 2852,
      "Ġbeing": 2853,
      "Ġtransform": 2854,
      "Ġspecific": 2855,
      "poch": 2856,
      "čĊčĊĠĠĠĠĠĠĠ": 2857,
      "Ġmatches": 2858,
      "Ġstack": 2859,
      "attrs": 2860,
      "ĊĠĠĠĠĠĠĠĠĠĠĠĠĠĠĠĠĠĠĠĠĠĠĠĠĠĠĠĠĠĠĠĠĠ": 2861,
      "initial": 2862,
      "Ġsuch": 2863,
      "Ġinterface": 2864,
      "Ġidentifier": 2865,
      "numpy": 2866,
      "upper": 2867,
      "FAULT": 2868,
      "Array": 2869,
      "features": 2870,
      "Ġevery": 2871,
      "ĊĊĠĠĠĠĠ": 2872,
      "Ġkeep": 2873,
      "inis": 2874,
      "ynchron": 2875,
      "late": 2876,
      "Ġ):": 2877,
      "Ġcluster": 2878,
      "raises": 2879,
      "vars": 2880,
      "tifi": 2881,
      "Ġendpoint": 2882,
      "angle": 2883,
      "Ġpack": 2884,
      "andid": 2885,
      "ically": 2886,
      "lap": 2887,
      "Ġexpression": 2888,
      "Ġxml": 2889,
      "bab": 2890,
      "Ġboth": 2891,
      "Ġdebug": 2892,
      "80": 2893,
      "201": 2894,
      "cores": 2895,
      "Info": 2896,
      "ift": 2897,
      "ĠSer": 2898,
      "Ġwithout": 2899,
      "manager": 2900,
      "Ġthese": 2901,
      "curity": 2902,
      "Ġaccept": 2903,
      "mbed": 2904,
      "Ġ9": 2905,
      "AB": 2906,
      "factor": 2907,
      "non": 2908,
      "until": 2909,
      "ĠOn": 2910,
      "Ġenvironment": 2911,
      "az": 2912,
      "Ġpaths": 2913,
      "git": 2914,
      "ĠĊĠĠĠĠĠĠĠ": 2915,
      "coded": 2916,
      "Ġinit": 2917,
      "lab": 2918,
      "Model": 2919,
      "US": 2920,
      "sequence": 2921,
      "tial": 2922,
      "thread": 2923,
      "Ġctx": 2924,
      "Ġreal": 2925,
      "Ġassign": 2926,
      "Event": 2927,
      "Ġcell": 2928,
      "ross": 2929,
      "ĠAttribute": 2930,
      "latform": 2931,
      "Ġfl": 2932,
      "An": 2933,
      "eps": 2934,
      "Ġspec": 2935,
      "Ġreq": 2936,
      "redentials": 2937,
      "Ġcollection": 2938,
      "requency": 2939,
      "properties": 2940,
      "bot": 2941,
      "KE": 2942,
      "Ġcha": 2943,
      "Found": 2944,
      "board": 2945,
      "Ġcorresponding": 2946,
      "Field": 2947,
      "bers": 2948,
      "Ġabout": 2949,
      "naps": 2950,
      "Ġcate": 2951,
      "aly": 2952,
      "Ġzero": 2953,
      "IO": 2954,
      "lector": 2955,
      "arr": 2956,
      "TR": 2957,
      "Client": 2958,
      "Ġbot": 2959,
      "empty": 2960,
      "https": 2961,
      "proxy": 2962,
      "repo": 2963,
      "ension": 2964,
      "counts": 2965,
      "TER": 2966,
      "Ġrunning": 2967,
      "ANG": 2968,
      "Ġclean": 2969,
      "greg": 2970,
      "meth": 2971,
      "seconds": 2972,
      "oid": 2973,
      "Ġ'--": 2974,
      "dius": 2975,
      "site": 2976,
      "('\\": 2977,
      "Ġsha": 2978,
      "tax": 2979,
      ".'": 2980,
      "Item": 2981,
      "lem": 2982,
      "Ġ201": 2983,
      "Ġsite": 2984,
      "Ġhist": 2985,
      "ä¸": 2986,
      "mbers": 2987,
      "reference": 2988,
      "DB": 2989,
      "feature": 2990,
      "alle": 2991,
      "peri": 2992,
      "Ġsure": 2993,
      "Ġindic": 2994,
      "*(": 2995,
      "cols": 2996,
      "score": 2997,
      "ĊĠĠĠĠĠĠĠĠĠĠĠĠĠĠĠĠĠĠĠĠĠĠĠĠĠĠĠĠĠĠĠĠĠĠ": 2998,
      "napshot": 2999,
      "folder": 3000,
      "uplic": 3001,
      "any": 3002,
      "Ġscope": 3003,
      "gments": 3004,
      "weight": 3005,
      "Ġboolean": 3006,
      "alpha": 3007,
      "Ġtimes": 3008,
      "edge": 3009,
      "Ċĉĉĉĉ": 3010,
      "Ġwrit": 3011,
      "ogle": 3012,
      "Ġapply": 3013,
      "bits": 3014,
      "global": 3015,
      "ground": 3016,
      "[:-": 3017,
      "/{": 3018,
      "just": 3019,
      "utom": 3020,
      "head": 3021,
      "trics": 3022,
      "adding": 3023,
      "account": 3024,
      "tc": 3025,
      "Ġfix": 3026,
      "Ġdoesn": 3027,
      "ives": 3028,
      "ght": 3029,
      "stderr": 3030,
      "Ġmatching": 3031,
      "Ġpop": 3032,
      "AS": 3033,
      "andl": 3034,
      "55": 3035,
      "esc": 3036,
      "Ġweight": 3037,
      "scope": 3038,
      "validate": 3039,
      "IP": 3040,
      "Ġdefaults": 3041,
      "encoding": 3042,
      "Ġmessages": 3043,
      "ier": 3044,
      "Ġcannot": 3045,
      "itive": 3046,
      "Ġconf": 3047,
      "transform": 3048,
      "ws": 3049,
      "14": 3050,
      "ctx": 3051,
      "_{": 3052,
      "Ġpix": 3053,
      "EX": 3054,
      "ivity": 3055,
      "patch": 3056,
      "tered": 3057,
      "required": 3058,
      "lim": 3059,
      "insert": 3060,
      "Ġweights": 3061,
      "Ġinclu": 3062,
      "less": 3063,
      "loop": 3064,
      "alcul": 3065,
      "center": 3066,
      "Ġrest": 3067,
      "Ġconst": 3068,
      "card": 3069,
      "series": 3070,
      "ia": 3071,
      "Ġbit": 3072,
      "etri": 3073,
      "Ġnd": 3074,
      "Ġhow": 3075,
      "Ġunder": 3076,
      "cheme": 3077,
      "Ġmemory": 3078,
      "atio": 3079,
      "termine": 3080,
      "classes": 3081,
      "mapping": 3082,
      ":%": 3083,
      "Ġcould": 3084,
      "ire": 3085,
      "ynam": 3086,
      "region": 3087,
      "Ġstructure": 3088,
      "Ġ{}'.": 3089,
      "30": 3090,
      "izes": 3091,
      "_,": 3092,
      "depend": 3093,
      "ĠExamples": 3094,
      "Ġfn": 3095,
      "19": 3096,
      "used": 3097,
      "Ġ100": 3098,
      "Ġvolume": 3099,
      "af": 3100,
      "idden": 3101,
      "Ġspace": 3102,
      "uild": 3103,
      "ĠZ": 3104,
      "cks": 3105,
      "year": 3106,
      "ported": 3107,
      "Ġdelta": 3108,
      "Failed": 3109,
      "Message": 3110,
      "email": 3111,
      "ulation": 3112,
      "Ġseq": 3113,
      "tom": 3114,
      "nan": 3115,
      "100": 3116,
      "els": 3117,
      "dt": 3118,
      "cloud": 3119,
      "ION": 3120,
      "Result": 3121,
      "parts": 3122,
      "ĊĠĠĠĠĠĠĠĠĠĠĠĠĠĠĠĠĠĠĠĠĠĠĠĠĠĠĠĠĠĠĠĠĠĠĠĠ": 3123,
      "vision": 3124,
      "Ġstats": 3125,
      "children": 3126,
      "Ġsocket": 3127,
      "lan": 3128,
      "Read": 3129,
      "lish": 3130,
      "Ġvalidate": 3131,
      "Ġbest": 3132,
      "Ġsince": 3133,
      "words": 3134,
      "DataFrame": 3135,
      "ik": 3136,
      "Ġmethods": 3137,
      "aries": 3138,
      "ould": 3139,
      "Ġscript": 3140,
      "where": 3141,
      "DF": 3142,
      "uuid": 3143,
      "peline": 3144,
      "VER": 3145,
      "}{": 3146,
      "Ġcallable": 3147,
      "GER": 3148,
      "Ġ12": 3149,
      "added": 3150,
      "Ġevents": 3151,
      "times": 3152,
      "ferences": 3153,
      "Ġseries": 3154,
      "Ġagain": 3155,
      "=%": 3156,
      "common": 3157,
      "SO": 3158,
      "ority": 3159,
      "By": 3160,
      "__,": 3161,
      "attributes": 3162,
      "ending": 3163,
      "warn": 3164,
      "TO": 3165,
      "Ġdown": 3166,
      "pid": 3167,
      "User": 3168,
      "################": 3169,
      "leep": 3170,
      "Ġcursor": 3171,
      "Ġcompute": 3172,
      "Ġdone": 3173,
      "Ġdepth": 3174,
      "norm": 3175,
      "Ġassociated": 3176,
      "report": 3177,
      "AP": 3178,
      "sure": 3179,
      "('/": 3180,
      "Ġparts": 3181,
      "Ġ'*": 3182,
      "tail": 3183,
      "Ġallowed": 3184,
      "Ġfra": 3185,
      "licit": 3186,
      "Ġ'{}": 3187,
      "ĠRuntime": 3188,
      "payload": 3189,
      "QU": 3190,
      "okup": 3191,
      "docs": 3192,
      "Ġfunctions": 3193,
      "csv": 3194,
      "metric": 3195,
      "period": 3196,
      "Ġang": 3197,
      "ynchronous": 3198,
      "Ġhigh": 3199,
      "NO": 3200,
      "leg": 3201,
      "auto": 3202,
      "Ġtokens": 3203,
      "Ġrelative": 3204,
      "olver": 3205,
      "hex": 3206,
      "Ġfeatures": 3207,
      "ness": 3208,
      "ision": 3209,
      "Ġlower": 3210,
      "Ġannot": 3211,
      "cluster": 3212,
      "\"))": 3213,
      "Parser": 3214,
      "Ġbucket": 3215,
      "units": 3216,
      "Ġtri": 3217,
      "HE": 3218,
      "Ġinputs": 3219,
      "eno": 3220,
      "SP": 3221,
      "dims": 3222,
      "Ġestim": 3223,
      "Ġequal": 3224,
      "Ġour": 3225,
      "Ġda": 3226,
      "pix": 3227,
      "ĠAttributeError": 3228,
      "Ġchanges": 3229,
      "Ġflags": 3230,
      "tools": 3231,
      "desc": 3232,
      "img": 3233,
      "Ġemail": 3234,
      "}.": 3235,
      "Ġwould": 3236,
      "olute": 3237,
      "ĠWhen": 3238,
      "ient": 3239,
      "Ġperiod": 3240,
      "Ġlon": 3241,
      "interval": 3242,
      "Ġnet": 3243,
      "Ġfactor": 3244,
      "serialize": 3245,
      "Run": 3246,
      "sec": 3247,
      "Ġapplication": 3248,
      "Ġ##": 3249,
      "convert": 3250,
      "Ġow": 3251,
      "Ġcomment": 3252,
      "Ġwhat": 3253,
      "identifier": 3254,
      "distance": 3255,
      "UR": 3256,
      "Instance": 3257,
      "Ġclose": 3258,
      "(-": 3259,
      "dr": 3260,
      "ilter": 3261,
      "Ġimp": 3262,
      "Ġbuffer": 3263,
      "vm": 3264,
      "vec": 3265,
      "Ġmetric": 3266,
      ">`": 3267,
      "MO": 3268,
      "leted": 3269,
      "ox": 3270,
      "Ġdownload": 3271,
      "URL": 3272,
      "Ġiterable": 3273,
      "Ġcoordinates": 3274,
      "Ġneeded": 3275,
      "Ġtx": 3276,
      "ĠFile": 3277,
      "cfg": 3278,
      "ving": 3279,
      "}\\": 3280,
      "Ġupdated": 3281,
      "================": 3282,
      "lon": 3283,
      "Ġcontents": 3284,
      "Ġstorage": 3285,
      "endswith": 3286,
      "Ġutils": 3287,
      "entity": 3288,
      "Ġoc": 3289,
      "Ġdetails": 3290,
      "policy": 3291,
      "ration": 3292,
      "cessed": 3293,
      "****": 3294,
      "dumps": 3295,
      "ged": 3296,
      "exceptions": 3297,
      "Ġsegment": 3298,
      "ĊĊĉ": 3299,
      "Ġ((": 3300,
      "Ġevalu": 3301,
      "ersion": 3302,
      "trace": 3303,
      "Ġentity": 3304,
      "BU": 3305,
      "Out": 3306,
      "Ġstyle": 3307,
      "als": 3308,
      "()):": 3309,
      "Ġalign": 3310,
      "Ġvia": 3311,
      "AM": 3312,
      "mpt": 3313,
      "Ġroute": 3314,
      "Ġmath": 3315,
      "akes": 3316,
      "Ġrepresenting": 3317,
      "prec": 3318,
      "Ġremoved": 3319,
      "GET": 3320,
      "Ġsignature": 3321,
      "document": 3322,
      "ĠNo": 3323,
      "unique": 3324,
      "tokens": 3325,
      "Argument": 3326,
      "variables": 3327,
      "Ġfolder": 3328,
      "register": 3329,
      "Ġbinary": 3330,
      "lint": 3331,
      "ometry": 3332,
      "Ġcre": 3333,
      "ze": 3334,
      "aved": 3335,
      "Ġassume": 3336,
      "fast": 3337,
      "corre": 3338,
      "ĠRuntimeError": 3339,
      "Or": 3340,
      "Py": 3341,
      "pare": 3342,
      "Ġgroups": 3343,
      "\"),": 3344,
      "Ġrepo": 3345,
      "Ġindent": 3346,
      "hook": 3347,
      "()))": 3348,
      "Ġdistribution": 3349,
      "Ġperform": 3350,
      "Ġdt": 3351,
      "App": 3352,
      "Per": 3353,
      "Ġadditional": 3354,
      "Ġsm": 3355,
      "rence": 3356,
      "Auth": 3357,
      "Ġunits": 3358,
      "attribute": 3359,
      "Ġarch": 3360,
      "bed": 3361,
      "ensity": 3362,
      "Ġ\"{": 3363,
      "Ġ},": 3364,
      "commit": 3365,
      "Ġinstances": 3366,
      "Ġalways": 3367,
      "('%": 3368,
      "Ġlanguage": 3369,
      "60": 3370,
      "cursor": 3371,
      "tificate": 3372,
      "Ġrequire": 3373,
      "Ġpredi": 3374,
      "spe": 3375,
      "real": 3376,
      "chedule": 3377,
      "()[": 3378,
      "ole": 3379,
      "ERR": 3380,
      "ES": 3381,
      "Inter": 3382,
      "Ġker": 3383,
      "sm": 3384,
      "ru": 3385,
      "environ": 3386,
      "lear": 3387,
      "Group": 3388,
      "cb": 3389,
      "}'": 3390,
      "jobs": 3391,
      "Ġstdout": 3392,
      "logging": 3393,
      "long": 3394,
      "rf": 3395,
      "Ġauthor": 3396,
      "loads": 3397,
      "Ġscore": 3398,
      "align": 3399,
      "Ġtensor": 3400,
      "Ġentries": 3401,
      "Ġstored": 3402,
      "fill": 3403,
      "34": 3404,
      "Ġclick": 3405,
      "unicode": 3406,
      "urse": 3407,
      "witch": 3408,
      "wrap": 3409,
      "ulate": 3410,
      "clean": 3411,
      "bucket": 3412,
      "Ġinsert": 3413,
      "Ġtrace": 3414,
      "ĠDo": 3415,
      "ilder": 3416,
      "ED": 3417,
      "latten": 3418,
      "ĠUpdate": 3419,
      "Pre": 3420,
      "inte": 3421,
      "fetch": 3422,
      "PAT": 3423,
      "Ġloc": 3424,
      "press": 3425,
      "Ġaxes": 3426,
      "parameter": 3427,
      "ively": 3428,
      "TH": 3429,
      "Ġcomb": 3430,
      "('-": 3431,
      "ĠCLI": 3432,
      "utomat": 3433,
      "Ġterm": 3434,
      "Ġauto": 3435,
      "cos": 3436,
      "sqrt": 3437,
      ".*": 3438,
      "allow": 3439,
      "dio": 3440,
      "collection": 3441,
      "Ġplugin": 3442,
      "quences": 3443,
      "Ġstandard": 3444,
      "/%": 3445,
      "plotlib": 3446,
      "Session": 3447,
      "vers": 3448,
      "formed": 3449,
      "ified": 3450,
      "Ġuntil": 3451,
      "flags": 3452,
      "encies": 3453,
      "ĠDefaults": 3454,
      "display": 3455,
      "KEY": 3456,
      "asic": 3457,
      "Ġactive": 3458,
      "chine": 3459,
      "Ġ_,": 3460,
      "Ġimg": 3461,
      "expected": 3462,
      "Ġrequested": 3463,
      "DEFAULT": 3464,
      "sql": 3465,
      "Ġfill": 3466,
      "states": 3467,
      "Ġyang": 3468,
      "Ġrole": 3469,
      "Ġcharacters": 3470,
      "remote": 3471,
      "Ġprivate": 3472,
      "fname": 3473,
      "ui": 3474,
      "Ġmulti": 3475,
      "ĠOr": 3476,
      "Ġinterval": 3477,
      "Ġwrap": 3478,
      "Ġproxy": 3479,
      "vs": 3480,
      "zero": 3481,
      "(['": 3482,
      "Context": 3483,
      "cimal": 3484,
      "uting": 3485,
      "Ġrepresentation": 3486,
      "dimension": 3487,
      "ĠDE": 3488,
      "dirname": 3489,
      "({'": 3490,
      "Content": 3491,
      "custom": 3492,
      "API": 3493,
      "dec": 3494,
      "ĠArgument": 3495,
      "Ġdestination": 3496,
      "Ġ\"\\": 3497,
      "hes": 3498,
      "Format": 3499,
      "quires": 3500,
      "IL": 3501,
      "missions": 3502,
      "ams": 3503,
      "-%": 3504,
      "ĠOther": 3505,
      "ĊĠĠĠĠĠĠĠĠĠĠĠĠĠĠĠĠĠĠĠĠĠĠĠĠĠĠĠĠĠĠĠĠĠĠĠĠĠ": 3506,
      "ĊĠĠĠĠĠĠĠĠĠĠĠĠĠĠĠĠĠĠĠĠĠĠĠĠĠĠĠĠĠĠĠĠĠĠĠĠĠĠ": 3507,
      "ĠĠĠĠĠĠĠĠĠĠĠĠĠĠĠĠĠĠĠĠĠĠĠĠĠĠĠĠĠĠĠĠ": 3508,
      "changes": 3509,
      "periment": 3510,
      "uring": 3511,
      "figs": 3512,
      "Ġmost": 3513,
      "steps": 3514,
      "sid": 3515,
      "Ġ-=": 3516,
      "sep": 3517,
      "Ġcat": 3518,
      "author": 3519,
      "spect": 3520,
      "Ġndarray": 3521,
      "storage": 3522,
      "Ġactual": 3523,
      "merge": 3524,
      "strict": 3525,
      "Ġbox": 3526,
      "Ġcor": 3527,
      "ango": 3528,
      "Ġgenerated": 3529,
      "bind": 3530,
      "ane": 3531,
      "rtual": 3532,
      "fg": 3533,
      "Ġinternal": 3534,
      "Ġretry": 3535,
      "verbose": 3536,
      "events": 3537,
      "sn": 3538,
      "Ġ})": 3539,
      "force": 3540,
      "pac": 3541,
      "socket": 3542,
      "ops": 3543,
      "ilt": 3544,
      "logy": 3545,
      "Ġexit": 3546,
      "Ġmedi": 3547,
      "Ġmeans": 3548,
      "ĠNumber": 3549,
      "des": 3550,
      "(\"%": 3551,
      "Size": 3552,
      "Ġshort": 3553,
      "blem": 3554,
      "Ġpair": 3555,
      "Process": 3556,
      "ues": 3557,
      "Ġcomplete": 3558,
      "amily": 3559,
      "Ġwere": 3560,
      "Input": 3561,
      "Gener": 3562,
      "utable": 3563,
      "qa": 3564,
      "Ġplace": 3565,
      "ength": 3566,
      "Ġwrapper": 3567,
      "dat": 3568,
      "Ġnamed": 3569,
      "mac": 3570,
      "13": 3571,
      "SH": 3572,
      "gp": 3573,
      "QL": 3574,
      "fd": 3575,
      "edges": 3576,
      "bove": 3577,
      "FO": 3578,
      "UP": 3579,
      "Ġcommon": 3580,
      "Te": 3581,
      "mg": 3582,
      "github": 3583,
      "pool": 3584,
      "defin": 3585,
      "Parse": 3586,
      "'](": 3587,
      "fact": 3588,
      "Ġgenerator": 3589,
      "symbol": 3590,
      "Ġoptim": 3591,
      "Ġsur": 3592,
      "'\\": 3593,
      "ĠIO": 3594,
      "null": 3595,
      "ĠEn": 3596,
      "reshape": 3597,
      "ĠDataFrame": 3598,
      "Ġchain": 3599,
      "route": 3600,
      "Ġ\",": 3601,
      "ĠApp": 3602,
      "__)": 3603,
      ".)": 3604,
      "Handler": 3605,
      "sted": 3606,
      "include": 3607,
      "Ġmodels": 3608,
      "Ġ\"/": 3609,
      "eric": 3610,
      "ĠPath": 3611,
      "gative": 3612,
      "inputs": 3613,
      "LOG": 3614,
      "ather": 3615,
      "ĠAny": 3616,
      "On": 3617,
      "Ġuri": 3618,
      "Ġcharacter": 3619,
      "lections": 3620,
      "weights": 3621,
      "18": 3622,
      "effici": 3623,
      "Ġrecords": 3624,
      "Ġimages": 3625,
      "Ġexclude": 3626,
      "Reg": 3627,
      "čĊĠĠĠĠĠĠĠĠĠĠĠĠĠĠĠĠĠĠĠ": 3628,
      "Ġsetting": 3629,
      "ĠValid": 3630,
      "application": 3631,
      "entication": 3632,
      "Ġinstall": 3633,
      "layers": 3634,
      "defaults": 3635,
      "help": 3636,
      "ATION": 3637,
      "Ġhtml": 3638,
      "istered": 3639,
      "Image": 3640,
      "_.": 3641,
      "ĠRE": 3642,
      "flag": 3643,
      "(\"\\": 3644,
      "Ġleast": 3645,
      "Ġfilters": 3646,
      "Ġprobab": 3647,
      "ĠCh": 3648,
      "Ġpylint": 3649,
      "master": 3650,
      "ĠPer": 3651,
      "come": 3652,
      "={}": 3653,
      "alk": 3654,
      "Base": 3655,
      "je": 3656,
      "coords": 3657,
      "clear": 3658,
      "Ġday": 3659,
      "pter": 3660,
      "Ġpool": 3661,
      "roller": 3662,
      "17": 3663,
      "byte": 3664,
      "lack": 3665,
      "Ġalgorithm": 3666,
      "modules": 3667,
      "Ġselected": 3668,
      "PC": 3669,
      "span": 3670,
      "xx": 3671,
      "loaded": 3672,
      "ended": 3673,
      "Ġmag": 3674,
      "Ġrec": 3675,
      "Ġattemp": 3676,
      "Ġregex": 3677,
      "cii": 3678,
      "ignore": 3679,
      "ND": 3680,
      "Update": 3681,
      "Ġjoin": 3682,
      "role": 3683,
      "Ġcompat": 3684,
      "fmt": 3685,
      "member": 3686,
      "prop": 3687,
      "Ġ200": 3688,
      "Le": 3689,
      "tion": 3690,
      "served": 3691,
      "ga": 3692,
      "ense": 3693,
      "CK": 3694,
      "rb": 3695,
      "modi": 3696,
      "otential": 3697,
      "extension": 3698,
      "Ġdirectly": 3699,
      "sired": 3700,
      "PRO": 3701,
      "volume": 3702,
      "ĠOS": 3703,
      "ĠWhether": 3704,
      "Ġzone": 3705,
      "Ġnoqa": 3706,
      "Ġlar": 3707,
      "Ġpairs": 3708,
      "endpoint": 3709,
      "secret": 3710,
      "ower": 3711,
      "Ġimplement": 3712,
      "amma": 3713,
      "yntax": 3714,
      "Ġensure": 3715,
      "Ġcalculate": 3716,
      "Ġder": 3717,
      "čĊĠĠĠĠĠĠĠĠ": 3718,
      "defined": 3719,
      "Ġway": 3720,
      "cording": 3721,
      "Trans": 3722,
      "Ġoverride": 3723,
      "codes": 3724,
      "ĠIndex": 3725,
      "Table": 3726,
      "Ġappend": 3727,
      "]+": 3728,
      "Ġbl": 3729,
      "Ġgre": 3730,
      "summary": 3731,
      "Ġhparams": 3732,
      "Query": 3733,
      "56": 3734,
      "rl": 3735,
      "success": 3736,
      "Ġsubject": 3737,
      "Ġbranch": 3738,
      "Date": 3739,
      "utation": 3740,
      "Ġlists": 3741,
      "Ġdisk": 3742,
      "Ġdefinition": 3743,
      "Ġids": 3744,
      "ĠUser": 3745,
      "Ġmany": 3746,
      "ilar": 3747,
      "tact": 3748,
      "ĠAl": 3749,
      "gate": 3750,
      "Ġmak": 3751,
      "gb": 3752,
      "Ġsuccessful": 3753,
      "Ġasync": 3754,
      "yg": 3755,
      "Ġfmt": 3756,
      "ports": 3757,
      "miss": 3758,
      "Ġkw": 3759,
      "ases": 3760,
      "He": 3761,
      "ĊĠĠĠĠĠĠĠĠĠĠĠĠĠĠĠĠĠĠĠĠĠĠĠĠĠĠĠĠĠĠĠĠĠĠĠĠĠĠĠĠĠĠĠ": 3762,
      "install": 3763,
      "release": 3764,
      "Ġsuffix": 3765,
      "ĠAs": 3766,
      "freq": 3767,
      "regex": 3768,
      "NS": 3769,
      "VAL": 3770,
      "Ġdesc": 3771,
      "Ġdirection": 3772,
      "mpling": 3773,
      "Ġsymbol": 3774,
      "Ġprogress": 3775,
      "slice": 3776,
      "fic": 3777,
      "cessary": 3778,
      "Ġreverse": 3779,
      "expr": 3780,
      "Ġdraw": 3781,
      "erature": 3782,
      "Ġsym": 3783,
      "alias": 3784,
      "allback": 3785,
      "Ġuses": 3786,
      "sig": 3787,
      "dic": 3788,
      "ĠĠĠĠĠĠĠĠĠ": 3789,
      "This": 3790,
      "ploy": 3791,
      "Ġdecorator": 3792,
      "Ġgene": 3793,
      "phi": 3794,
      "nn": 3795,
      "argv": 3796,
      "Ġrender": 3797,
      "jango": 3798,
      "kind": 3799,
      "uble": 3800,
      "tensor": 3801,
      "Ġneeds": 3802,
      "language": 3803,
      "Ġupper": 3804,
      "Ġpacket": 3805,
      "signal": 3806,
      "Ġyear": 3807,
      "Ġho": 3808,
      "filepath": 3809,
      "Ġprotocol": 3810,
      "Ġsql": 3811,
      "after": 3812,
      "win": 3813,
      "heet": 3814,
      "}\"": 3815,
      "Ġ$": 3816,
      "Ġedges": 3817,
      "Dis": 3818,
      "ĠCol": 3819,
      "Ġ'*'": 3820,
      "ĠTime": 3821,
      "Ġlock": 3822,
      "Ġcalling": 3823,
      "Ġfalse": 3824,
      "Valid": 3825,
      "links": 3826,
      "22": 3827,
      "Ġpolicy": 3828,
      "Ġwarnings": 3829,
      "writ": 3830,
      "WS": 3831,
      "property": 3832,
      "IG": 3833,
      "ressed": 3834,
      "ĠString": 3835,
      "Ġcenter": 3836,
      "osition": 3837,
      ",)": 3838,
      "FILE": 3839,
      "Ġfetch": 3840,
      "transp": 3841,
      "widget": 3842,
      ")/": 3843,
      "Ġ'',": 3844,
      "Ġmu": 3845,
      "Ġ16": 3846,
      "CS": 3847,
      "Ġbash": 3848,
      "none": 3849,
      "Ġtransaction": 3850,
      "Ġhead": 3851,
      "Ġ%(": 3852,
      "Version": 3853,
      "Status": 3854,
      "arm": 3855,
      "čĊĠĠĠĠĠĠĠĠčĊĠĠĠĠĠĠĠ": 3856,
      "foo": 3857,
      "Ġ//": 3858,
      "Ġcondition": 3859,
      "Ġfname": 3860,
      "duce": 3861,
      "tab": 3862,
      "Ġctypes": 3863,
      "ï¼": 3864,
      "Ġcommit": 3865,
      "apply": 3866,
      "Ġfinally": 3867,
      "ĠĊĠĠĠ": 3868,
      "changed": 3869,
      ")])": 3870,
      "Ġminimum": 3871,
      "sim": 3872,
      "Ġconver": 3873,
      "ĠOnly": 3874,
      "Ġautomat": 3875,
      "Ġty": 3876,
      "Man": 3877,
      "Ġthose": 3878,
      "cip": 3879,
      "ĠBy": 3880,
      "ERROR": 3881,
      "Ġarrays": 3882,
      "Ġthreshold": 3883,
      "Ġfp": 3884,
      ")*": 3885,
      "Sh": 3886,
      "ĠQu": 3887,
      "200": 3888,
      "gene": 3889,
      "Ġwidget": 3890,
      "DS": 3891,
      "Iter": 3892,
      "uint": 3893,
      "buf": 3894,
      "lookup": 3895,
      "Graph": 3896,
      "()]": 3897,
      "Ġabove": 3898,
      "Ġrot": 3899,
      "Ġcy": 3900,
      "For": 3901,
      "tore": 3902,
      "Ġanalysis": 3903,
      "Ġprev": 3904,
      "maining": 3905,
      "Ġtake": 3906,
      "icle": 3907,
      "ĠInvalid": 3908,
      "cesses": 3909,
      "Ġprop": 3910,
      "Ent": 3911,
      "Ġrate": 3912,
      "sorted": 3913,
      "download": 3914,
      "database": 3915,
      "cab": 3916,
      "obs": 3917,
      "light": 3918,
      "Ġkernel": 3919,
      "Ġchanged": 3920,
      "complete": 3921,
      "Str": 3922,
      "Ġamount": 3923,
      "__.": 3924,
      "Ġcomponents": 3925,
      "multi": 3926,
      "compile": 3927,
      "Ġdetect": 3928,
      "Ġvariant": 3929,
      "Ġ,": 3930,
      "fail": 3931,
      "Ġattrs": 3932,
      "ĠMake": 3933,
      "ices": 3934,
      "tty": 3935,
      "mu": 3936,
      "velo": 3937,
      "elements": 3938,
      "ons": 3939,
      "rain": 3940,
      "Ġcommands": 3941,
      "cla": 3942,
      "basename": 3943,
      "Ġtrig": 3944,
      "lex": 3945,
      "Ġdescri": 3946,
      "Ġchildren": 3947,
      "public": 3948,
      "ĠXML": 3949,
      "}}": 3950,
      "suffix": 3951,
      "andlers": 3952,
      "Ġpublic": 3953,
      "Ġ'')": 3954,
      "okie": 3955,
      "Ġast": 3956,
      "Ġaccording": 3957,
      "Number": 3958,
      "rag": 3959,
      "Ġflow": 3960,
      "sole": 3961,
      "Ġextensions": 3962,
      "sym": 3963,
      "rot": 3964,
      "www": 3965,
      "Ġanother": 3966,
      "OP": 3967,
      "Ġsupp": 3968,
      "month": 3969,
      "sleep": 3970,
      "Ġnumbers": 3971,
      "ene": 3972,
      "istics": 3973,
      "ĠRead": 3974,
      "threshold": 3975,
      "POST": 3976,
      "HTTP": 3977,
      "('--": 3978,
      "Ġmember": 3979,
      "Ġcategory": 3980,
      "'re": 3981,
      "PATH": 3982,
      "details": 3983,
      "assign": 3984,
      "--------------------------------": 3985,
      "andidate": 3986,
      "66": 3987,
      "ĠOtherwise": 3988,
      "Ġstates": 3989,
      ":-": 3990,
      "expand": 3991,
      "axes": 3992,
      "Ġslice": 3993,
      "05": 3994,
      "memory": 3995,
      "Ġetc": 3996,
      "Ġproduct": 3997,
      "Ġpandas": 3998,
      "Ġ[(": 3999,
      "imer": 4000,
      "contents": 4001,
      "Ġsubprocess": 4002,
      "Ġpkg": 4003,
      "resources": 4004,
      "Ġlookup": 4005,
      "03": 4006,
      "acy": 4007,
      "Ġverify": 4008,
      "Count": 4009,
      "vide": 4010,
      "=_": 4011,
      "Ġexpi": 4012,
      "ĠConvert": 4013,
      "tz": 4014,
      "UM": 4015,
      "scriptor": 4016,
      "Ġpick": 4017,
      "ells": 4018,
      "Rec": 4019,
      "eff": 4020,
      "ĠConfig": 4021,
      "Ġdimensions": 4022,
      "Ġexceptions": 4023,
      "Ġbar": 4024,
      "Desc": 4025,
      "Ġcp": 4026,
      "tl": 4027,
      "]*": 4028,
      "Ġ\"-": 4029,
      "ĠRemove": 4030,
      "channels": 4031,
      "Ġfuture": 4032,
      "Exec": 4033,
      "generate": 4034,
      "mid": 4035,
      "eval": 4036,
      "frac": 4037,
      "Ġrepository": 4038,
      "Ġbits": 4039,
      "gt": 4040,
      "Ġstderr": 4041,
      "Start": 4042,
      "abel": 4043,
      "Ġcurrently": 4044,
      "Ġ\"_": 4045,
      "Ġ{},": 4046,
      "lev": 4047,
      "Ġsummary": 4048,
      "Ġbackend": 4049,
      "Ġalias": 4050,
      "From": 4051,
      "Ġspe": 4052,
      "faces": 4053,
      "utton": 4054,
      "filters": 4055,
      "oms": 4056,
      "ĠYou": 4057,
      "Ġreason": 4058,
      "ĠĠĠĠĠĠĠĠĠĠ": 4059,
      "spath": 4060,
      "Line": 4061,
      "Ġweb": 4062,
      "ugins": 4063,
      "vertex": 4064,
      "çļ": 4065,
      "('.": 4066,
      "Ġencoded": 4067,
      "astype": 4068,
      "Ġlibrary": 4069,
      "Code": 4070,
      "IM": 4071,
      "Ġdat": 4072,
      "Ġexecute": 4073,
      "pkg": 4074,
      "Connection": 4075,
      "SET": 4076,
      "Ġtermin": 4077,
      "ĠAll": 4078,
      "agent": 4079,
      "çļĦ": 4080,
      "uter": 4081,
      "ogram": 4082,
      "Ġclasses": 4083,
      "cd": 4084,
      "iew": 4085,
      "Ġkind": 4086,
      "inished": 4087,
      "admin": 4088,
      "As": 4089,
      "Ġstarting": 4090,
      "operation": 4091,
      "Ġcontrol": 4092,
      "this": 4093,
      "Ġdesired": 4094,
      "Ġangle": 4095,
      "Ġ(%": 4096,
      "colors": 4097,
      "Ġoperator": 4098,
      "icro": 4099,
      "Ġnecessary": 4100,
      "cipy": 4101,
      "best": 4102,
      "reset": 4103,
      "....": 4104,
      "resses": 4105,
      "Ġsetup": 4106,
      "Ġupload": 4107,
      "ĠNO": 4108,
      "safe": 4109,
      "ĠArguments": 4110,
      "Ġvm": 4111,
      "Series": 4112,
      "protocol": 4113,
      "Ġhy": 4114,
      "cursive": 4115,
      "ypes": 4116,
      "MS": 4117,
      "bins": 4118,
      "peration": 4119,
      "sigma": 4120,
      "Ġsigma": 4121,
      "Ġscan": 4122,
      "Map": 4123,
      "ĠĠĠĠĠĠĠĠĠĠĠ": 4124,
      "ife": 4125,
      "gg": 4126,
      "ones": 4127,
      "Ġignored": 4128,
      "lies": 4129,
      "Ġcalls": 4130,
      "AGE": 4131,
      "\"].": 4132,
      "category": 4133,
      "Ġwords": 4134,
      "missing": 4135,
      "sca": 4136,
      "Ġside": 4137,
      "percent": 4138,
      "straints": 4139,
      "ling": 4140,
      "Ġbro": 4141,
      "segment": 4142,
      "ĠFind": 4143,
      "Ġcfg": 4144,
      "Ġreset": 4145,
      "Ġtrack": 4146,
      "history": 4147,
      "RA": 4148,
      "}/": 4149,
      "Ġput": 4150,
      "tices": 4151,
      "ĠSpeci": 4152,
      "ymbols": 4153,
      "Ġutil": 4154,
      "extract": 4155,
      "partition": 4156,
      "Point": 4157,
      "atches": 4158,
      "ATA": 4159,
      "enum": 4160,
      "arguments": 4161,
      "Ġincluded": 4162,
      "Ġoccur": 4163,
      "cons": 4164,
      "Record": 4165,
      "pair": 4166,
      "Ġsimple": 4167,
      "short": 4168,
      "lots": 4169,
      "Ġusers": 4170,
      "sd": 4171,
      "ines": 4172,
      "vidual": 4173,
      "Do": 4174,
      "Ġshell": 4175,
      "Ġ\"{}": 4176,
      "Ġ[],": 4177,
      "Service": 4178,
      "tk": 4179,
      "IS": 4180,
      "ips": 4181,
      "inf": 4182,
      "Ġduration": 4183,
      "Ġbind": 4184,
      "Ġrelation": 4185,
      "pad": 4186,
      "Al": 4187,
      "ĠParse": 4188,
      "Ġeffect": 4189,
      "Ġdim": 4190,
      "ibility": 4191,
      "login": 4192,
      "nections": 4193,
      "draw": 4194,
      "']))": 4195,
      "\"]:": 4196,
      "undle": 4197,
      "branch": 4198,
      "Ġfrequency": 4199,
      "tool": 4200,
      "mass": 4201,
      "before": 4202,
      "fun": 4203,
      "åı": 4204,
      "ancel": 4205,
      "Ġwell": 4206,
      "Ġrelease": 4207,
      "Ġdetermine": 4208,
      "jection": 4209,
      "Ġmeasure": 4210,
      "ctories": 4211,
      "Ġresources": 4212,
      ")\"": 4213,
      "ĠTrans": 4214,
      "Ġvalidation": 4215,
      "subject": 4216,
      "Ġsig": 4217,
      "Ġduring": 4218,
      "note": 4219,
      "mediate": 4220,
      "final": 4221,
      "Ġ))": 4222,
      "ĊĠĠĠĠĠĠĠĠĠĠĠĠĠĠĠĠĠĠĠĠĠĠĠĠĠĠĠĠĠĠĠĠĠĠĠĠĠĠĠĠĠ": 4223,
      "ropy": 4224,
      "Ġmaster": 4225,
      "Ġbelow": 4226,
      "olved": 4227,
      "Ġorigin": 4228,
      "23": 4229,
      "scan": 4230,
      "plugin": 4231,
      "alculate": 4232,
      "rand": 4233,
      "Ġ),": 4234,
      "Ġpad": 4235,
      "Ġinstalled": 4236,
      "area": 4237,
      "ĠĠĠĠĠĠĠĠĠĠĠĠ": 4238,
      "Ġloaded": 4239,
      "Ġalong": 4240,
      "compute": 4241,
      "]])": 4242,
      "ĊĊĊĠĠĠ": 4243,
      "Ġfast": 4244,
      "counter": 4245,
      "`:": 4246,
      "Ġut": 4247,
      "Ġphase": 4248,
      "found": 4249,
      "501": 4250,
      "Ġpartition": 4251,
      "Ġscalar": 4252,
      "cr": 4253,
      ":\\": 4254,
      "tries": 4255,
      "Ġtuples": 4256,
      "repr": 4257,
      "Ġseed": 4258,
      "ĠIOError": 4259,
      "Ġnorm": 4260,
      "Tree": 4261,
      "umb": 4262,
      "__(": 4263,
      "Ġraised": 4264,
      "hs": 4265,
      "Ġradius": 4266,
      "Ġtoo": 4267,
      "dirs": 4268,
      "gories": 4269,
      "Ġsets": 4270,
      "TML": 4271,
      "concat": 4272,
      "ĠUni": 4273,
      "invalid": 4274,
      "rep": 4275,
      "PAR": 4276,
      "Ġmonth": 4277,
      "fp": 4278,
      "uff": 4279,
      "iki": 4280,
      "indent": 4281,
      "factory": 4282,
      "redu": 4283,
      "priate": 4284,
      "ABLE": 4285,
      "ands": 4286,
      "clus": 4287,
      "FOR": 4288,
      "Of": 4289,
      "Ġavoid": 4290,
      "drop": 4291,
      "lso": 4292,
      "ality": 4293,
      "ks": 4294,
      "allel": 4295,
      "Ġ[])": 4296,
      "-+-+-+-+": 4297,
      "Ġap": 4298,
      "Ġcolors": 4299,
      "images": 4300,
      "home": 4301,
      "components": 4302,
      "Ġ\"--": 4303,
      "days": 4304,
      "75": 4305,
      "Ġneighb": 4306,
      "ynamic": 4307,
      "Ġclear": 4308,
      "setdefault": 4309,
      "Could": 4310,
      "Ġsteps": 4311,
      "Ġautomatically": 4312,
      "ping": 4313,
      "NotFound": 4314,
      "{}'.": 4315,
      "Ġasynchronous": 4316,
      "ars": 4317,
      "retry": 4318,
      "ascii": 4319,
      "ĊĠĠĠĠĠĠĠĠĠĠĠĠĠĠĠĠĠĠĠĠĠĠĠĠĠĠĠĠĠĠĠĠĠĠĠĠĠĠĠĠĠĠ": 4320,
      "Ġpadding": 4321,
      "Ġbegin": 4322,
      "84": 4323,
      "sess": 4324,
      "Ġdeleted": 4325,
      "XX": 4326,
      "Ġpercent": 4327,
      "ĠLog": 4328,
      "neighb": 4329,
      "Ġdst": 4330,
      "Ġcredentials": 4331,
      "matches": 4332,
      "iteritems": 4333,
      "%(": 4334,
      "AG": 4335,
      "firm": 4336,
      "TIME": 4337,
      "ĉĉ": 4338,
      "Ġfo": 4339,
      "Ġcached": 4340,
      "ĠPre": 4341,
      "Ġsupplied": 4342,
      "skip": 4343,
      ":])": 4344,
      "beta": 4345,
      "ĠYANG": 4346,
      "isfile": 4347,
      "IC": 4348,
      "lip": 4349,
      "Ġmove": 4350,
      "binary": 4351,
      "setup": 4352,
      "structure": 4353,
      "layout": 4354,
      "âĶ": 4355,
      "Ġappropriate": 4356,
      "enabled": 4357,
      "gers": 4358,
      "ĠIN": 4359,
      "Ġmodified": 4360,
      "Ġ[[": 4361,
      "precated": 4362,
      "ĠBo": 4363,
      "crypted": 4364,
      "Load": 4365,
      "blocks": 4366,
      "loss": 4367,
      "servation": 4368,
      "\"][\"": 4369,
      "ĠHe": 4370,
      "Ġdrop": 4371,
      "cert": 4372,
      "utor": 4373,
      "proc": 4374,
      "Resource": 4375,
      "istent": 4376,
      "Ġfigure": 4377,
      "deredDict": 4378,
      "uplicate": 4379,
      "Cur": 4380,
      "Lay": 4381,
      "fication": 4382,
      "86": 4383,
      "duration": 4384,
      "Ġexpect": 4385,
      "variant": 4386,
      "rents": 4387,
      "Ġexecution": 4388,
      "example": 4389,
      "spaces": 4390,
      "Ġspecial": 4391,
      "90": 4392,
      "Ġincre": 4393,
      "quival": 4394,
      "rer": 4395,
      "Ġonce": 4396,
      "hood": 4397,
      "ĠAlso": 4398,
      "running": 4399,
      "control": 4400,
      "Ġsaved": 4401,
      "Ġmight": 4402,
      "Ġretrieve": 4403,
      "pacity": 4404,
      "high": 4405,
      "pars": 4406,
      "nb": 4407,
      "sin": 4408,
      "ural": 4409,
      "expression": 4410,
      "dx": 4411,
      "entries": 4412,
      "Bu": 4413,
      "product": 4414,
      "Obj": 4415,
      "tw": 4416,
      "condition": 4417,
      "Ġagainst": 4418,
      "commands": 4419,
      "Ġconverted": 4420,
      "messages": 4421,
      "Ġstri": 4422,
      "Ġtraining": 4423,
      ")'": 4424,
      "ĠTe": 4425,
      "Ġprogram": 4426,
      "cing": 4427,
      ")}": 4428,
      "Ġcut": 4429,
      "Ġabsolute": 4430,
      "cu": 4431,
      "Ġfailure": 4432,
      "unch": 4433,
      "Column": 4434,
      "second": 4435,
      "Ġns": 4436,
      "grade": 4437,
      "pb": 4438,
      "conv": 4439,
      "Ġreceived": 4440,
      ")).": 4441,
      "ridge": 4442,
      "Ġexact": 4443,
      "Ġrank": 4444,
      "Default": 4445,
      "TS": 4446,
      "Ġarr": 4447,
      "single": 4448,
      "(\\": 4449,
      "Token": 4450,
      "Ġlet": 4451,
      "mplates": 4452,
      "mooth": 4453,
      "web": 4454,
      "signature": 4455,
      "dient": 4456,
      "BUG": 4457,
      "arange": 4458,
      "records": 4459,
      "seed": 4460,
      "bet": 4461,
      "ough": 4462,
      "jor": 4463,
      "ours": 4464,
      "Ġexport": 4465,
      "Ca": 4466,
      "deg": 4467,
      "Ġredirect": 4468,
      "td": 4469,
      "Ġtasks": 4470,
      "mgmt": 4471,
      "Ġcsv": 4472,
      "Ġhex": 4473,
      "Ġgot": 4474,
      "Ġoutputs": 4475,
      "digest": 4476,
      "Ġpers": 4477,
      "rece": 4478,
      "Ġinside": 4479,
      "sens": 4480,
      "users": 4481,
      "Ġlow": 4482,
      "ava": 4483,
      "ĠCommand": 4484,
      "Ġdetermin": 4485,
      "ulti": 4486,
      "pan": 4487,
      "Ġknown": 4488,
      "uous": 4489,
      "Ġenable": 4490,
      "Ġrequires": 4491,
      "ada": 4492,
      "27": 4493,
      "Ġfeed": 4494,
      "Ġusage": 4495,
      "ACK": 4496,
      "engine": 4497,
      "\").": 4498,
      "ilities": 4499,
      "vas": 4500,
      "Ġenabled": 4501,
      "=-": 4502,
      "Ġbuf": 4503,
      "Ġdump": 4504,
      "Ġprovide": 4505,
      "verify": 4506,
      "Ġreply": 4507,
      "usters": 4508,
      "Ġ20": 4509,
      "catalog": 4510,
      "Clo": 4511,
      "ĠNotes": 4512,
      "Option": 4513,
      "struction": 4514,
      ",'": 4515,
      "imp": 4516,
      "Ġrep": 4517,
      "hostname": 4518,
      "ited": 4519,
      "tical": 4520,
      "google": 4521,
      "js": 4522,
      "vl": 4523,
      "Stream": 4524,
      "Ġ'__": 4525,
      "Ġscal": 4526,
      "sidered": 4527,
      "tasks": 4528,
      "Cannot": 4529,
      "dst": 4530,
      "UB": 4531,
      "grees": 4532,
      "Ġformatted": 4533,
      "Ġyet": 4534,
      "Attribute": 4535,
      "Ġcir": 4536,
      "ĠPo": 4537,
      "OL": 4538,
      "created": 4539,
      "tile": 4540,
      "orary": 4541,
      "cm": 4542,
      "ression": 4543,
      "Ġchecks": 4544,
      "MM": 4545,
      "Ġinv": 4546,
      "Ġactions": 4547,
      "SION": 4548,
      "40": 4549,
      "Ġmesh": 4550,
      "echo": 4551,
      "Ġregistered": 4552,
      "(?": 4553,
      "inv": 4554,
      "We": 4555,
      "Warning": 4556,
      "Ġoverwrite": 4557,
      "Ġmodules": 4558,
      "rect": 4559,
      "Command": 4560,
      "Ġembed": 4561,
      "Ġnormalize": 4562,
      "ĠLoad": 4563,
      "sync": 4564,
      "']]": 4565,
      "Ġeven": 4566,
      "Fe": 4567,
      "ĠImport": 4568,
      "|'": 4569,
      "256": 4570,
      "ription": 4571,
      "Ġ~": 4572,
      "members": 4573,
      "ĠCan": 4574,
      "Ġpositive": 4575,
      "Ġdot": 4576,
      "Ġconsidered": 4577,
      "cum": 4578,
      "Ġsn": 4579,
      "Manager": 4580,
      "ii": 4581,
      "Ġcounts": 4582,
      "Tensor": 4583,
      "Ġstrip": 4584,
      "Ġsnapshot": 4585,
      "Ġans": 4586,
      "ĠLOGGER": 4587,
      "Ġtab": 4588,
      "dl": 4589,
      "private": 4590,
      "ĠĊĠĠĠĠĠĠĠĠĠĠĠ": 4591,
      "backend": 4592,
      "Ġsequences": 4593,
      "aving": 4594,
      "ĊĊ": 4595,
      "SA": 4596,
      "reat": 4597,
      "oriz": 4598,
      "ĠEach": 4599,
      "Filter": 4600,
      "(',": 4601,
      "Ġelem": 4602,
      "oom": 4603,
      "Ġbounds": 4604,
      "ASE": 4605,
      "havi": 4606,
      "Ġapplied": 4607,
      "bounds": 4608,
      "render": 4609,
      "anis": 4610,
      "VE": 4611,
      "Ġissue": 4612,
      "SER": 4613,
      "Tra": 4614,
      "structor": 4615,
      "metrics": 4616,
      "Ġleg": 4617,
      "Ġnb": 4618,
      "atom": 4619,
      "CP": 4620,
      "(__": 4621,
      "exclude": 4622,
      "Ġimplemented": 4623,
      "Ġatom": 4624,
      "95": 4625,
      "provider": 4626,
      "Ġsetattr": 4627,
      "limiter": 4628,
      "Ġaggreg": 4629,
      "ĠInput": 4630,
      "riteria": 4631,
      "Method": 4632,
      "Ġepoch": 4633,
      "theta": 4634,
      "font": 4635,
      "={'": 4636,
      "Action": 4637,
      "strings": 4638,
      "Def": 4639,
      "Ġarchive": 4640,
      "Ġwritten": 4641,
      "indows": 4642,
      "Ġdecode": 4643,
      "Ġcoeffici": 4644,
      "ĠDict": 4645,
      "Ġ-----": 4646,
      "Ġpartial": 4647,
      "Ġsmall": 4648,
      "ifest": 4649,
      "Mo": 4650,
      "abspath": 4651,
      "ĠDis": 4652,
      "antity": 4653,
      "rr": 4654,
      "Ġcounter": 4655,
      "ral": 4656,
      "yaml": 4657,
      "separ": 4658,
      "Ġpid": 4659,
      "definition": 4660,
      "Ġfont": 4661,
      "writer": 4662,
      "čĊčĊĠĠĠ": 4663,
      "GS": 4664,
      "Source": 4665,
      "pd": 4666,
      "Ġgit": 4667,
      "Ġlogin": 4668,
      "Ġexplicit": 4669,
      "lis": 4670,
      "auss": 4671,
      "ĠQt": 4672,
      "='',": 4673,
      "Ġprec": 4674,
      "mesh": 4675,
      "Ġknow": 4676,
      "Ġsafe": 4677,
      ".\",": 4678,
      "Ġsl": 4679,
      "ratio": 4680,
      "ert": 4681,
      "Ġcla": 4682,
      "Optional": 4683,
      "Ġmetrics": 4684,
      "Ġarea": 4685,
      "tick": 4686,
      "Ġprocessed": 4687,
      "prob": 4688,
      "Ġchannels": 4689,
      "Ġwin": 4690,
      "Ġtakes": 4691,
      "Ġdid": 4692,
      "otes": 4693,
      "Ġversionadded": 4694,
      "kernel": 4695,
      "sem": 4696,
      "Ġround": 4697,
      "alg": 4698,
      "sumer": 4699,
      "configuration": 4700,
      "View": 4701,
      "variance": 4702,
      "Widget": 4703,
      "resp": 4704,
      "dle": 4705,
      "Ġless": 4706,
      "sources": 4707,
      "Ġattach": 4708,
      "mitted": 4709,
      "Ac": 4710,
      "Ġve": 4711,
      "ifiers": 4712,
      "shell": 4713,
      "LIN": 4714,
      "Convert": 4715,
      "Ġengine": 4716,
      "processing": 4717,
      "driver": 4718,
      "ĠObject": 4719,
      "Ġ{})": 4720,
      "}:": 4721,
      "Ġtile": 4722,
      "Ġ')": 4723,
      "Ġstill": 4724,
      "ZE": 4725,
      "Ġ''.": 4726,
      "Ġasset": 4727,
      "36": 4728,
      "epoch": 4729,
      "Ġmanager": 4730,
      "Ġmarker": 4731,
      "Ġmac": 4732,
      "Ġaverage": 4733,
      ".',": 4734,
      "available": 4735,
      "Function": 4736,
      "expi": 4737,
      "Ġorg": 4738,
      "Ġnested": 4739,
      "UE": 4740,
      "ĠRequest": 4741,
      "orld": 4742,
      "')[": 4743,
      "rupt": 4744,
      "Ġinspect": 4745,
      "Ġnotification": 4746,
      "targets": 4747,
      "35": 4748,
      "ssl": 4749,
      "85": 4750,
      "ever": 4751,
      "activ": 4752,
      "platform": 4753,
      "96": 4754,
      "Ġmatplotlib": 4755,
      "ENT": 4756,
      "xim": 4757,
      "ĠId": 4758,
      "Ġrepe": 4759,
      "Ġrules": 4760,
      "ndim": 4761,
      "sur": 4762,
      "Ġpredict": 4763,
      "=\"\"": 4764,
      "track": 4765,
      "Ġnegative": 4766,
      "Ġprocessing": 4767,
      "Ġpixel": 4768,
      "Ġyaml": 4769,
      "Server": 4770,
      "reader": 4771,
      "ube": 4772,
      "ĊĠĠĠĠĠĠĠĠĠĠĠĠĠĠĠĠĠĠĠĠĠĠĠĠĠĠĠĠĠĠĠĠĠĠĠĠĠĠĠĠĠĠĠĠ": 4773,
      "Call": 4774,
      "Ġproblem": 4775,
      "oto": 4776,
      "boot": 4777,
      "Level": 4778,
      "Ġhapp": 4779,
      "Box": 4780,
      "ĠOpen": 4781,
      "fid": 4782,
      "Ġmid": 4783,
      "Ġpartic": 4784,
      "origin": 4785,
      "Ġ'<": 4786,
      "quare": 4787,
      "Ġ[-": 4788,
      "Output": 4789,
      "Ġsources": 4790,
      "diag": 4791,
      "Ġfilepath": 4792,
      "begin": 4793,
      "OS": 4794,
      "quote": 4795,
      "progress": 4796,
      "Ġblocks": 4797,
      "Ġimplementation": 4798,
      "require": 4799,
      "clip": 4800,
      "done": 4801,
      "fin": 4802,
      "Ġ1000": 4803,
      "Ġpower": 4804,
      "ĠFI": 4805,
      "Cont": 4806,
      "Implemented": 4807,
      "quivalent": 4808,
      "'\"": 4809,
      "__.__": 4810,
      "Ġtargets": 4811,
      "upload": 4812,
      "Ġstatement": 4813,
      "hing": 4814,
      "Ġmd": 4815,
      "Ġplatform": 4816,
      "Ġregistry": 4817,
      "Ġdefining": 4818,
      "Params": 4819,
      "scheme": 4820,
      "Ġpipeline": 4821,
      "['_": 4822,
      "HO": 4823,
      "Ġinterpol": 4824,
      "Ġmachine": 4825,
      "PRE": 4826,
      "irst": 4827,
      "Ġworker": 4828,
      "OK": 4829,
      "hidden": 4830,
      "ĠBuild": 4831,
      "lineno": 4832,
      "Ġlater": 4833,
      "Ġsimp": 4834,
      "static": 4835,
      "VI": 4836,
      "Ġbackground": 4837,
      "mar": 4838,
      "Ġagent": 4839,
      "onal": 4840,
      "correct": 4841,
      "iterable": 4842,
      "ferred": 4843,
      "ĠOSError": 4844,
      "Link": 4845,
      "Ġnone": 4846,
      "shift": 4847,
      "Ġconstruct": 4848,
      "Ġps": 4849,
      "EM": 4850,
      "registry": 4851,
      "see": 4852,
      "Ġds": 4853,
      "rank": 4854,
      "iso": 4855,
      "rules": 4856,
      "lag": 4857,
      "asis": 4858,
      "Ġpositions": 4859,
      "stit": 4860,
      "div": 4861,
      "Ġworks": 4862,
      "rong": 4863,
      "unpack": 4864,
      "Ġfiltered": 4865,
      "integer": 4866,
      "ili": 4867,
      "predi": 4868,
      "present": 4869,
      "Ġtransp": 4870,
      "Ġtool": 4871,
      "Ġvirtual": 4872,
      "Ġfd": 4873,
      "Ġå": 4874,
      "Ġiteration": 4875,
      "Unable": 4876,
      "inc": 4877,
      "Ġprovider": 4878,
      "ygon": 4879,
      "ned": 4880,
      "Ġversions": 4881,
      "cogn": 4882,
      "Ġselection": 4883,
      "Ġspecification": 4884,
      "Ġalt": 4885,
      "ĠError": 4886,
      "ender": 4887,
      "asset": 4888,
      "=['": 4889,
      "mer": 4890,
      "pdf": 4891,
      "Ġactiv": 4892,
      "rowser": 4893,
      "ï¼Į": 4894,
      "cpu": 4895,
      "Ġcourse": 4896,
      "epcopy": 4897,
      "\\'": 4898,
      "emon": 4899,
      "generator": 4900,
      "Ġcover": 4901,
      ");": 4902,
      "Spec": 4903,
      "Address": 4904,
      "77": 4905,
      "Ġregular": 4906,
      "ula": 4907,
      "PS": 4908,
      "ierarch": 4909,
      "Ġprimary": 4910,
      "Ġmapped": 4911,
      "Ġbins": 4912,
      "most": 4913,
      "Ġpackages": 4914,
      "Ġrelated": 4915,
      "cn": 4916,
      "_)": 4917,
      "Ġanaly": 4918,
      "Store": 4919,
      "Ġinner": 4920,
      "ĠSh": 4921,
      "Ġrespect": 4922,
      "Ġtopic": 4923,
      "Ġfixed": 4924,
      "Unknown": 4925,
      "esca": 4926,
      "ORD": 4927,
      "Ġworking": 4928,
      "'|'": 4929,
      "ĠIter": 4930,
      "hy": 4931,
      "outputs": 4932,
      "Ġpipe": 4933,
      "uler": 4934,
      "Ġsat": 4935,
      "Ġconnected": 4936,
      "Ġiterator": 4937,
      "Block": 4938,
      "FIG": 4939,
      "attrib": 4940,
      "enu": 4941,
      "Ġexpr": 4942,
      "pm": 4943,
      "Ġdig": 4944,
      "Ġmakes": 4945,
      "Pa": 4946,
      "ĠCreates": 4947,
      "]],": 4948,
      "lier": 4949,
      "ĠBe": 4950,
      "Ġcompar": 4951,
      "ĠCompute": 4952,
      "osid": 4953,
      "Mode": 4954,
      "Ġsolution": 4955,
      "ĠBase": 4956,
      "measure": 4957,
      "lihood": 4958,
      "Ġlate": 4959,
      "Ġvo": 4960,
      "Ġpr": 4961,
      "INT": 4962,
      "cryption": 4963,
      "isdir": 4964,
      "Ġsimilar": 4965,
      "duced": 4966,
      "mk": 4967,
      "serve": 4968,
      "Ġspa": 4969,
      "Ġmatched": 4970,
      "Sign": 4971,
      "br": 4972,
      "original": 4973,
      "ĠReg": 4974,
      "Ġscheme": 4975,
      "Ġpotential": 4976,
      "ront": 4977,
      "End": 4978,
      "accept": 4979,
      "Ġremaining": 4980,
      "ocument": 4981,
      "eries": 4982,
      "Ġfreq": 4983,
      "radius": 4984,
      "Ġdev": 4985,
      "Ġintegr": 4986,
      "assert": 4987,
      "scribe": 4988,
      "Hel": 4989,
      "ĊĠĠĠĠĠĠĠĠĠĠĠĠĠĠĠĠĠĠĠĠĠĠĠĠĠĠĠĠĠĠĠĠĠĠĠĠĠĠĠĠĠĠĠĠĠĠĠ": 4990,
      "direction": 4991,
      "internal": 4992,
      "Ġcollections": 4993,
      "ALL": 4994,
      "keyword": 4995,
      "Ġindividual": 4996,
      "ĠNotImplemented": 4997,
      "Ġbasestring": 4998,
      "Ġcb": 4999,
      "flush": 5000,
      "Ġspan": 5001,
      "ROM": 5002,
      "`)": 5003,
      "Ġ(:": 5004,
      ")**": 5005,
      "oring": 5006,
      "zy": 5007,
      "ĠSub": 5008,
      "26": 5009,
      "Ġcols": 5010,
      "ally": 5011,
      "ä»": 5012,
      "rency": 5013,
      "free": 5014,
      "ĠThere": 5015,
      "ked": 5016,
      "otype": 5017,
      "^{": 5018,
      "STR": 5019,
      "ĠInitial": 5020,
      "ĠOut": 5021,
      "glob": 5022,
      "power": 5023,
      "services": 5024,
      "Color": 5025,
      "worker": 5026,
      "ssh": 5027,
      "Ġcoordinate": 5028,
      "Ġreci": 5029,
      "ric": 5030,
      "alance": 5031,
      "tention": 5032,
      "Dir": 5033,
      "ĠGiven": 5034,
      "pg": 5035,
      "Ġdec": 5036,
      "transaction": 5037,
      "TypeError": 5038,
      "END": 5039,
      "ĠSo": 5040,
      "Ġbeta": 5041,
      "Entry": 5042,
      "flux": 5043,
      "gz": 5044,
      "Ġcases": 5045,
      "Num": 5046,
      "Ġio": 5047,
      "Parameter": 5048,
      "coordin": 5049,
      "pred": 5050,
      "topic": 5051,
      "Ġsyn": 5052,
      "estim": 5053,
      "ĠImage": 5054,
      "Ġcert": 5055,
      "ĠForm": 5056,
      "png": 5057,
      "delay": 5058,
      "Range": 5059,
      "System": 5060,
      "media": 5061,
      "udio": 5062,
      "uess": 5063,
      "Ġmembers": 5064,
      "Ġitself": 5065,
      "ĊĠĠĠĠĠĠĠĠĠĠĠĠĠĠĠĠĠĠĠĠĠĠĠĠĠĠĠĠĠĠĠĠĠĠĠĠĠĠĠĠĠĠĠĠĠ": 5066,
      "embed": 5067,
      "owner": 5068,
      "ied": 5069,
      "Ġconv": 5070,
      "Ġdataframe": 5071,
      "Ġscipy": 5072,
      "Ġ<<": 5073,
      "Row": 5074,
      "proto": 5075,
      "Write": 5076,
      "Ġada": 5077,
      "Ġcurve": 5078,
      "Ġlinks": 5079,
      ")\\": 5080,
      "ceed": 5081,
      "____": 5082,
      "compat": 5083,
      "onts": 5084,
      "partial": 5085,
      "ĠNode": 5086,
      "Ġ':": 5087,
      "Job": 5088,
      "Ġhook": 5089,
      "GB": 5090,
      "ij": 5091,
      "sage": 5092,
      "Ġnull": 5093,
      "equal": 5094,
      "Ġhostname": 5095,
      "ship": 5096,
      "raps": 5097,
      "chor": 5098,
      "Ġsep": 5099,
      "Ġlayout": 5100,
      "Ġchunks": 5101,
      "aa": 5102,
      "Ġuseful": 5103,
      "Ad": 5104,
      "packages": 5105,
      "anti": 5106,
      "Ġreturning": 5107,
      "Tag": 5108,
      "ket": 5109,
      ".'.": 5110,
      "tainer": 5111,
      "Parameters": 5112,
      "bos": 5113,
      "ĠHTML": 5114,
      "zen": 5115,
      "comb": 5116,
      "Ġstage": 5117,
      "Ġtemperature": 5118,
      "Proper": 5119,
      "Ġaddr": 5120,
      "packet": 5121,
      "lyph": 5122,
      "Ġhistory": 5123,
      ")+": 5124,
      "AND": 5125,
      "parsed": 5126,
      "Ġcurr": 5127,
      "uses": 5128,
      "usage": 5129,
      "Ġprior": 5130,
      "ĠGenerate": 5131,
      "Ġmass": 5132,
      "70": 5133,
      "Ġparsing": 5134,
      "\"\\": 5135,
      "Ġdocumentation": 5136,
      "Ġexternal": 5137,
      "Ġ*=": 5138,
      "Ġoperations": 5139,
      "Ġ[{": 5140,
      "logical": 5141,
      "sto": 5142,
      "tables": 5143,
      "Ġsecurity": 5144,
      "Ġexperiment": 5145,
      "operator": 5146,
      "ARN": 5147,
      "ector": 5148,
      "requests": 5149,
      "Ġsec": 5150,
      "ongo": 5151,
      "ragma": 5152,
      "attach": 5153,
      "Ġcertificate": 5154,
      "etrieve": 5155,
      "pto": 5156,
      "pology": 5157,
      "ĠCall": 5158,
      "edit": 5159,
      "failed": 5160,
      "ttp": 5161,
      "creen": 5162,
      "holder": 5163,
      "Ġaround": 5164,
      "lict": 5165,
      "scal": 5166,
      "Ġwrapped": 5167,
      "scape": 5168,
      "Ġnormalized": 5169,
      "ĠIndexError": 5170,
      "andidates": 5171,
      "('_": 5172,
      "illar": 5173,
      ")-": 5174,
      "PTION": 5175,
      "refresh": 5176,
      "optim": 5177,
      "specimen": 5178,
      "Ġfore": 5179,
      "big": 5180,
      "Ġ\\'": 5181,
      "atter": 5182,
      "ĠCode": 5183,
      "Ġcalculated": 5184,
      "flatten": 5185,
      ")',": 5186,
      "inner": 5187,
      "olds": 5188,
      "INFO": 5189,
      "Ġallows": 5190,
      "reen": 5191,
      "Ġhelper": 5192,
      "dn": 5193,
      "Ġbehavi": 5194,
      "Ġcore": 5195,
      ",))": 5196,
      "cript": 5197,
      "strument": 5198,
      "archive": 5199,
      "Ġforward": 5200,
      "Ġtick": 5201,
      "Ġcoords": 5202,
      "upported": 5203,
      "Ġcatalog": 5204,
      "Su": 5205,
      "Ġcollect": 5206,
      "MAT": 5207,
      "Ġbad": 5208,
      "Ġ?": 5209,
      "feed": 5210,
      "em": 5211,
      "false": 5212,
      "Ġproto": 5213,
      "Ġnothing": 5214,
      "istic": 5215,
      "mut": 5216,
      "ĠIDs": 5217,
      "Ġattempt": 5218,
      "ĊĊĊĠĠĠĠĠĠĠ": 5219,
      "Ġauthentication": 5220,
      "Ġflux": 5221,
      "1000": 5222,
      "Ġtar": 5223,
      "pture": 5224,
      "calcul": 5225,
      "MENT": 5226,
      "plan": 5227,
      "COL": 5228,
      "ĠFunction": 5229,
      "Ġæ": 5230,
      "prev": 5231,
      "wiki": 5232,
      "Ġsomething": 5233,
      "ared": 5234,
      "{}\".": 5235,
      "Ġcreating": 5236,
      "Ġsurface": 5237,
      "verts": 5238,
      "Ġindexes": 5239,
      "alf": 5240,
      "DATA": 5241,
      "reverse": 5242,
      "geo": 5243,
      "Ġdelay": 5244,
      "Ġdue": 5245,
      "Ġlayers": 5246,
      "iling": 5247,
      "calc": 5248,
      "ĠOrderedDict": 5249,
      "*.": 5250,
      "Ġblob": 5251,
      "functions": 5252,
      "Ġgreater": 5253,
      "Ġreader": 5254,
      "wrapper": 5255,
      "elem": 5256,
      "ider": 5257,
      "Ġloss": 5258,
      "(\"-": 5259,
      "actor": 5260,
      "~~": 5261,
      "ĊĊĠĠĠĠĠĠĠĠĠ": 5262,
      "identity": 5263,
      "Ed": 5264,
      "Ġconversion": 5265,
      "Ġ15": 5266,
      "Ġwhose": 5267,
      "ĊĊĠĠĠĠĠĠĠĠĠĠĠĠĠĠĠĠĠĠĠĠĠĠĠ": 5268,
      "ritical": 5269,
      "Ġts": 5270,
      "Ġ60": 5271,
      "rpc": 5272,
      "tein": 5273,
      "Ġresolve": 5274,
      "Ġdiag": 5275,
      "family": 5276,
      "security": 5277,
      "âĶĢ": 5278,
      "Ġadmin": 5279,
      "cover": 5280,
      "phase": 5281,
      "Ġart": 5282,
      "Ġener": 5283,
      "Ġdriver": 5284,
      "Ġrepr": 5285,
      "sence": 5286,
      "sock": 5287,
      "predict": 5288,
      "78": 5289,
      "Ġtran": 5290,
      "Ġtables": 5291,
      "Ġaltern": 5292,
      "Ġequ": 5293,
      "ĠHow": 5294,
      "ond": 5295,
      "Ġsecret": 5296,
      "Ġnoise": 5297,
      ".\\": 5298,
      "Act": 5299,
      "rev": 5300,
      "Ġconfigured": 5301,
      "inish": 5302,
      "(':": 5303,
      "Ġdeploy": 5304,
      "notification": 5305,
      "apping": 5306,
      "ĠURI": 5307,
      "Ġ\\\\": 5308,
      "disk": 5309,
      "reduce": 5310,
      "Ġqui": 5311,
      "Ġratio": 5312,
      "Ġstrict": 5313,
      "sessment": 5314,
      "Qt": 5315,
      "Ref": 5316,
      "ipv": 5317,
      "Ġcompatible": 5318,
      "ĠWrite": 5319,
      "rstrip": 5320,
      "Ġsto": 5321,
      "prompt": 5322,
      "Ġparticular": 5323,
      "pairs": 5324,
      "Ġpretty": 5325,
      "94": 5326,
      "ĠHandle": 5327,
      "Ġproc": 5328,
      "magic": 5329,
      "Find": 5330,
      "DIR": 5331,
      "Ġactually": 5332,
      "seg": 5333,
      "stract": 5334,
      "choice": 5335,
      "Ġpur": 5336,
      "Ġlinear": 5337,
      "sr": 5338,
      "refs": 5339,
      "ĠAc": 5340,
      "band": 5341,
      "LECT": 5342,
      "ipping": 5343,
      "LL": 5344,
      "pose": 5345,
      "cio": 5346,
      "atype": 5347,
      "question": 5348,
      "ring": 5349,
      "relation": 5350,
      "loader": 5351,
      "linear": 5352,
      "ValueError": 5353,
      "Task": 5354,
      "Ġspect": 5355,
      "')]": 5356,
      "radi": 5357,
      "forms": 5358,
      "Ġdependencies": 5359,
      "Ġturn": 5360,
      "Ġeps": 5361,
      "wb": 5362,
      "Ġrect": 5363,
      "utc": 5364,
      "cwd": 5365,
      "amo": 5366,
      "If": 5367,
      "rho": 5368,
      "iler": 5369,
      "ĠMax": 5370,
      "74": 5371,
      "ĠDB": 5372,
      "PA": 5373,
      "Ġobs": 5374,
      "ĊĠĠĠĠĠĠĠĠĠĠĠĠĠĠĠĠĠĠĠĠĠĠĠĠĠĠĠĠĠĠĠĠĠĠĠĠĠĠĠĠĠĠĠĠĠĠ": 5375,
      "terms": 5376,
      "HER": 5377,
      "28": 5378,
      "Ġdirectories": 5379,
      "aggreg": 5380,
      "SIZE": 5381,
      "/'": 5382,
      "pick": 5383,
      "Ġjobs": 5384,
      "UID": 5385,
      "ĠStart": 5386,
      "\">": 5387,
      "ĠNotImplementedError": 5388,
      "Ġannotation": 5389,
      "Ġprecision": 5390,
      "crete": 5391,
      "signed": 5392,
      "shut": 5393,
      "ftime": 5394,
      "etadata": 5395,
      "gnitude": 5396,
      "Ġvals": 5397,
      "Part": 5398,
      "blob": 5399,
      "export": 5400,
      "Ġoutfile": 5401,
      "][\"": 5402,
      "peak": 5403,
      "ĠPO": 5404,
      "Ġâ": 5405,
      "posure": 5406,
      "ĠMessage": 5407,
      "aw": 5408,
      "Ġunknown": 5409,
      "unknown": 5410,
      "break": 5411,
      "ĠClo": 5412,
      "Label": 5413,
      "Bo": 5414,
      "_(": 5415,
      "Ġmedia": 5416,
      "[:]": 5417,
      "seek": 5418,
      "Ġupdates": 5419,
      "Build": 5420,
      "roid": 5421,
      "frames": 5422,
      "CM": 5423,
      "semb": 5424,
      "rase": 5425,
      "Ġtor": 5426,
      "Ġsw": 5427,
      "asarray": 5428,
      "MAX": 5429,
      "ationError": 5430,
      "hosts": 5431,
      "Device": 5432,
      "figure": 5433,
      "environment": 5434,
      "Ġmade": 5435,
      "menu": 5436,
      "Ġdays": 5437,
      "argin": 5438,
      "olders": 5439,
      "analysis": 5440,
      "Ġterms": 5441,
      "uman": 5442,
      "TED": 5443,
      "else": 5444,
      "dc": 5445,
      "Ġ],": 5446,
      "normalize": 5447,
      "Ġseparate": 5448,
      "Ġ32": 5449,
      "slug": 5450,
      "vol": 5451,
      "ĠĠĠĠĠĠĠĠĠĠĠĠĠĠĠ": 5452,
      "dep": 5453,
      "ysical": 5454,
      "Ġisn": 5455,
      "Ġclosed": 5456,
      "Ġreading": 5457,
      "Ġobtain": 5458,
      "connected": 5459,
      "tar": 5460,
      "reason": 5461,
      "unic": 5462,
      "Search": 5463,
      "tol": 5464,
      "Ġ:]": 5465,
      "atory": 5466,
      "rad": 5467,
      "ptr": 5468,
      "Ġboot": 5469,
      "Ġtheta": 5470,
      "Ġdefine": 5471,
      "Ġencode": 5472,
      "ACE": 5473,
      "Ġrv": 5474,
      "Ġresulting": 5475,
      "Ġservices": 5476,
      "ĠOne": 5477,
      "escape": 5478,
      "BO": 5479,
      "Ġcandidate": 5480,
      "ĠCalculate": 5481,
      "selection": 5482,
      "Ġbuilt": 5483,
      "wards": 5484,
      "Ġfilenames": 5485,
      "Ġown": 5486,
      "Ġgr": 5487,
      "Ġresid": 5488,
      "Ġappe": 5489,
      "NE": 5490,
      "lst": 5491,
      "Ġden": 5492,
      "clusive": 5493,
      "ailf": 5494,
      "Work": 5495,
      "bad": 5496,
      "bam": 5497,
      "fc": 5498,
      "ract": 5499,
      "Ġhand": 5500,
      "ĠNe": 5501,
      "Ġrecursive": 5502,
      "ctionaries": 5503,
      "Ġmerged": 5504,
      "cov": 5505,
      "Ġmultip": 5506,
      "ategy": 5507,
      "CL": 5508,
      "Ġkeywords": 5509,
      "instances": 5510,
      "DEBUG": 5511,
      "bi": 5512,
      "ĠArray": 5513,
      "Ġindicating": 5514,
      "arc": 5515,
      "NG": 5516,
      "lastic": 5517,
      "Sp": 5518,
      "ĠModel": 5519,
      "scores": 5520,
      "clar": 5521,
      "Ġworkflow": 5522,
      "override": 5523,
      "atic": 5524,
      "Ġscores": 5525,
      "Ġpatch": 5526,
      "********": 5527,
      "ticks": 5528,
      "Ġedit": 5529,
      "configs": 5530,
      "Ġtrigger": 5531,
      "rum": 5532,
      "snapshot": 5533,
      "orter": 5534,
      "Ġrefresh": 5535,
      "soft": 5536,
      "[(": 5537,
      "YY": 5538,
      "iver": 5539,
      "px": 5540,
      "('{": 5541,
      "ORT": 5542,
      "/(": 5543,
      "hi": 5544,
      "arest": 5545,
      "Ġdx": 5546,
      "Ġdeg": 5547,
      "resolve": 5548,
      "constants": 5549,
      "Ġwriter": 5550,
      "adcast": 5551,
      "Open": 5552,
      "ĠResponse": 5553,
      "modified": 5554,
      "fasta": 5555,
      "tour": 5556,
      "Ġincluding": 5557,
      "Ġ\"<": 5558,
      "selected": 5559,
      "orizont": 5560,
      "ueue": 5561,
      "All": 5562,
      "indexes": 5563,
      "aves": 5564,
      "Ġshutil": 5565,
      "Ġuuid": 5566,
      "yncio": 5567,
      "reply": 5568,
      "PER": 5569,
      "onical": 5570,
      "pointer": 5571,
      "Ġpragma": 5572,
      "PUT": 5573,
      "Ġinterpre": 5574,
      "Ġ30": 5575,
      "bosity": 5576,
      "]).": 5577,
      "aussian": 5578,
      "Length": 5579,
      "forward": 5580,
      "ado": 5581,
      "ĠNOTE": 5582,
      "\"'": 5583,
      "ĠMust": 5584,
      "handlers": 5585,
      "Ġsubset": 5586,
      "ĠCur": 5587,
      "ĠMo": 5588,
      "Ġsegments": 5589,
      "Ġbutton": 5590,
      "destination": 5591,
      "ĠClient": 5592,
      "orth": 5593,
      "Ġcells": 5594,
      "IF": 5595,
      "enate": 5596,
      "Ġplease": 5597,
      "Max": 5598,
      "Ġvertex": 5599,
      "ilon": 5600,
      "ierarchy": 5601,
      "Ġseen": 5602,
      "tack": 5603,
      "viation": 5604,
      "tle": 5605,
      "ĠOption": 5606,
      "allet": 5607,
      "PY": 5608,
      "marker": 5609,
      "Ġequivalent": 5610,
      "cluded": 5611,
      "ĠDictionary": 5612,
      "Ġpermissions": 5613,
      "kit": 5614,
      "Ġrho": 5615,
      "Change": 5616,
      "Ġpixels": 5617,
      "Ġ).": 5618,
      "ulk": 5619,
      "resid": 5620,
      "CONFIG": 5621,
      "semble": 5622,
      ":`.": 5623,
      "Ġpermission": 5624,
      "\"\"\",": 5625,
      "Ġglob": 5626,
      "ĠWindows": 5627,
      "ĠĠĠĠĠĠĠĠĠĠĠĠĠĠ": 5628,
      "lices": 5629,
      "Ġidentity": 5630,
      "Ġ'#": 5631,
      "Ġmx": 5632,
      "Ġuid": 5633,
      "Ġfs": 5634,
      "ison": 5635,
      "Ġcost": 5636,
      "Ġchecked": 5637,
      "Ġexpand": 5638,
      "PU": 5639,
      "Ġpeak": 5640,
      "ĠUT": 5641,
      "Ġmanage": 5642,
      "versed": 5643,
      "Ġthree": 5644,
      "Ġdeprecated": 5645,
      "cached": 5646,
      "Ġfails": 5647,
      "syn": 5648,
      "Ġretrie": 5649,
      "Ġordered": 5650,
      "tifact": 5651,
      "Ġreads": 5652,
      "lar": 5653,
      "Ġshared": 5654,
      "lists": 5655,
      "push": 5656,
      "Ġep": 5657,
      "Ġowner": 5658,
      "enable": 5659,
      "DD": 5660,
      "('.')": 5661,
      "ĠTra": 5662,
      "Ġcomments": 5663,
      "RED": 5664,
      "Ġpriority": 5665,
      "Logger": 5666,
      "itespace": 5667,
      "ĊĊĠĠĠĠĠĠĠĠĠĠ": 5668,
      "Ġswitch": 5669,
      "ĠImportError": 5670,
      "()),": 5671,
      "bus": 5672,
      ".\".": 5673,
      "pus": 5674,
      "Ġcomplex": 5675,
      "39": 5676,
      "button": 5677,
      "ĠTensor": 5678,
      "ĠAss": 5679,
      "pipeline": 5680,
      "course": 5681,
      "Ġcross": 5682,
      "21": 5683,
      "So": 5684,
      "Ġstatic": 5685,
      "Ġsync": 5686,
      "amount": 5687,
      "Network": 5688,
      "selector": 5689,
      "anded": 5690,
      "Ġbel": 5691,
      "Ġschedule": 5692,
      "åĪ": 5693,
      "Ġeval": 5694,
      "Ġ``'": 5695,
      "tached": 5696,
      ".%": 5697,
      "urls": 5698,
      "repository": 5699,
      "igen": 5700,
      "Ġ::": 5701,
      "è¯": 5702,
      "ummy": 5703,
      "strftime": 5704,
      "+'": 5705,
      "nu": 5706,
      "tage": 5707,
      "IST": 5708,
      "library": 5709,
      ")(": 5710,
      "Ġnumeric": 5711,
      "sections": 5712,
      "Ġentire": 5713,
      "istration": 5714,
      "ulated": 5715,
      "Ġadjust": 5716,
      "ĠFirst": 5717,
      "lished": 5718,
      "Ġtz": 5719,
      "Ġbottom": 5720,
      "sw": 5721,
      "vlan": 5722,
      "Ġgeometry": 5723,
      "Ġconstant": 5724,
      "ĠSalt": 5725,
      "Ġtransition": 5726,
      "aut": 5727,
      "uation": 5728,
      "algorithm": 5729,
      "dependent": 5730,
      "cred": 5731,
      "priority": 5732,
      "ĠĠĠĠĠĠĠĠĠĠĠĠĠ": 5733,
      "Ġbig": 5734,
      "gent": 5735,
      "based": 5736,
      "redirect": 5737,
      "Variable": 5738,
      "Pri": 5739,
      "alth": 5740,
      "ĠQuery": 5741,
      "detail": 5742,
      "Auto": 5743,
      "subprocess": 5744,
      "editor": 5745,
      "Exist": 5746,
      "Ġassigned": 5747,
      "ading": 5748,
      "\"][": 5749,
      "VERSION": 5750,
      "Handle": 5751,
      "tn": 5752,
      "relative": 5753,
      "visible": 5754,
      "sy": 5755,
      "which": 5756,
      "park": 5757,
      "ĊĊĠĠĠĠĠĠ": 5758,
      "closed": 5759,
      "PIPE": 5760,
      "voke": 5761,
      "Ġgood": 5762,
      "transport": 5763,
      "walk": 5764,
      "orizontal": 5765,
      "Ġderiv": 5766,
      "CF": 5767,
      "ffici": 5768,
      "ONE": 5769,
      "supported": 5770,
      "Ġsy": 5771,
      "ĠSets": 5772,
      "Ġmut": 5773,
      "Const": 5774,
      "price": 5775,
      "suppress": 5776,
      "(\"--": 5777,
      "JSON": 5778,
      "getattr": 5779,
      ">\"": 5780,
      "credentials": 5781,
      "perm": 5782,
      "Ġlatest": 5783,
      "scalar": 5784,
      "Page": 5785,
      "Ġsampling": 5786,
      "06": 5787,
      "Ġvectors": 5788,
      "MI": 5789,
      "Ġprompt": 5790,
      "grad": 5791,
      "Min": 5792,
      "pages": 5793,
      "Ġ\"'": 5794,
      "Ġcompare": 5795,
      "rectory": 5796,
      "trip": 5797,
      "Layer": 5798,
      "SD": 5799,
      "ĠST": 5800,
      "Ġframes": 5801,
      "ULL": 5802,
      "external": 5803,
      "Ġtimezone": 5804,
      "lang": 5805,
      "Ġord": 5806,
      "Ġlarge": 5807,
      "roy": 5808,
      "ĠThese": 5809,
      "Ġfun": 5810,
      "Ġshift": 5811,
      "Values": 5812,
      "Ġms": 5813,
      "Ġtraceback": 5814,
      "eq": 5815,
      "simple": 5816,
      "Ġsensor": 5817,
      "Ġindicates": 5818,
      "isinstance": 5819,
      "enter": 5820,
      "']),": 5821,
      "Ġcomputed": 5822,
      "Ġdensity": 5823,
      "Ġ'{}'": 5824,
      "dp": 5825,
      "ĠInter": 5826,
      "nl": 5827,
      "Ġsparse": 5828,
      "cost": 5829,
      "ĠText": 5830,
      "AME": 5831,
      "many": 5832,
      "Ġmix": 5833,
      "ilent": 5834,
      "ĠNew": 5835,
      "Dyn": 5836,
      "_%": 5837,
      "Ġflat": 5838,
      "ĠMethod": 5839,
      "ĠTry": 5840,
      "Ġdevices": 5841,
      "joint": 5842,
      "lapsed": 5843,
      "Ġband": 5844,
      "ram": 5845,
      "docker": 5846,
      "255": 5847,
      "bank": 5848,
      "atrix": 5849,
      "keywords": 5850,
      "Ġdictionaries": 5851,
      "([[": 5852,
      "Ġlooking": 5853,
      "Ġunpack": 5854,
      "except": 5855,
      "Ġfree": 5856,
      "Ġparallel": 5857,
      "Ġdefinitions": 5858,
      "stage": 5859,
      "Ġscreen": 5860,
      "Ġdouble": 5861,
      "era": 5862,
      "Ġmis": 5863,
      "allowed": 5864,
      "Ġlimits": 5865,
      "Ġgu": 5866,
      "week": 5867,
      "Red": 5868,
      "lc": 5869,
      "emit": 5870,
      "cheduler": 5871,
      "ĠFilter": 5872,
      "levels": 5873,
      "76": 5874,
      "segments": 5875,
      "cto": 5876,
      "updated": 5877,
      "USER": 5878,
      "ĠNOT": 5879,
      "ĠMA": 5880,
      "chars": 5881,
      "ĠProcess": 5882,
      ">'": 5883,
      "flat": 5884,
      "erred": 5885,
      "Ġfh": 5886,
      "utype": 5887,
      "pers": 5888,
      "inger": 5889,
      "ĠCO": 5890,
      "29": 5891,
      "Can": 5892,
      "Ġdescriptor": 5893,
      "Remove": 5894,
      "Ġ])": 5895,
      "Ġspeed": 5896,
      "ja": 5897,
      "pandas": 5898,
      "ĠAuth": 5899,
      "prepare": 5900,
      "Ġphi": 5901,
      "props": 5902,
      "geometry": 5903,
      "maked": 5904,
      "Ġcast": 5905,
      "Ġflatten": 5906,
      "fidence": 5907,
      "Ġenergy": 5908,
      "Is": 5909,
      "maps": 5910,
      "ordered": 5911,
      "andling": 5912,
      "Int": 5913,
      "ĠOutput": 5914,
      "versions": 5915,
      "bg": 5916,
      "findall": 5917,
      "FIX": 5918,
      "strap": 5919,
      "################################": 5920,
      "inds": 5921,
      "CTION": 5922,
      "FIEL": 5923,
      "SIG": 5924,
      "car": 5925,
      "Ġreferences": 5926,
      "Ġprocesses": 5927,
      "reads": 5928,
      "minion": 5929,
      "plots": 5930,
      "covery": 5931,
      "ĊĠĠĠĠĠĠĠĠĠĠĠĠĠĠĠĠĠĠĠĠĠĠĠĠĠĠĠĠĠĠĠĠĠĠĠĠĠĠĠĠĠĠĠĠĠĠĠĠĠĠĠ": 5932,
      "fies": 5933,
      "named": 5934,
      "atial": 5935,
      "Ġcalc": 5936,
      "publish": 5937,
      "ĠShould": 5938,
      "':'": 5939,
      "Ġmodify": 5940,
      "HEAD": 5941,
      "Ġ'':": 5942,
      "SV": 5943,
      "lt": 5944,
      "Ġvide": 5945,
      "Ġgeo": 5946,
      "Ġchoice": 5947,
      "rd": 5948,
      "distribution": 5949,
      "boolean": 5950,
      "Ġes": 5951,
      "calls": 5952,
      "plugins": 5953,
      "Ġpeer": 5954,
      "trig": 5955,
      "nsure": 5956,
      "azure": 5957,
      ".'''": 5958,
      "Ġgate": 5959,
      "Ġvol": 5960,
      "Ġ24": 5961,
      "ĠStop": 5962,
      "Ġmot": 5963,
      "cha": 5964,
      "extmethods": 5965,
      "Ġextmethods": 5966,
      "DynClass": 5967,
      "derer": 5968,
      "cursively": 5969,
      "pot": 5970,
      "Ġdocstring": 5971,
      "padding": 5972,
      "()``": 5973,
      "Ġface": 5974,
      "Ġhidden": 5975,
      "servations": 5976,
      "ims": 5977,
      "uer": 5978,
      "Names": 5979,
      "Ġrotation": 5980,
      "FS": 5981,
      "aN": 5982,
      "æĸ": 5983,
      "(\"/": 5984,
      "Ġsubscription": 5985,
      "Ġradi": 5986,
      "MAP": 5987,
      "LS": 5988,
      "Over": 5989,
      "ior": 5990,
      "builder": 5991,
      "Sequence": 5992,
      "Ġquote": 5993,
      "Ġdocker": 5994,
      "Ġones": 5995,
      "existing": 5996,
      "decor": 5997,
      "Ġfraction": 5998,
      "evalu": 5999,
      "wt": 6000,
      "ĠOperation": 6001,
      "linalg": 6002,
      "moves": 6003,
      "lying": 6004,
      "Ġnx": 6005,
      "08": 6006,
      "nr": 6007,
      "circ": 6008,
      "Oper": 6009,
      "Execution": 6010,
      "sizes": 6011,
      "Ġdelimiter": 6012,
      "XT": 6013,
      "endar": 6014,
      "aws": 6015,
      "cally": 6016,
      "LETE": 6017,
      "devices": 6018,
      "program": 6019,
      "Results": 6020,
      "ptime": 6021,
      "compress": 6022,
      "contin": 6023,
      "ffset": 6024,
      "Ġwa": 6025,
      "blems": 6026,
      "Ġdegrees": 6027,
      "dependencies": 6028,
      "Ġauthentic": 6029,
      "ired": 6030,
      "ĠTuple": 6031,
      "bottom": 6032,
      "screen": 6033,
      "tod": 6034,
      "Ġvery": 6035,
      "Ġpull": 6036,
      "Ġselector": 6037,
      "frequency": 6038,
      "Ġunless": 6039,
      "ĊĠĠĠĠĠĠĠĠĠĠĠĠĊĠĠĠĠĠĠĠĠĠĠĠ": 6040,
      "Ġsender": 6041,
      "ffff": 6042,
      "Ġruntime": 6043,
      "ish": 6044,
      "monitor": 6045,
      "Ġchoices": 6046,
      "è¿": 6047,
      "Ġpickle": 6048,
      "schedule": 6049,
      "Ġinplace": 6050,
      "Ġsubclass": 6051,
      "II": 6052,
      "threads": 6053,
      "future": 6054,
      "machine": 6055,
      "cap": 6056,
      "double": 6057,
      "yment": 6058,
      "åĲ": 6059,
      "alet": 6060,
      "mes": 6061,
      "44": 6062,
      "------------": 6063,
      "omial": 6064,
      "Ġresolution": 6065,
      "Api": 6066,
      "repe": 6067,
      "Ġrepresents": 6068,
      "Up": 6069,
      "Ġmime": 6070,
      "Ġsentence": 6071,
      "Ġrecur": 6072,
      "_:": 6073,
      "æľ": 6074,
      "pending": 6075,
      "Ġrecent": 6076,
      "Ġev": 6077,
      "runtime": 6078,
      "Ġrc": 6079,
      "ĠOver": 6080,
      "star": 6081,
      "ouse": 6082,
      "Ġimmediate": 6083,
      "Ġurllib": 6084,
      "ranches": 6085,
      "Ġcompleted": 6086,
      "Ġconditions": 6087,
      "Ġ255": 6088,
      "Ġenviron": 6089,
      "coming": 6090,
      "Ġ\"\",": 6091,
      "Delete": 6092,
      "Ġstarts": 6093,
      "Ġpress": 6094,
      "Ġperm": 6095,
      "using": 6096,
      "bra": 6097,
      "jac": 6098,
      "Ġpatterns": 6099,
      "anization": 6100,
      "virtual": 6101,
      "ird": 6102,
      "Ġassumed": 6103,
      "CODE": 6104,
      "latest": 6105,
      "WN": 6106,
      "Ġconstructor": 6107,
      "Ġdry": 6108,
      "You": 6109,
      "Ġ(-": 6110,
      "Ġcopi": 6111,
      ">\\": 6112,
      "Ġpublish": 6113,
      "FC": 6114,
      "Ġseg": 6115,
      "grams": 6116,
      "logs": 6117,
      "Ġlevels": 6118,
      "urations": 6119,
      "digit": 6120,
      "ĠBack": 6121,
      "encoded": 6122,
      "Ġadding": 6123,
      "Ġvertices": 6124,
      "Ġtemporary": 6125,
      "DU": 6126,
      "itation": 6127,
      "izing": 6128,
      "splitext": 6129,
      "disable": 6130,
      "(%": 6131,
      "Ġstarted": 6132,
      "Ġcloud": 6133,
      "Only": 6134,
      "Ġsock": 6135,
      "=='": 6136,
      "workflow": 6137,
      "Ġprobability": 6138,
      "Ġvs": 6139,
      "ĠElement": 6140,
      "Ġcontact": 6141,
      "Ġxrange": 6142,
      "chrom": 6143,
      "multip": 6144,
      "Pol": 6145,
      "Ġaudio": 6146,
      "Ġmeas": 6147,
      "Ġdicts": 6148,
      "Ġthreads": 6149,
      "QUI": 6150,
      "With": 6151,
      "Be": 6152,
      "TA": 6153,
      "vocation": 6154,
      "tor": 6155,
      "cod": 6156,
      "Ġmount": 6157,
      "Ġkeyid": 6158,
      "Ġminutes": 6159,
      "ARNING": 6160,
      "Ġiterations": 6161,
      "Ġexecuted": 6162,
      "NOT": 6163,
      "Ġinitialize": 6164,
      "analy": 6165,
      "Ġdifference": 6166,
      "88": 6167,
      "solution": 6168,
      "annotation": 6169,
      "ĠUnicode": 6170,
      "']):": 6171,
      "Match": 6172,
      "splitlines": 6173,
      "uplicates": 6174,
      "sect": 6175,
      "Ġssh": 6176,
      "super": 6177,
      "Ġdecimal": 6178,
      "gamma": 6179,
      "DATE": 6180,
      "OF": 6181,
      "Ġconcat": 6182,
      "Ġsubnet": 6183,
      "Ġcontroller": 6184,
      "](": 6185,
      "major": 6186,
      "Ġcaller": 6187,
      "Ne": 6188,
      "uest": 6189,
      "Ġsuccessfully": 6190,
      "complex": 6191,
      "Ġextracted": 6192,
      ">,": 6193,
      "Access": 6194,
      "`):": 6195,
      "HERE": 6196,
      "Exit": 6197,
      "Ġcreates": 6198,
      "Header": 6199,
      "Ġhappen": 6200,
      "CA": 6201,
      "roles": 6202,
      "mpler": 6203,
      "deepcopy": 6204,
      "ĠField": 6205,
      "Ġalignment": 6206,
      "Ġ50": 6207,
      "poly": 6208,
      "Ġspecifying": 6209,
      "vered": 6210,
      "inder": 6211,
      "andatory": 6212,
      "rgb": 6213,
      "sel": 6214,
      "Ġwx": 6215,
      "Ġxy": 6216,
      "Ġanything": 6217,
      "average": 6218,
      "ĠState": 6219,
      "ĠResource": 6220,
      "31": 6221,
      "related": 6222,
      "Ġevaluate": 6223,
      "Ġfinished": 6224,
      "sparse": 6225,
      "ontsize": 6226,
      "Ġpmag": 6227,
      "Ġqual": 6228,
      "Ġchecking": 6229,
      "levant": 6230,
      "45": 6231,
      "Ġ19": 6232,
      "Ġcos": 6233,
      "sites": 6234,
      "tic": 6235,
      "css": 6236,
      "ully": 6237,
      "bb": 6238,
      "Ġbasic": 6239,
      "ĠCON": 6240,
      "!\")": 6241,
      "ka": 6242,
      "Ġpan": 6243,
      "tep": 6244,
      "AF": 6245,
      "Ġgive": 6246,
      "teger": 6247,
      "diffe": 6248,
      "makedirs": 6249,
      "ĠFROM": 6250,
      "timedelta": 6251,
      "ital": 6252,
      "Ġ'/'": 6253,
      "Ġconstraints": 6254,
      "Ġraises": 6255,
      "Ġpopulate": 6256,
      "stmt": 6257,
      "Ġlineno": 6258,
      "CRE": 6259,
      "PL": 6260,
      "Port": 6261,
      "Ġlogs": 6262,
      "Ġeverything": 6263,
      "ĠWork": 6264,
      "det": 6265,
      "Ġcomma": 6266,
      "CESS": 6267,
      "Timeout": 6268,
      "ĠAWS": 6269,
      "Reference": 6270,
      "lour": 6271,
      "curacy": 6272,
      "Ġruns": 6273,
      "hour": 6274,
      "ĠPlease": 6275,
      "entifier": 6276,
      "Ġhit": 6277,
      "acter": 6278,
      "ystems": 6279,
      "ĠDesc": 6280,
      "Ġnu": 6281,
      "Ġgenes": 6282,
      "Ġ\")": 6283,
      "Ġ'.'": 6284,
      "ĠAd": 6285,
      "Ġaddresses": 6286,
      "Ġauthorization": 6287,
      "ORY": 6288,
      "oted": 6289,
      "Container": 6290,
      "Ġsigned": 6291,
      "alette": 6292,
      "wraps": 6293,
      "rences": 6294,
      "Ġdocs": 6295,
      "noise": 6296,
      "37": 6297,
      "ĠExec": 6298,
      "basic": 6299,
      "descriptor": 6300,
      "gether": 6301,
      "ĊĠĠĠĠĠĠĠĠĠĠĠĠĠĠĠĠĠĠĠĠĠĠĠĠĠĠĠĠĠĠĠĠĠĠĠĠĠĠĠĠĠĠĠĠĠĠĠĠĠ": 6302,
      "ags": 6303,
      "Ġwrong": 6304,
      "Keys": 6305,
      "Ġwhole": 6306,
      "extensions": 6307,
      "nx": 6308,
      "leaf": 6309,
      "ale": 6310,
      "Ġreduce": 6311,
      "Ġpred": 6312,
      "specific": 6313,
      "Ġwatch": 6314,
      "---+": 6315,
      "peer": 6316,
      "unset": 6317,
      "Ġperformed": 6318,
      "black": 6319,
      "ĊĠĠ": 6320,
      "chr": 6321,
      "Ġalle": 6322,
      "Ġoverlap": 6323,
      "prot": 6324,
      "ildcard": 6325,
      "SL": 6326,
      "00000000": 6327,
      "Ġear": 6328,
      "ĠExtract": 6329,
      "umed": 6330,
      "]}": 6331,
      "Ġfamily": 6332,
      "scripts": 6333,
      "Ver": 6334,
      "Ġplay": 6335,
      "requencies": 6336,
      "Ġcodes": 6337,
      "RR": 6338,
      "tt": 6339,
      "ĠGraph": 6340,
      "Ax": 6341,
      "cid": 6342,
      "genes": 6343,
      "Ġchrom": 6344,
      "adapter": 6345,
      "Ġprevent": 6346,
      "comments": 6347,
      "Location": 6348,
      "Ġtransport": 6349,
      "fft": 6350,
      "Ġteam": 6351,
      "Gets": 6352,
      "click": 6353,
      "Collection": 6354,
      "liance": 6355,
      "pat": 6356,
      "Ġsymbols": 6357,
      "Ġlocations": 6358,
      "'ll": 6359,
      "generated": 6360,
      "Speci": 6361,
      "nc": 6362,
      "([\"": 6363,
      "inary": 6364,
      "Ġ11": 6365,
      "recv": 6366,
      "ientation": 6367,
      "limits": 6368,
      "Ġintegers": 6369,
      "Ġcreation": 6370,
      "qq": 6371,
      "ike": 6372,
      "Ġdepending": 6373,
      "Ġest": 6374,
      "Ġprepare": 6375,
      "ets": 6376,
      "Ġlight": 6377,
      "va": 6378,
      "primary": 6379,
      "Ġcountry": 6380,
      "pipe": 6381,
      "fixed": 6382,
      "ised": 6383,
      "Description": 6384,
      "wn": 6385,
      "legend": 6386,
      "atives": 6387,
      "Ġescape": 6388,
      "aff": 6389,
      "Ġconnections": 6390,
      "pab": 6391,
      "deploy": 6392,
      "New": 6393,
      "Ġgamma": 6394,
      "ĠSQL": 6395,
      "Ġsv": 6396,
      "Ġshut": 6397,
      "Ġincludes": 6398,
      "Ġmenu": 6399,
      "Ġlang": 6400,
      "pher": 6401,
      "Back": 6402,
      "EST": 6403,
      "Ġdigest": 6404,
      "ĠAdditional": 6405,
      "vocab": 6406,
      "Ġseparator": 6407,
      ":.": 6408,
      "gl": 6409,
      "Ġqueryset": 6410,
      "Ġhosts": 6411,
      "manage": 6412,
      "Ġsupports": 6413,
      "Ġconsider": 6414,
      "ini": 6415,
      "Ġcard": 6416,
      "Ġbehavior": 6417,
      "views": 6418,
      "Ġhard": 6419,
      "prog": 6420,
      "mis": 6421,
      "Ġri": 6422,
      "Mem": 6423,
      "Ġlongitude": 6424,
      "\"%": 6425,
      "positions": 6426,
      "categories": 6427,
      "Ġclip": 6428,
      "(('": 6429,
      "bias": 6430,
      "Ġboundary": 6431,
      "RC": 6432,
      "switch": 6433,
      "Ġstatistics": 6434,
      "transpose": 6435,
      "uch": 6436,
      "yles": 6437,
      "chan": 6438,
      "âĶĢâĶĢ": 6439,
      "Ġeas": 6440,
      "Ġvocab": 6441,
      "Ġnever": 6442,
      "Ġcoefficients": 6443,
      "MIN": 6444,
      "æķ": 6445,
      "Ġartifact": 6446,
      "locations": 6447,
      "'},": 6448,
      ")')": 6449,
      "umbna": 6450,
      "lv": 6451,
      "ART": 6452,
      "dm": 6453,
      "reci": 6454,
      "okies": 6455,
      "Ġrequirements": 6456,
      "Ġlc": 6457,
      "ĠSend": 6458,
      "validation": 6459,
      "corr": 6460,
      "Thread": 6461,
      "Generate": 6462,
      "energy": 6463,
      "ĠDelete": 6464,
      "dictionary": 6465,
      "ython": 6466,
      "rypto": 6467,
      "ific": 6468,
      "cles": 6469,
      "Ġargparse": 6470,
      "pixel": 6471,
      ")``": 6472,
      "ropo": 6473,
      "need": 6474,
      "Ġvideo": 6475,
      "Property": 6476,
      ")],": 6477,
      "Metadata": 6478,
      "ĠVM": 6479,
      "Child": 6480,
      "neighbors": 6481,
      "Ali": 6482,
      "('{}": 6483,
      "effs": 6484,
      "Dist": 6485,
      "alan": 6486,
      "Ġcookie": 6487,
      "finite": 6488,
      "PT": 6489,
      "Ġ(`": 6490,
      "LOGGER": 6491,
      "Formatter": 6492,
      "ail": 6493,
      "Ġintervals": 6494,
      "Ġcalculation": 6495,
      "oot": 6496,
      "ĊĠĠĠĠĠĠĠĠĠĠĠĠĠĠĠĠĠĠĠĠĠĠĠĠĠĠĠĠĠĠĠĠĠĠĠĠĠĠĠĠĠĠĠĠĠĠĠĠĠĠ": 6497,
      "Ġok": 6498,
      "Ġsimply": 6499,
      "decimal": 6500,
      "ATOR": 6501,
      "STAT": 6502,
      "09": 6503,
      "tran": 6504,
      "previous": 6505,
      "ĠUsed": 6506,
      "coordinates": 6507,
      "imple": 6508,
      "9999": 6509,
      "FT": 6510,
      "Ġenough": 6511,
      "Ġquant": 6512,
      "ĠDef": 6513,
      "{})": 6514,
      "Ġti": 6515,
      "Ġsmooth": 6516,
      "Ġlatitude": 6517,
      "Ġobjective": 6518,
      "oauth": 6519,
      "callable": 6520,
      "ĠLe": 6521,
      "Ġprice": 6522,
      "Serial": 6523,
      "_'": 6524,
      "Ġduplicate": 6525,
      "Configuration": 6526,
      "ĠGroup": 6527,
      "Ġeditor": 6528,
      "Ġdependency": 6529,
      "ĠResult": 6530,
      "Ġexplicitly": 6531,
      "Func": 6532,
      "bre": 6533,
      "Ġrdf": 6534,
      "ĠCurrent": 6535,
      "lig": 6536,
      "65": 6537,
      "Ġaz": 6538,
      "``:": 6539,
      "Ġbuilder": 6540,
      "CI": 6541,
      "mc": 6542,
      "allable": 6543,
      "Ġasyncio": 6544,
      "effect": 6545,
      "DA": 6546,
      "xs": 6547,
      "Ġ=>": 6548,
      "Ġprojection": 6549,
      "ĠOR": 6550,
      "statement": 6551,
      "ĠTable": 6552,
      "imit": 6553,
      "Uni": 6554,
      "Tuple": 6555,
      "ylabel": 6556,
      "ticip": 6557,
      "enari": 6558,
      "Ġoutside": 6559,
      "ali": 6560,
      "Ġ(``": 6561,
      "getter": 6562,
      "Ġpages": 6563,
      "Ġshare": 6564,
      "router": 6565,
      "Ġbetter": 6566,
      "Operation": 6567,
      "agraph": 6568,
      "%%": 6569,
      "moved": 6570,
      "ĠSeries": 6571,
      "Ġlogical": 6572,
      "avg": 6573,
      "Ġwarn": 6574,
      "outfile": 6575,
      "Ġprediction": 6576,
      "Ġlonger": 6577,
      "!!": 6578,
      "Module": 6579,
      "FORMAT": 6580,
      "CHE": 6581,
      "processor": 6582,
      "Ġrev": 6583,
      "('<": 6584,
      "micro": 6585,
      "plus": 6586,
      "Order": 6587,
      "Ġconsole": 6588,
      "Ġrespon": 6589,
      "Ġgets": 6590,
      "aster": 6591,
      "38": 6592,
      "ĠSE": 6593,
      "Ġserialized": 6594,
      ",),": 6595,
      "game": 6596,
      "Ġpending": 6597,
      "Ġdep": 6598,
      "oked": 6599,
      "Dataset": 6600,
      "--+": 6601,
      "Ġboto": 6602,
      "Ġbus": 6603,
      "mot": 6604,
      "posed": 6605,
      "ĠRed": 6606,
      "Ġcause": 6607,
      "cells": 6608,
      "video": 6609,
      "Print": 6610,
      "čĊĠĠĠĠĠĠĠĠĠĠĠĠĠĠĠĠĠĠĠĠĠĠĠ": 6611,
      "chunks": 6612,
      "Ġsyntax": 6613,
      "Ġbasis": 6614,
      "ĠVer": 6615,
      "Ġtaken": 6616,
      "attemp": 6617,
      "Ġanswer": 6618,
      "tau": 6619,
      "cel": 6620,
      "Ġbackup": 6621,
      "crement": 6622,
      "Meta": 6623,
      "Ġcmap": 6624,
      "cross": 6625,
      "Ġgradient": 6626,
      "adjust": 6627,
      "cycle": 6628,
      "Ġspecifies": 6629,
      "icon": 6630,
      "Ġapproxim": 6631,
      "SK": 6632,
      "Cache": 6633,
      "mq": 6634,
      "Ge": 6635,
      "Ġ\"\")": 6636,
      "Ġannotations": 6637,
      "anit": 6638,
      "Ġcycle": 6639,
      "lec": 6640,
      "wap": 6641,
      "tection": 6642,
      "prior": 6643,
      "Com": 6644,
      "ĠPrint": 6645,
      "Ġplan": 6646,
      "curve": 6647,
      "voice": 6648,
      "tyle": 6649,
      "Ġtogether": 6650,
      "Ġgoogle": 6651,
      "ipher": 6652,
      "xlabel": 6653,
      "servers": 6654,
      "vance": 6655,
      "Ġcred": 6656,
      "Ġ------": 6657,
      "ĠGo": 6658,
      "lid": 6659,
      "Initial": 6660,
      "Ġcpu": 6661,
      "><": 6662,
      "symbols": 6663,
      "Ġpoly": 6664,
      "alignment": 6665,
      "Ġspaces": 6666,
      "osite": 6667,
      "Target": 6668,
      "(\"{": 6669,
      "hat": 6670,
      "Ġdates": 6671,
      "urther": 6672,
      "chat": 6673,
      "ĠWill": 6674,
      "objective": 6675,
      "ĠUnion": 6676,
      "Missing": 6677,
      "ĠGe": 6678,
      "anism": 6679,
      "rive": 6680,
      "controller": 6681,
      "kip": 6682,
      "fficient": 6683,
      "Send": 6684,
      "gap": 6685,
      "how": 6686,
      "gateway": 6687,
      "wave": 6688,
      "LINE": 6689,
      "DR": 6690,
      "ĠNow": 6691,
      "qs": 6692,
      "ranges": 6693,
      "Options": 6694,
      "Ġdy": 6695,
      "Ġdjango": 6696,
      "Ġlst": 6697,
      "Ġrather": 6698,
      "INTER": 6699,
      "Compute": 6700,
      "MODE": 6701,
      "outine": 6702,
      "Ġreplaced": 6703,
      "Ġmagic": 6704,
      "conver": 6705,
      "jectory": 6706,
      "Types": 6707,
      "Ġadapter": 6708,
      "standard": 6709,
      "SELECT": 6710,
      "CAL": 6711,
      "Ġwave": 6712,
      "Ġconsist": 6713,
      "================================": 6714,
      "sheet": 6715,
      "speed": 6716,
      "cognized": 6717,
      "locity": 6718,
      "redis": 6719,
      "Ġvars": 6720,
      "patterns": 6721,
      "ability": 6722,
      "Ġestimate": 6723,
      "mx": 6724,
      ":,": 6725,
      "Document": 6726,
      "zz": 6727,
      "Ġamp": 6728,
      "rou": 6729,
      "Ġpointer": 6730,
      "angles": 6731,
      "Ġblank": 6732,
      "vcf": 6733,
      "ulative": 6734,
      "AA": 6735,
      "cookie": 6736,
      "maximum": 6737,
      "plain": 6738,
      "Python": 6739,
      "ĠDEFAULT": 6740,
      "ached": 6741,
      "atoms": 6742,
      "iles": 6743,
      "Ġresponses": 6744,
      "Ġcertain": 6745,
      "rib": 6746,
      "ĠPOST": 6747,
      "Ġchecksum": 6748,
      "...,": 6749,
      "ĠAdds": 6750,
      ":],": 6751,
      "))]": 6752,
      "setting": 6753,
      "Ġtail": 6754,
      "constant": 6755,
      "And": 6756,
      "white": 6757,
      "blue": 6758,
      "Ġ14": 6759,
      "ĠSome": 6760,
      "rozen": 6761,
      "FLA": 6762,
      "çĶ": 6763,
      "Ġslot": 6764,
      "Ġexamples": 6765,
      "SU": 6766,
      "yes": 6767,
      "Ġpush": 6768,
      "permission": 6769,
      "Ġcontract": 6770,
      "}]": 6771,
      "Ġ64": 6772,
      "Schema": 6773,
      "Ġtrip": 6774,
      "Ġacross": 6775,
      "Core": 6776,
      "amera": 6777,
      "Ġparents": 6778,
      "Ġvisual": 6779,
      "Ġexactly": 6780,
      "Ġgeneral": 6781,
      "Ġred": 6782,
      "ĠEvent": 6783,
      "median": 6784,
      "AUT": 6785,
      "ffic": 6786,
      "rees": 6787,
      "Ġformats": 6788,
      "vor": 6789,
      "Ġlegend": 6790,
      "ctools": 6791,
      "Bad": 6792,
      "Ġ({": 6793,
      "Ġ|=": 6794,
      "activity": 6795,
      "Ġfactory": 6796,
      "parsers": 6797,
      "ensure": 6798,
      "unce": 6799,
      "Ġsections": 6800,
      "ĠNetwork": 6801,
      "Ġencoder": 6802,
      "OUT": 6803,
      "Ġready": 6804,
      "Ġbbox": 6805,
      "Ġcc": 6806,
      "Ġresolved": 6807,
      "Connect": 6808,
      "Ġtests": 6809,
      "Ġdegree": 6810,
      "licies": 6811,
      "ĠSave": 6812,
      "ables": 6813,
      "dates": 6814,
      "Pool": 6815,
      "adr": 6816,
      "ints": 6817,
      "ĠEnsure": 6818,
      "Ass": 6819,
      "Ġtransfer": 6820,
      "cutoff": 6821,
      "Ġbeginning": 6822,
      "tice": 6823,
      ",,": 6824,
      "Vector": 6825,
      "()`": 6826,
      "Ġ:,": 6827,
      "ĠGET": 6828,
      "minimum": 6829,
      ":\"": 6830,
      "luster": 6831,
      "fier": 6832,
      "\",\"": 6833,
      "Ġformatter": 6834,
      "locals": 6835,
      "projects": 6836,
      "Ġetree": 6837,
      "thresh": 6838,
      "Ġpie": 6839,
      "EC": 6840,
      "hem": 6841,
      "Ġbundle": 6842,
      "Ġsever": 6843,
      "-+-+-+-+-+-+-+-+": 6844,
      "Ġdd": 6845,
      "vertices": 6846,
      "templates": 6847,
      "Ġnumer": 6848,
      "ĠHttp": 6849,
      "herit": 6850,
      "Ġvalidator": 6851,
      "detect": 6852,
      "ni": 6853,
      "rices": 6854,
      "Ġdecoded": 6855,
      "pin": 6856,
      "Ġsizes": 6857,
      "etc": 6858,
      "Ġminim": 6859,
      "509": 6860,
      "ĠFormat": 6861,
      "Ġmaps": 6862,
      "Ġexecutable": 6863,
      "ĠAND": 6864,
      "Ġplugins": 6865,
      "Ġmonitor": 6866,
      "Pl": 6867,
      "MB": 6868,
      "bing": 6869,
      "âĢ": 6870,
      "ĊĠĠĠĠĠĠĠĠĊĠĠĠ": 6871,
      "Ġvec": 6872,
      "listdir": 6873,
      "Ġreceive": 6874,
      "riend": 6875,
      "Ġthrow": 6876,
      "ssib": 6877,
      "uggest": 6878,
      "concatenate": 6879,
      "Multi": 6880,
      "some": 6881,
      "Channel": 6882,
      "Pos": 6883,
      "Ġsol": 6884,
      "Ġdatasets": 6885,
      ")\",": 6886,
      "sat": 6887,
      "ench": 6888,
      "readline": 6889,
      "Ġinitialized": 6890,
      "Ġonto": 6891,
      "authentic": 6892,
      "mix": 6893,
      "ĠSearch": 6894,
      "lations": 6895,
      "ĠÐ": 6896,
      "Ġcriteria": 6897,
      "sequences": 6898,
      "LED": 6899,
      "etrie": 6900,
      "()}": 6901,
      "Ġconstraint": 6902,
      "formatter": 6903,
      "lengths": 6904,
      "Ġmandatory": 6905,
      "sertion": 6906,
      "Temp": 6907,
      "Control": 6908,
      "Ġidentify": 6909,
      "absolute": 6910,
      "watch": 6911,
      "Ġke": 6912,
      "Ġfully": 6913,
      "ceeded": 6914,
      "quent": 6915,
      "Ġderived": 6916,
      "}/{": 6917,
      "ĠDate": 6918,
      "Ġpreviously": 6919,
      "Struct": 6920,
      "zon": 6921,
      "Ġbra": 6922,
      "entities": 6923,
      "Ġguess": 6924,
      "country": 6925,
      "Window": 6926,
      "pet": 6927,
      "nsupported": 6928,
      "duction": 6929,
      "sembly": 6930,
      "Ġhandlers": 6931,
      "``)": 6932,
      "sender": 6933,
      "annotations": 6934,
      "Helper": 6935,
      "Host": 6936,
      "formats": 6937,
      "Ġcomparison": 6938,
      "Ġhandling": 6939,
      "ĠDO": 6940,
      "Ġpresence": 6941,
      "ecor": 6942,
      "Ġencrypted": 6943,
      "ĠMulti": 6944,
      "vectors": 6945,
      "ĠGenerated": 6946,
      "ĠServer": 6947,
      "Creates": 6948,
      "integr": 6949,
      "phrase": 6950,
      "Ġaccepted": 6951,
      "hest": 6952,
      "ĠMan": 6953,
      "shared": 6954,
      "sb": 6955,
      "Ġmar": 6956,
      "ãĢ": 6957,
      "executable": 6958,
      "\\\"": 6959,
      "clusters": 6960,
      "Ġfoo": 6961,
      "ante": 6962,
      "Ġabort": 6963,
      "stdin": 6964,
      "79": 6965,
      "Url": 6966,
      "Ġranges": 6967,
      "OB": 6968,
      "ev": 6969,
      "Ġdisabled": 6970,
      "Ġssl": 6971,
      "Ġstride": 6972,
      "background": 6973,
      "Ids": 6974,
      "Ġtax": 6975,
      "issue": 6976,
      "collect": 6977,
      "canvas": 6978,
      "jid": 6979,
      "isters": 6980,
      "Template": 6981,
      "exe": 6982,
      "erial": 6983,
      "Ġtrunc": 6984,
      "ropout": 6985,
      "XML": 6986,
      "sla": 6987,
      "mags": 6988,
      "backup": 6989,
      "Ġvariance": 6990,
      "Ġconstants": 6991,
      "ingerprint": 6992,
      "submit": 6993,
      "Ġtxt": 6994,
      "=',": 6995,
      "GR": 6996,
      "Ġrestart": 6997,
      "lify": 6998,
      "tuples": 6999,
      "ĠFIX": 7000,
      "contact": 7001,
      "Cloud": 7002,
      "kg": 7003,
      "ĠService": 7004,
      "ee": 7005,
      "Ġterminal": 7006,
      "('[": 7007,
      "Ġdirs": 7008,
      "ĠKeyword": 7009,
      "EV": 7010,
      "ollow": 7011,
      "Ġmig": 7012,
      "Ġminion": 7013,
      "hand": 7014,
      "åĽ": 7015,
      "ĠGets": 7016,
      "tm": 7017,
      "develo": 7018,
      "Ġregions": 7019,
      "rv": 7020,
      "Ġpat": 7021,
      "umbnail": 7022,
      "bbox": 7023,
      "ĠMark": 7024,
      "Ġhour": 7025,
      "Ġactor": 7026,
      "Ġsid": 7027,
      "appro": 7028,
      "ĠAR": 7029,
      "[::-": 7030,
      "Ġtrim": 7031,
      "rouped": 7032,
      "Ġmp": 7033,
      "neg": 7034,
      "Ġtranslation": 7035,
      "Union": 7036,
      "Fail": 7037,
      "Ġobservation": 7038,
      "Feature": 7039,
      "mol": 7040,
      "Ġpassing": 7041,
      "Ġmagnitude": 7042,
      "Ġweek": 7043,
      "=\"\",": 7044,
      "Ġplots": 7045,
      "Ġtimedelta": 7046,
      "intervals": 7047,
      "uffle": 7048,
      "Ġam": 7049,
      "operations": 7050,
      "('/')": 7051,
      "Ġrevision": 7052,
      "iving": 7053,
      "FFFF": 7054,
      "ĠIPv": 7055,
      "Ġneighbors": 7056,
      "Ġslug": 7057,
      "rename": 7058,
      "experiment": 7059,
      "crypto": 7060,
      "Ċĉĉĉĉĉ": 7061,
      "Ġur": 7062,
      "Ġfloats": 7063,
      "construct": 7064,
      "Ġ25": 7065,
      "Ġfg": 7066,
      "Ġsites": 7067,
      "ĠContent": 7068,
      "arrays": 7069,
      "Ġhistogram": 7070,
      "Ġ{}).": 7071,
      "Ġentities": 7072,
      "Ġol": 7073,
      "Ġoptionally": 7074,
      "ibration": 7075,
      "Ġ'+": 7076,
      "Ġdesign": 7077,
      "Ġlisten": 7078,
      "coe": 7079,
      "audio": 7080,
      "Queue": 7081,
      "pn": 7082,
      "gorical": 7083,
      "href": 7084,
      "iterator": 7085,
      "cancel": 7086,
      "lu": 7087,
      "amb": 7088,
      "!')": 7089,
      "Ġinc": 7090,
      "Ġinverse": 7091,
      "expect": 7092,
      "conj": 7093,
      "Ġ/=": 7094,
      "pient": 7095,
      "sible": 7096,
      "outer": 7097,
      "Ġwriting": 7098,
      "Cell": 7099,
      "Ġarc": 7100,
      "processed": 7101,
      "dimensions": 7102,
      "]=": 7103,
      "Ġadds": 7104,
      "READ": 7105,
      "ECT": 7106,
      "URE": 7107,
      "Please": 7108,
      "contract": 7109,
      "Enabled": 7110,
      "Ġassignment": 7111,
      "Ġestimated": 7112,
      ",\"": 7113,
      "wcs": 7114,
      "ov": 7115,
      "Ġcwd": 7116,
      "Ġobserved": 7117,
      "Ġsubstit": 7118,
      "ĠPlot": 7119,
      "ubclass": 7120,
      "ĠRetrieve": 7121,
      "Ġsuc": 7122,
      "ĠMin": 7123,
      "Ġbuff": 7124,
      "æķ°": 7125,
      "connections": 7126,
      "esian": 7127,
      "ĠReferences": 7128,
      "FIELD": 7129,
      "Ġloader": 7130,
      "pdb": 7131,
      "Ġstmt": 7132,
      "Ġdoct": 7133,
      "Policy": 7134,
      "Test": 7135,
      "Ġseparated": 7136,
      "Ġchosen": 7137,
      "Ġprobably": 7138,
      "./": 7139,
      "tun": 7140,
      "ĠPass": 7141,
      "cuit": 7142,
      "gu": 7143,
      "ARY": 7144,
      "Iteration": 7145,
      "Import": 7146,
      "Ġeigen": 7147,
      "lags": 7148,
      "Var": 7149,
      "ĠAS": 7150,
      "Ġcategories": 7151,
      "unts": 7152,
      "Ġindicate": 7153,
      "alculates": 7154,
      "]-": 7155,
      "æĪ": 7156,
      "ĊĠĠĠĠĠĠĠĠĠĠĠĠĠĠĠĠĠĠĠĠĠĠĠĠĠĠĠĠĠĠĠĠĠĠĠĠĠĠĠĠĠĠĠĠĠĠĠĠĠĠĠĠĠĠĠĠĠĠĠĠĠĠĠĠĠĠĠĠĠĠĠĠ": 7157,
      "Ġfragment": 7158,
      "Ġhome": 7159,
      "Ġvertical": 7160,
      "Ġmanifest": 7161,
      "curr": 7162,
      "Ġcontained": 7163,
      "Ġstatements": 7164,
      "certificate": 7165,
      "Ġer": 7166,
      "deleted": 7167,
      "ĠSign": 7168,
      "large": 7169,
      "ios": 7170,
      "Ġcandidates": 7171,
      "Ġdetected": 7172,
      "ĠCloud": 7173,
      ").__": 7174,
      "mega": 7175,
      "itter": 7176,
      "ĠSim": 7177,
      "Ġcompletion": 7178,
      "Ġappear": 7179,
      "Grid": 7180,
      "ba": 7181,
      "subset": 7182,
      "green": 7183,
      "calculate": 7184,
      ":\",": 7185,
      "Ut": 7186,
      "timer": 7187,
      "Ġpin": 7188,
      "Ġbecome": 7189,
      "likelihood": 7190,
      "bundle": 7191,
      "Ġsynchronous": 7192,
      "yy": 7193,
      "Ġmiddle": 7194,
      "Reader": 7195,
      "chemy": 7196,
      "Param": 7197,
      "Ġimmediately": 7198,
      "hip": 7199,
      "07": 7200,
      "Width": 7201,
      "YANG": 7202,
      "dispatch": 7203,
      "Ġqueries": 7204,
      "Pass": 7205,
      "ĠTask": 7206,
      "AML": 7207,
      "issues": 7208,
      "Sets": 7209,
      "versal": 7210,
      "Ġclusters": 7211,
      "89": 7212,
      "SCRI": 7213,
      "Ġhyper": 7214,
      "URI": 7215,
      "stall": 7216,
      "Ġrout": 7217,
      ")`": 7218,
      "ĠMaximum": 7219,
      "Ġthing": 7220,
      "Ġsla": 7221,
      "fully": 7222,
      "fastq": 7223,
      "Storage": 7224,
      "failure": 7225,
      "Ġrelevant": 7226,
      "Button": 7227,
      "HEADER": 7228,
      "CR": 7229,
      "Ġpt": 7230,
      "Ġbias": 7231,
      "')):": 7232,
      "vention": 7233,
      "Ġconfigure": 7234,
      "Ġretrieved": 7235,
      "same": 7236,
      "Char": 7237,
      "Ġroll": 7238,
      "COM": 7239,
      "SM": 7240,
      "Ġattached": 7241,
      "mpls": 7242,
      "dicts": 7243,
      "Ġgrad": 7244,
      "encoder": 7245,
      "Ġaux": 7246,
      "console": 7247,
      "more": 7248,
      "SQL": 7249,
      "heel": 7250,
      "parents": 7251,
      "velength": 7252,
      "Ġnan": 7253,
      "tension": 7254,
      "ĠChecks": 7255,
      "alten": 7256,
      "VALID": 7257,
      "Ġfallback": 7258,
      "team": 7259,
      "numbers": 7260,
      "Ġbook": 7261,
      "subscription": 7262,
      "ĊĠĠĠĠĠĠĠĠĠĠĠĠĠĠĠĠĠĠĠĠĠĠĠĠĠĠĠĠĠĠĠĠĠĠĠĠĠĠĠĠĠĠĠĠĠĠĠĠĠĠĠĠ": 7263,
      ":',": 7264,
      "orization": 7265,
      "multiple": 7266,
      "Ġdetermined": 7267,
      "ational": 7268,
      "Ab": 7269,
      "dig": 7270,
      "quee": 7271,
      "Ġvisible": 7272,
      "Ġhref": 7273,
      "Ġcombined": 7274,
      "dian": 7275,
      "Rule": 7276,
      "mv": 7277,
      "Ġwhite": 7278,
      "Ġloading": 7279,
      "Ġdownloaded": 7280,
      "constraints": 7281,
      "ĠISO": 7282,
      "(\"{}": 7283,
      "Ġserialize": 7284,
      "Bytes": 7285,
      "tolist": 7286,
      "ĠConstruct": 7287,
      "Component": 7288,
      "Ġunderlying": 7289,
      "Position": 7290,
      "Ret": 7291,
      "Ġ'\"": 7292,
      "Args": 7293,
      "Ġnotebook": 7294,
      "fr": 7295,
      "reating": 7296,
      "Ġsleep": 7297,
      "Ġstud": 7298,
      "Ġpressure": 7299,
      "choices": 7300,
      "getLogger": 7301,
      "nested": 7302,
      "utool": 7303,
      ":'": 7304,
      "Ġlogic": 7305,
      "Ġunable": 7306,
      "ĠSup": 7307,
      "Ġtemplates": 7308,
      "Ġdigits": 7309,
      "LOCK": 7310,
      "Ġet": 7311,
      "appa": 7312,
      "Local": 7313,
      "ĠFIXME": 7314,
      "CC": 7315,
      "Ġwalk": 7316,
      "Ġlocale": 7317,
      "ventory": 7318,
      "Ġsending": 7319,
      "fw": 7320,
      "Ġcv": 7321,
      "Ġenter": 7322,
      "itable": 7323,
      "],[": 7324,
      "VALUE": 7325,
      "subnet": 7326,
      "tences": 7327,
      "Ġinstanti": 7328,
      "lstrip": 7329,
      "trigger": 7330,
      "altenv": 7331,
      "Ter": 7332,
      "shot": 7333,
      "ĠInstance": 7334,
      "ExecutionError": 7335,
      "Extract": 7336,
      "iteral": 7337,
      "Val": 7338,
      "may": 7339,
      "hit": 7340,
      "visit": 7341,
      "Ġaffect": 7342,
      "Ġclone": 7343,
      "llo": 7344,
      "proj": 7345,
      "workers": 7346,
      "Ġcorrectly": 7347,
      "aign": 7348,
      "Ġquestion": 7349,
      "Ġimported": 7350,
      "........": 7351,
      "Ġborder": 7352,
      "Ġthings": 7353,
      "\":\"": 7354,
      "Ġargv": 7355,
      "ilio": 7356,
      "ony": 7357,
      "Ġextent": 7358,
      "Ġends": 7359,
      "Ġincrement": 7360,
      "Ġcr": 7361,
      "Ġreversed": 7362,
      "lope": 7363,
      "Ġarbit": 7364,
      "Ġ*,": 7365,
      "ĠNormal": 7366,
      "zoom": 7367,
      "Ġzer": 7368,
      "Ġverb": 7369,
      "Ġinterpolation": 7370,
      "Ġmeasurement": 7371,
      "NotFoundError": 7372,
      "Role": 7373,
      "Ġfurther": 7374,
      "Ġredis": 7375,
      "ĠWHERE": 7376,
      "Ġmuch": 7377,
      "WARNING": 7378,
      "Ġtb": 7379,
      "isode": 7380,
      "Ġhuman": 7381,
      "Hash": 7382,
      "UI": 7383,
      "precision": 7384,
      "$',": 7385,
      "Ġprops": 7386,
      "hdr": 7387,
      "Ġroles": 7388,
      "Ġconsumer": 7389,
      "001": 7390,
      "actual": 7391,
      "LOW": 7392,
      "58": 7393,
      "UST": 7394,
      "Ġlocals": 7395,
      "'``": 7396,
      "cmap": 7397,
      "flo": 7398,
      "sky": 7399,
      "warnings": 7400,
      "Ġrestrict": 7401,
      "ĠClass": 7402,
      "fits": 7403,
      "pur": 7404,
      "learn": 7405,
      "Ġ``(": 7406,
      "Ġcompression": 7407,
      "unity": 7408,
      "litude": 7409,
      "HT": 7410,
      "mime": 7411,
      "å¤": 7412,
      "))))": 7413,
      "Ġmoment": 7414,
      "eration": 7415,
      "Ġdynamic": 7416,
      "poll": 7417,
      "Ġdialog": 7418,
      "GI": 7419,
      "fpath": 7420,
      "åħ": 7421,
      "ĠTest": 7422,
      "ĠConnection": 7423,
      "Ġactivity": 7424,
      "general": 7425,
      "ĠInitialize": 7426,
      "raft": 7427,
      "ĠAllow": 7428,
      "Ġage": 7429,
      "Ġreplacement": 7430,
      "ighest": 7431,
      "Ġgoing": 7432,
      "riptor": 7433,
      "Ġwaiting": 7434,
      "AST": 7435,
      "ĠPol": 7436,
      "Ġcorrelation": 7437,
      "Ġextended": 7438,
      "Ġconflict": 7439,
      "neighbor": 7440,
      "ĠIs": 7441,
      "ĠSequence": 7442,
      "lated": 7443,
      "mav": 7444,
      "irt": 7445,
      "retries": 7446,
      "('#": 7447,
      "completion": 7448,
      "training": 7449,
      "callpoint": 7450,
      "Ġchat": 7451,
      "()).": 7452,
      "ĠFe": 7453,
      "ĠParameter": 7454,
      "Profile": 7455,
      "Ġdecorated": 7456,
      "requirements": 7457,
      "world": 7458,
      "illi": 7459,
      "built": 7460,
      "Ġtesting": 7461,
      "Use": 7462,
      "fire": 7463,
      "sentence": 7464,
      "tb": 7465,
      "Ġurls": 7466,
      "Ġdispatch": 7467,
      "Ġecho": 7468,
      "Ġoverrid": 7469,
      "claration": 7470,
      "errno": 7471,
      "Ġcompatibility": 7472,
      "Ġcum": 7473,
      "ynomial": 7474,
      "UTP": 7475,
      "osome": 7476,
      "Ġbytearray": 7477,
      "ĠStr": 7478,
      "Ġproblems": 7479,
      "Ġklass": 7480,
      "mazon": 7481,
      "ĠBoolean": 7482,
      "interpol": 7483,
      "ĠDetermine": 7484,
      "Ġproperly": 7485,
      "Ġmetavar": 7486,
      "alive": 7487,
      "Ġ%.": 7488,
      "Ġplane": 7489,
      "Ġports": 7490,
      "dataframe": 7491,
      "ysql": 7492,
      "Any": 7493,
      "_[": 7494,
      "ĠNaN": 7495,
      "JECT": 7496,
      "hard": 7497,
      "Ġlengths": 7498,
      "sertionError": 7499,
      "Pub": 7500,
      "Ġsimulation": 7501,
      "candidate": 7502,
      "Ġtol": 7503,
      "sampling": 7504,
      "expanduser": 7505,
      "balance": 7506,
      "ĠDon": 7507,
      "Directory": 7508,
      "Ġpopulation": 7509,
      "sensitive": 7510,
      "Ġscaling": 7511,
      "Ġembedding": 7512,
      "SY": 7513,
      "sses": 7514,
      "currency": 7515,
      "Med": 7516,
      "inations": 7517,
      "Ġ'[": 7518,
      "ĠSource": 7519,
      "Ġcompound": 7520,
      "eta": 7521,
      "ĊĠĠĠĠĠĠĠĠĠĠĠĠĊĠĠĠĠĠĠĠ": 7522,
      "hooks": 7523,
      "Ġpip": 7524,
      "erce": 7525,
      "unter": 7526,
      "trim": 7527,
      "Cons": 7528,
      "finished": 7529,
      "Ġtoler": 7530,
      "contrib": 7531,
      "incip": 7532,
      "subplot": 7533,
      "geom": 7534,
      ":\")": 7535,
      "Ġable": 7536,
      "ĠCa": 7537,
      "surface": 7538,
      "union": 7539,
      "aging": 7540,
      "traceback": 7541,
      "Cursor": 7542,
      "Ġnative": 7543,
      "sensor": 7544,
      "iodic": 7545,
      "Make": 7546,
      "fh": 7547,
      "Ġneg": 7548,
      "Ġpredicted": 7549,
      "UTPUT": 7550,
      "Ġrecomm": 7551,
      "Ġneighbor": 7552,
      "acl": 7553,
      "dom": 7554,
      "stand": 7555,
      "Ġcar": 7556,
      "ĠBlock": 7557,
      "panel": 7558,
      "({\"": 7559,
      "Ġquiet": 7560,
      "wx": 7561,
      "probab": 7562,
      "legal": 7563,
      "Ġbug": 7564,
      "permissions": 7565,
      "Ġrouting": 7566,
      "deps": 7567,
      "Ġgame": 7568,
      "=''):": 7569,
      "Flow": 7570,
      "imension": 7571,
      "pickle": 7572,
      "ture": 7573,
      "Ġblack": 7574,
      "mts": 7575,
      "TEXT": 7576,
      "Ġwon": 7577,
      "CLA": 7578,
      "letes": 7579,
      "Ġissubclass": 7580,
      "windows": 7581,
      "(\"'": 7582,
      "imuth": 7583,
      "enario": 7584,
      "ssibly": 7585,
      "Ġpredictions": 7586,
      "Ġpredicate": 7587,
      "VM": 7588,
      "Ġhours": 7589,
      "contains": 7590,
      "Ġasynchronously": 7591,
      "Sum": 7592,
      "oa": 7593,
      "pull": 7594,
      "Ġsq": 7595,
      "ĠIgn": 7596,
      "Ġoffsets": 7597,
      "ides": 7598,
      ",-": 7599,
      "Ġ`~": 7600,
      "Ġ</": 7601,
      "dynamic": 7602,
      "vidence": 7603,
      "inx": 7604,
      "specs": 7605,
      "bf": 7606,
      "written": 7607,
      "war": 7608,
      "(\".": 7609,
      "Ġsmaller": 7610,
      "composition": 7611,
      "TYPES": 7612,
      "manifest": 7613,
      "Wrapper": 7614,
      "za": 7615,
      "48": 7616,
      "Ġbg": 7617,
      "wall": 7618,
      "clone": 7619,
      "WORD": 7620,
      "enc": 7621,
      "Ġinstruction": 7622,
      "cular": 7623,
      "GP": 7624,
      "attention": 7625,
      "Ġhalf": 7626,
      "Ġlarger": 7627,
      "ience": 7628,
      "Ġfact": 7629,
      "([(": 7630,
      "Ġchars": 7631,
      "Ġalternative": 7632,
      "Ġstdin": 7633,
      "'d": 7634,
      "äº": 7635,
      "bolic": 7636,
      "acc": 7637,
      "taint": 7638,
      "ards": 7639,
      "regions": 7640,
      "ĠWeb": 7641,
      "Ġhigher": 7642,
      "lecule": 7643,
      "PORT": 7644,
      "ĠPri": 7645,
      "Plot": 7646,
      "Ġutool": 7647,
      "means": 7648,
      "Ġrh": 7649,
      "Ġ^": 7650,
      "Ġgenome": 7651,
      "inja": 7652,
      "examples": 7653,
      "dfs": 7654,
      "revision": 7655,
      "Ġsolver": 7656,
      "notify": 7657,
      "Ġinterest": 7658,
      "asing": 7659,
      "filtered": 7660,
      "intersection": 7661,
      "criteria": 7662,
      "vided": 7663,
      "etrieves": 7664,
      "Ġss": 7665,
      "cv": 7666,
      "\"}": 7667,
      "km": 7668,
      "__))": 7669,
      "stone": 7670,
      "locate": 7671,
      "queeze": 7672,
      "Mapping": 7673,
      "Ġhaving": 7674,
      "ĠToken": 7675,
      "]'": 7676,
      "solver": 7677,
      "udo": 7678,
      "Ġtrying": 7679,
      ">`_": 7680,
      "negative": 7681,
      "Ġcomputation": 7682,
      "=[],": 7683,
      "Download": 7684,
      "NN": 7685,
      "ĠSp": 7686,
      "Ġcopied": 7687,
      "Ġfall": 7688,
      "ĠColumn": 7689,
      "Ġcatch": 7690,
      "Ġsin": 7691,
      "since": 7692,
      "addresses": 7693,
      "transfer": 7694,
      "ĠHowever": 7695,
      "/.": 7696,
      "ace": 7697,
      "saved": 7698,
      "irtual": 7699,
      "Ġdims": 7700,
      "Ġdescribed": 7701,
      "java": 7702,
      "ĠSystem": 7703,
      "Ġsubmission": 7704,
      "Copy": 7705,
      "Save": 7706,
      "serializer": 7707,
      "installed": 7708,
      "Style": 7709,
      "Ġissues": 7710,
      "42": 7711,
      "Mark": 7712,
      "sol": 7713,
      "bum": 7714,
      "codeError": 7715,
      "Ġdefaultdict": 7716,
      "Ġevaluation": 7717,
      "degree": 7718,
      "Ġprob": 7719,
      "Ġspecies": 7720,
      "NUM": 7721,
      "æĹ": 7722,
      "izers": 7723,
      "Ġops": 7724,
      "Ġtyping": 7725,
      "Ph": 7726,
      "ravel": 7727,
      "dns": 7728,
      "Ġgeneric": 7729,
      "sterior": 7730,
      "Factory": 7731,
      "[_": 7732,
      "slot": 7733,
      "å®": 7734,
      "iguous": 7735,
      "Ġwhitespace": 7736,
      "execution": 7737,
      "Ġtempfile": 7738,
      "Ġdocuments": 7739,
      "globals": 7740,
      "CB": 7741,
      "ĠEither": 7742,
      "Ġdaemon": 7743,
      "difference": 7744,
      "98": 7745,
      "critical": 7746,
      "eral": 7747,
      "Ġcovariance": 7748,
      "SSL": 7749,
      "uniform": 7750,
      "mediator": 7751,
      "ĠNAME": 7752,
      "Ġretval": 7753,
      "WA": 7754,
      "Ġ13": 7755,
      "Rece": 7756,
      "Ġextend": 7757,
      "Ġblue": 7758,
      "Ġatoms": 7759,
      "metry": 7760,
      "coef": 7761,
      "ields": 7762,
      "ĊĠĠĠĠĠĠĠĠĠĠĠĠĠĠĠĠĠĠĠĠĠĠĠĠĠĠĠĠĠĠĠĠĠĠĠĠĠĠĠĠĠĠĠĠĠĠĠĠĠĠĠĠĠĠĠ": 7763,
      "Ġsignals": 7764,
      "TRI": 7765,
      "oo": 7766,
      "Ġroom": 7767,
      "ĠMap": 7768,
      "prise": 7769,
      "Ġmicro": 7770,
      "aps": 7771,
      "cnt": 7772,
      "Transform": 7773,
      "assessment": 7774,
      "ĠUN": 7775,
      "Agent": 7776,
      "Ġrgb": 7777,
      "ĠLine": 7778,
      "character": 7779,
      "Ġdepends": 7780,
      "datasets": 7781,
      "Ġqs": 7782,
      "Ġformula": 7783,
      "LY": 7784,
      "live": 7785,
      "Ġexponent": 7786,
      "Ġten": 7787,
      "translate": 7788,
      "Ġconsistent": 7789,
      "Ġcutoff": 7790,
      "Ġtimer": 7791,
      "usr": 7792,
      "ĠDist": 7793,
      "cay": 7794,
      "compressed": 7795,
      "404": 7796,
      "arti": 7797,
      "STATE": 7798,
      "cator": 7799,
      "rich": 7800,
      "ĠHel": 7801,
      "processes": 7802,
      "Proxy": 7803,
      "structions": 7804,
      "Ġchoose": 7805,
      ">',": 7806,
      "hours": 7807,
      "Ġverbosity": 7808,
      "çĶ¨": 7809,
      "/{}": 7810,
      "))[": 7811,
      "notes": 7812,
      "Ġmaybe": 7813,
      "ĠCommandExecutionError": 7814,
      "gence": 7815,
      "compliance": 7816,
      "VAR": 7817,
      "]',": 7818,
      "square": 7819,
      "timezone": 7820,
      "Ġhandled": 7821,
      "Ġcancel": 7822,
      "rols": 7823,
      "}},": 7824,
      "Ġreached": 7825,
      "deriv": 7826,
      "Register": 7827,
      "è¡": 7828,
      "met": 7829,
      "ĠEnt": 7830,
      "Ġcoefficient": 7831,
      "LD": 7832,
      "density": 7833,
      "tur": 7834,
      "Ġcompress": 7835,
      "->": 7836,
      "orn": 7837,
      "ĠNull": 7838,
      "transition": 7839,
      "ln": 7840,
      "roke": 7841,
      "Ġtopology": 7842,
      "kwds": 7843,
      "ĠSpecify": 7844,
      "native": 7845,
      "Ġkm": 7846,
      "beat": 7847,
      "ACHE": 7848,
      "periods": 7849,
      "Rel": 7850,
      "Ġupd": 7851,
      "Ġtrailing": 7852,
      "Ġfront": 7853,
      "Ġec": 7854,
      "striction": 7855,
      "Ġhandles": 7856,
      "(\"\"": 7857,
      "vrf": 7858,
      "Ġicon": 7859,
      "ĠStore": 7860,
      "ances": 7861,
      "checks": 7862,
      "seudo": 7863,
      "([])": 7864,
      "Expected": 7865,
      "buff": 7866,
      "Identifier": 7867,
      "={},": 7868,
      "Ġequation": 7869,
      "Matrix": 7870,
      "Ġinline": 7871,
      "lica": 7872,
      "spy": 7873,
      "pretty": 7874,
      "filenames": 7875,
      "Ð°": 7876,
      "unded": 7877,
      "TEMP": 7878,
      "two": 7879,
      "QUIRED": 7880,
      "Normal": 7881,
      "locale": 7882,
      "Ġsilent": 7883,
      "ĠSN": 7884,
      "haz": 7885,
      "browser": 7886,
      "ultiple": 7887,
      "Ġitertools": 7888,
      "retcode": 7889,
      "ĠChange": 7890,
      "Ġbinding": 7891,
      "ledge": 7892,
      "Ġpositional": 7893,
      "urnal": 7894,
      "Ġbounding": 7895,
      "Ġweighted": 7896,
      "RF": 7897,
      "Ġrouter": 7898,
      "Ġcompile": 7899,
      "serialized": 7900,
      "ention": 7901,
      "Ġexposure": 7902,
      "Ġgetting": 7903,
      "numeric": 7904,
      "offsets": 7905,
      "Does": 7906,
      "dia": 7907,
      "west": 7908,
      "Ġinterfaces": 7909,
      "Ġtransformation": 7910,
      "Bar": 7911,
      "Vis": 7912,
      "riendly": 7913,
      "ongs": 7914,
      "Ġsquare": 7915,
      "linspace": 7916,
      "ĠDescription": 7917,
      "500": 7918,
      "inct": 7919,
      "ĠCont": 7920,
      "stud": 7921,
      "asa": 7922,
      "Ġcap": 7923,
      "72": 7924,
      "gered": 7925,
      "Ġleading": 7926,
      "'ve": 7927,
      "Ġdecla": 7928,
      "Ġattempts": 7929,
      "åŃ": 7930,
      "ceil": 7931,
      "boto": 7932,
      "ĠRequired": 7933,
      "000000": 7934,
      "rem": 7935,
      "ĠConverts": 7936,
      "learning": 7937,
      "formatted": 7938,
      "Ġmodification": 7939,
      "Popen": 7940,
      "ylim": 7941,
      "ĠAssertionError": 7942,
      "Ġgithub": 7943,
      ")\")": 7944,
      "LATE": 7945,
      "MT": 7946,
      "ACT": 7947,
      "Application": 7948,
      "species": 7949,
      "Ġpolygon": 7950,
      "ĠGit": 7951,
      "statistics": 7952,
      "venience": 7953,
      "Ð¾": 7954,
      "Ġpdf": 7955,
      "(\",": 7956,
      "Ġnearest": 7957,
      "terminal": 7958,
      "normalized": 7959,
      "æĸĩ": 7960,
      "repos": 7961,
      "('')": 7962,
      "agg": 7963,
      "genome": 7964,
      "Ġspectrum": 7965,
      "tip": 7966,
      "support": 7967,
      "quant": 7968,
      "ãĢĤ": 7969,
      "Ġir": 7970,
      "Ġexpanded": 7971,
      "kill": 7972,
      "ĠEX": 7973,
      "Ġbasename": 7974,
      "conditions": 7975,
      "dimensional": 7976,
      "CLI": 7977,
      "Ġbrowser": 7978,
      "Ġls": 7979,
      "arante": 7980,
      "ann": 7981,
      "DELETE": 7982,
      "UND": 7983,
      "Ġclosest": 7984,
      "mig": 7985,
      "ĠOPTION": 7986,
      "Ġtransformed": 7987,
      "Ġplotting": 7988,
      "Admin": 7989,
      "repeat": 7990,
      "aming": 7991,
      "Ġlisted": 7992,
      "Ġprinted": 7993,
      "callbacks": 7994,
      "tected": 7995,
      "Ġconfirm": 7996,
      "configure": 7997,
      "dap": 7998,
      "weet": 7999,
      "interfaces": 8000,
      "supports": 8001,
      "Ġpanel": 8002,
      "ĠMag": 8003,
      "Ġiterate": 8004,
      "information": 8005,
      "Ġnewline": 8006,
      "Ġsubmit": 8007,
      "Ġdisplayed": 8008,
      "Ġreally": 8009,
      "rx": 8010,
      "elta": 8011,
      "mapped": 8012,
      "ĠStopIteration": 8013,
      "Calculate": 8014,
      "ye": 8015,
      "Ġgs": 8016,
      "ĠUsage": 8017,
      "Ġ40": 8018,
      "mtime": 8019,
      "__[": 8020,
      "generic": 8021,
      "validator": 8022,
      "django": 8023,
      "must": 8024,
      "pillar": 8025,
      "room": 8026,
      "bso": 8027,
      "Ġwindows": 8028,
      "Ġcipher": 8029,
      "])]": 8030,
      "ĊĠĠĠĠĠĠĠĠĠĠĠĠĠĠĠĠĠĠĠĠĠĠĠĠĠĠĠĠĠĠĠĠĠĠĠĠĠĠĠĠĠĠĠĠĠĠĠĠĠĠĠĠĠ": 8031,
      "when": 8032,
      "shutit": 8033,
      "^\\": 8034,
      "Callback": 8035,
      "Ġphone": 8036,
      "Ġ'-'": 8037,
      "ilename": 8038,
      "ĠDjango": 8039,
      "masked": 8040,
      "Ġdescribing": 8041,
      "Ġct": 8042,
      "Ġocc": 8043,
      "ĠCom": 8044,
      "mmar": 8045,
      "Ġzoom": 8046,
      "Ġprovides": 8047,
      "SCII": 8048,
      "Ðµ": 8049,
      "Ġtun": 8050,
      "lax": 8051,
      "pv": 8052,
      "ĠNum": 8053,
      "ailab": 8054,
      "Ġ(_": 8055,
      "extent": 8056,
      "Ġvox": 8057,
      "shapes": 8058,
      "Ġclassification": 8059,
      "è®": 8060,
      "Ġ90": 8061,
      "bp": 8062,
      "ĠEnd": 8063,
      "Tc": 8064,
      "wo": 8065,
      "Ġ1024": 8066,
      "Ġcorresponds": 8067,
      "Ġrename": 8068,
      "Ġzeros": 8069,
      "Ġmet": 8070,
      "Ġserializer": 8071,
      "Ġnl": 8072,
      "Ġvisit": 8073,
      "Ġfw": 8074,
      "ĠĠĠĠĠĠĠĠĠĠĠĠĠĠĠĠĠĠ": 8075,
      "aking": 8076,
      "Interface": 8077,
      "IR": 8078,
      "nor": 8079,
      "kv": 8080,
      "Ġaff": 8081,
      "Ġoccurred": 8082,
      "AUTH": 8083,
      "xlim": 8084,
      "Ġtwilio": 8085,
      "Ġrr": 8086,
      "Ġminor": 8087,
      "Ġdistances": 8088,
      "SUB": 8089,
      "sequent": 8090,
      "pag": 8091,
      "=\"%": 8092,
      "Select": 8093,
      "Ġinstrument": 8094,
      "Ġraster": 8095,
      "Defin": 8096,
      "mul": 8097,
      "/\"": 8098,
      "Ġsr": 8099,
      "Ġepsilon": 8100,
      "nm": 8101,
      "ç»": 8102,
      "Ġopened": 8103,
      "Ġquality": 8104,
      "ĠPerform": 8105,
      "ĠRO": 8106,
      "latitude": 8107,
      "ecorator": 8108,
      "Ġdoctest": 8109,
      "Ġrecursively": 8110,
      "Ġnotes": 8111,
      "Ġtranscript": 8112,
      "EP": 8113,
      "resolution": 8114,
      "ĠDataset": 8115,
      "rdf": 8116,
      "dag": 8117,
      "Ġactivation": 8118,
      ":].": 8119,
      "Ġanchor": 8120,
      "ĠSince": 8121,
      "matching": 8122,
      "yntaxError": 8123,
      "Offset": 8124,
      "matplotlib": 8125,
      "Ġspin": 8126,
      "RPC": 8127,
      "USE": 8128,
      "station": 8129,
      "Ġglyph": 8130,
      "])[": 8131,
      "Post": 8132,
      "bri": 8133,
      "Ġfew": 8134,
      "confirm": 8135,
      "Ġcompressed": 8136,
      "Ġsoft": 8137,
      "variants": 8138,
      "Ġfigs": 8139,
      "viders": 8140,
      "Ġusually": 8141,
      "alect": 8142,
      "Ġattachment": 8143,
      "hparams": 8144,
      "compound": 8145,
      "Ġmaking": 8146,
      "Ġ'$": 8147,
      "ĠCIM": 8148,
      "sensus": 8149,
      "Ġpreserve": 8150,
      "objs": 8151,
      "Ġoccurs": 8152,
      "Ġarbitrary": 8153,
      "Ġfinish": 8154,
      "ALI": 8155,
      "visor": 8156,
      "'})": 8157,
      "wind": 8158,
      "Ġlaunch": 8159,
      "svg": 8160,
      "ĠUTC": 8161,
      "DP": 8162,
      "Ġreaction": 8163,
      "ctl": 8164,
      "128": 8165,
      "'}},": 8166,
      "Ġthresh": 8167,
      "xyz": 8168,
      "nonzero": 8169,
      "border": 8170,
      "ĠRecord": 8171,
      "Ġnormalization": 8172,
      "Current": 8173,
      "Root": 8174,
      "Ġgp": 8175,
      "ĠMay": 8176,
      "Ġ\"\".": 8177,
      "usion": 8178,
      "groupby": 8179,
      "ashboard": 8180,
      "separator": 8181,
      "stor": 8182,
      "Ġbp": 8183,
      "mkdir": 8184,
      "Unsupported": 8185,
      "unct": 8186,
      "phan": 8187,
      "Ġ-----------": 8188,
      "Ġrepresented": 8189,
      "Ġacc": 8190,
      "Batch": 8191,
      "xc": 8192,
      "oute": 8193,
      "LIST": 8194,
      "Modi": 8195,
      "constraint": 8196,
      "Ġmajor": 8197,
      "Script": 8198,
      "Ġcanonical": 8199,
      "Ġseveral": 8200,
      "remaining": 8201,
      "defs": 8202,
      "Ġordering": 8203,
      "Ġaccepts": 8204,
      "aliases": 8205,
      "Limit": 8206,
      "odb": 8207,
      "Ġdefines": 8208,
      "Ċĉĉĉĉĉĉ": 8209,
      "Ġfasta": 8210,
      "Ġstar": 8211,
      "Ġstrategy": 8212,
      "lets": 8213,
      "Ġpg": 8214,
      "quis": 8215,
      "Ġouter": 8216,
      "Comm": 8217,
      "UNK": 8218,
      "Ġfiltering": 8219,
      "countered": 8220,
      "xpath": 8221,
      "Ġaut": 8222,
      "preview": 8223,
      "ĠStream": 8224,
      ">>>": 8225,
      "ĠBad": 8226,
      "URCE": 8227,
      "listen": 8228,
      "Active": 8229,
      "Ġderivative": 8230,
      "Ġtolerance": 8231,
      "`).": 8232,
      "recursive": 8233,
      "Ġdummy": 8234,
      "RES": 8235,
      "Files": 8236,
      "completed": 8237,
      "embedding": 8238,
      "digits": 8239,
      "LT": 8240,
      "Ġplayer": 8241,
      "precation": 8242,
      "Ġlive": 8243,
      "kes": 8244,
      "Ġnargs": 8245,
      "Ġexpressions": 8246,
      "Ġmacro": 8247,
      "Ġstypes": 8248,
      "Ġclients": 8249,
      "pw": 8250,
      "Ġcapture": 8251,
      "Ġfollows": 8252,
      "Mon": 8253,
      "Ġmanually": 8254,
      "cluding": 8255,
      "ĠApply": 8256,
      "Ġrelationship": 8257,
      "ĠAmazon": 8258,
      "Ġretries": 8259,
      "meas": 8260,
      "Ġlic": 8261,
      "ĠSetter": 8262,
      "Ġpercentage": 8263,
      "KEN": 8264,
      "gc": 8265,
      "Given": 8266,
      "Ġlex": 8267,
      "Ġmarkers": 8268,
      "pixels": 8269,
      "Ġtyp": 8270,
      "OPTION": 8271,
      "Ġtorch": 8272,
      "Metri": 8273,
      "funcs": 8274,
      "ĠSpecifies": 8275,
      "quared": 8276,
      "...\")": 8277,
      "overflow": 8278,
      "ĠIterable": 8279,
      "isnan": 8280,
      "Ġvarious": 8281,
      "ĠPh": 8282,
      "oter": 8283,
      "matched": 8284,
      "working": 8285,
      "thers": 8286,
      "zed": 8287,
      "BASE": 8288,
      "WOR": 8289,
      "mpaign": 8290,
      "resolver": 8291,
      "Ġ...,": 8292,
      "Ġidentical": 8293,
      "seqs": 8294,
      "Ġhashlib": 8295,
      "Ġbroadcast": 8296,
      "VICE": 8297,
      "lr": 8298,
      "REC": 8299,
      "ĠSerial": 8300,
      "Ġpillar": 8301,
      "EXT": 8302,
      "Settings": 8303,
      "hexdigest": 8304,
      "PREFIX": 8305,
      "Ġreduced": 8306,
      "Ġtranslate": 8307,
      "incipal": 8308,
      "54": 8309,
      "osed": 8310,
      "Ġ()": 8311,
      "(\"_": 8312,
      "Ġapplies": 8313,
      "Interrupt": 8314,
      "BY": 8315,
      "Ġna": 8316,
      "wrapped": 8317,
      "Account": 8318,
      "measurement": 8319,
      "limited": 8320,
      "Ġcrypto": 8321,
      "__:": 8322,
      "Ġcorrespond": 8323,
      "ĠThen": 8324,
      "Adds": 8325,
      "compatible": 8326,
      "evaluate": 8327,
      "ailability": 8328,
      "gies": 8329,
      "gnc": 8330,
      "Failure": 8331,
      "Ġ500": 8332,
      "pex": 8333,
      "Ġdoing": 8334,
      "agger": 8335,
      "rites": 8336,
      "cending": 8337,
      "pip": 8338,
      "Ġcrop": 8339,
      "scatter": 8340,
      "Ġwildcard": 8341,
      "getcwd": 8342,
      "Ġformatting": 8343,
      "Ġlogged": 8344,
      "Ġcombination": 8345,
      "daemon": 8346,
      "plt": 8347,
      "checksum": 8348,
      "ĠXXX": 8349,
      "\"{": 8350,
      "Flag": 8351,
      "Ġ\"__": 8352,
      "Ġcoverage": 8353,
      ":**": 8354,
      "Pattern": 8355,
      "retri": 8356,
      "Ġexcluded": 8357,
      "Project": 8358,
      "six": 8359,
      "runner": 8360,
      "Ġoverla": 8361,
      "margin": 8362,
      "Ġconfidence": 8363,
      "byref": 8364,
      "anging": 8365,
      "interp": 8366,
      "Next": 8367,
      "(\"[": 8368,
      "ĠValidate": 8369,
      "73": 8370,
      "Ġcallbacks": 8371,
      "should": 8372,
      "describe": 8373,
      "ught": 8374,
      "Ġnewly": 8375,
      "mitive": 8376,
      "Ġdeployment": 8377,
      "Ġrs": 8378,
      "without": 8379,
      "crease": 8380,
      "Ġsatis": 8381,
      "XY": 8382,
      "ĠAddress": 8383,
      "Ġxmlns": 8384,
      "(',')": 8385,
      "Ġguarante": 8386,
      "Ġcov": 8387,
      "Ġ```": 8388,
      "Ġ{!": 8389,
      "Ġwho": 8390,
      "ĠUses": 8391,
      "Ġindexed": 8392,
      "enotype": 8393,
      "ctrl": 8394,
      "NotExist": 8395,
      "customer": 8396,
      "aux": 8397,
      "Ġgap": 8398,
      "probs": 8399,
      "Ġobservations": 8400,
      "ĠTemplate": 8401,
      "')))": 8402,
      "did": 8403,
      "artesian": 8404,
      "Ġmasked": 8405,
      "randint": 8406,
      "BE": 8407,
      "Ġtreat": 8408,
      "Ġpp": 8409,
      "quid": 8410,
      "Ġencryption": 8411,
      "Ġfilesystem": 8412,
      "Web": 8413,
      "Ġallele": 8414,
      "Raw": 8415,
      "capacity": 8416,
      "________": 8417,
      "Ġchart": 8418,
      "Ġlikely": 8419,
      "Ġevaluated": 8420,
      "Ġaws": 8421,
      "Ġfrequencies": 8422,
      "adow": 8423,
      "iterations": 8424,
      "widths": 8425,
      "STATUS": 8426,
      "ttl": 8427,
      "ArgumentParser": 8428,
      "æĺ": 8429,
      "Ġrendered": 8430,
      "Ġsuitable": 8431,
      "artifact": 8432,
      "Lib": 8433,
      "Ġworld": 8434,
      "coverage": 8435,
      "Ġgeneration": 8436,
      "Ġcleanup": 8437,
      "between": 8438,
      "~~~~": 8439,
      "alo": 8440,
      "+\"": 8441,
      "lips": 8442,
      "compare": 8443,
      "Descriptor": 8444,
      "hits": 8445,
      "mn": 8446,
      "...')": 8447,
      "namespaced": 8448,
      "binding": 8449,
      "ĠCopy": 8450,
      "ĠOperationFailed": 8451,
      "Ġstation": 8452,
      "iming": 8453,
      "insum": 8454,
      "iteration": 8455,
      "Ġ\"\":": 8456,
      "ĠAct": 8457,
      "ĠVersion": 8458,
      "problem": 8459,
      "Unit": 8460,
      "share": 8461,
      "small": 8462,
      "Json": 8463,
      "umption": 8464,
      "Bind": 8465,
      "ä½": 8466,
      "bsocket": 8467,
      ".+": 8468,
      "moving": 8469,
      "Ġyields": 8470,
      "Builder": 8471,
      "Ġmi": 8472,
      "queryset": 8473,
      "MPLE": 8474,
      "Ġpersist": 8475,
      "mpy": 8476,
      "ĠCSV": 8477,
      "population": 8478,
      "removed": 8479,
      "unicate": 8480,
      "Sample": 8481,
      "ĠSort": 8482,
      "Ġproduce": 8483,
      "Dep": 8484,
      "temperature": 8485,
      "Ġcs": 8486,
      ".:": 8487,
      "Total": 8488,
      "Ġdns": 8489,
      "ĠCallable": 8490,
      "Sc": 8491,
      "qubits": 8492,
      "streams": 8493,
      "localhost": 8494,
      "CACHE": 8495,
      "ĠTarget": 8496,
      "pically": 8497,
      "ĠProject": 8498,
      "ĠAccess": 8499,
      "Font": 8500,
      "rea": 8501,
      "least": 8502,
      "Ġsamp": 8503,
      "Ġgzip": 8504,
      "perform": 8505,
      "Ġperformance": 8506,
      "Ġrestore": 8507,
      "alancer": 8508,
      "Ġleaf": 8509,
      "ĠJo": 8510,
      "specified": 8511,
      "initialized": 8512,
      "Cells": 8513,
      "BR": 8514,
      "ess": 8515,
      "Ġmk": 8516,
      "Ġinserted": 8517,
      "tas": 8518,
      "Ġfin": 8519,
      "ĠTakes": 8520,
      "Ġhorizontal": 8521,
      "Ġdeviation": 8522,
      "person": 8523,
      "definitions": 8524,
      "Ġrepeat": 8525,
      "Ġobtained": 8526,
      "SN": 8527,
      "Example": 8528,
      "Ġpoll": 8529,
      "impl": 8530,
      "covered": 8531,
      "Ġiso": 8532,
      "collections": 8533,
      "UNT": 8534,
      "ITS": 8535,
      "vailable": 8536,
      "Ġreach": 8537,
      "chanism": 8538,
      "Ġhdr": 8539,
      "Ġmeth": 8540,
      "ĠĠĠĠĠĠĠĠĠĠĠĠĠĠĠĠĠ": 8541,
      "Generator": 8542,
      "Now": 8543,
      "Ġdetail": 8544,
      "xies": 8545,
      "Ġvlan": 8546,
      "statements": 8547,
      "Show": 8548,
      "Net": 8549,
      "}',": 8550,
      "}\")": 8551,
      "Ġdc": 8552,
      "_=": 8553,
      "ĠContext": 8554,
      "Ġcd": 8555,
      "Ġdiv": 8556,
      "Align": 8557,
      "bridge": 8558,
      "tailed": 8559,
      "trl": 8560,
      "'{": 8561,
      "Ġlearning": 8562,
      "iloc": 8563,
      "ĠEd": 8564,
      "Ġchan": 8565,
      "minutes": 8566,
      "Ġintersection": 8567,
      "longitude": 8568,
      "ĠDoes": 8569,
      "fq": 8570,
      "Ġ{{": 8571,
      "Ġproj": 8572,
      "Ġappended": 8573,
      "assignment": 8574,
      "Ġcores": 8575,
      "Ġconfigs": 8576,
      "spac": 8577,
      "usted": 8578,
      "Track": 8579,
      "}`": 8580,
      "Ġpdb": 8581,
      "histogram": 8582,
      "Wh": 8583,
      "degrees": 8584,
      "lored": 8585,
      "REF": 8586,
      "located": 8587,
      "ITE": 8588,
      "elif": 8589,
      "hide": 8590,
      "Ġconvention": 8591,
      "Ġgl": 8592,
      "ĠPub": 8593,
      "Internal": 8594,
      "START": 8595,
      "going": 8596,
      "Ġvariants": 8597,
      "ĊĠĠĠĠĠĠĠĠĠĠĠĠĠĠĠĠĠĠĠĠĠĠĠĠĠĠĠĠĠĠĠĠĠĠĠĠĠĠĠĠĠĠĠĠĠĠĠĠĠĠĠĠĠĠ": 8598,
      "Login": 8599,
      "Ġfontsize": 8600,
      "Ġpf": 8601,
      "lobs": 8602,
      "Ġ[('": 8603,
      "ugment": 8604,
      "SSAGE": 8605,
      "></": 8606,
      "Usage": 8607,
      "smooth": 8608,
      "ĠĊĠĠĠĠĠĠĠĠĠĠĠĠĠĠĠ": 8609,
      "perms": 8610,
      "allen": 8611,
      "minor": 8612,
      "Ġmatrices": 8613,
      "Ġtau": 8614,
      "Ġestimator": 8615,
      "mtree": 8616,
      "dry": 8617,
      "Ġtrial": 8618,
      "arrow": 8619,
      "Ġbulk": 8620,
      "Ġflush": 8621,
      "Empty": 8622,
      "cepts": 8623,
      "pie": 8624,
      "tcp": 8625,
      "adj": 8626,
      "ĠVariable": 8627,
      "ĠPermission": 8628,
      "Ġaggregate": 8629,
      "ordin": 8630,
      "player": 8631,
      "ners": 8632,
      "vc": 8633,
      "deserialize": 8634,
      "Ġindependent": 8635,
      "endor": 8636,
      "}\",": 8637,
      "recur": 8638,
      "Ġothers": 8639,
      "uming": 8640,
      "mainder": 8641,
      "udit": 8642,
      "apps": 8643,
      "Ġ{}:": 8644,
      "exact": 8645,
      "ĠUsing": 8646,
      "graphic": 8647,
      ":]:": 8648,
      "Ġheat": 8649,
      "registered": 8650,
      "Ġworkers": 8651,
      "Ġdirname": 8652,
      "mongo": 8653,
      "rsplit": 8654,
      "treat": 8655,
      "LAB": 8656,
      "Ġincoming": 8657,
      "400": 8658,
      "Top": 8659,
      "Tags": 8660,
      "Ġide": 8661,
      "Ġfour": 8662,
      "Ġduplicates": 8663,
      "questions": 8664,
      "ifies": 8665,
      "IDs": 8666,
      "}')": 8667,
      "ulus": 8668,
      "Ġ256": 8669,
      "Ġcheckpoint": 8670,
      "LAN": 8671,
      "gradient": 8672,
      "dy": 8673,
      "Ġnor": 8674,
      "resolved": 8675,
      "Ġshard": 8676,
      "nick": 8677,
      "olding": 8678,
      "rune": 8679,
      "Ġprojects": 8680,
      "Ġfigsize": 8681,
      "/#": 8682,
      "CATION": 8683,
      "Ġfar": 8684,
      "ĠConfiguration": 8685,
      "Retrieve": 8686,
      "Ġuniform": 8687,
      "decorator": 8688,
      "cus": 8689,
      "consumer": 8690,
      "Ġidentifiers": 8691,
      "references": 8692,
      "ĠAnd": 8693,
      "68": 8694,
      "600": 8695,
      "ĠWith": 8696,
      "fraction": 8697,
      "Float": 8698,
      "aring": 8699,
      "Ġjs": 8700,
      "])))": 8701,
      "but": 8702,
      "eg": 8703,
      "front": 8704,
      "hdf": 8705,
      "represent": 8706,
      "parallel": 8707,
      "keyid": 8708,
      "velope": 8709,
      "notebook": 8710,
      "FIN": 8711,
      "dients": 8712,
      "Ġnamespaces": 8713,
      "duces": 8714,
      "boundary": 8715,
      "Entity": 8716,
      "separated": 8717,
      "fragment": 8718,
      "101": 8719,
      "Ġ18": 8720,
      "Ġcanvas": 8721,
      "Ġcharset": 8722,
      "solve": 8723,
      "Ġcapacity": 8724,
      "/<": 8725,
      "MC": 8726,
      "ertificate": 8727,
      "ctypes": 8728,
      "Ġstand": 8729,
      "Ġhighest": 8730,
      "under": 8731,
      "bases": 8732,
      "unused": 8733,
      "intext": 8734,
      "Ġrm": 8735,
      "Ġfilled": 8736,
      "Hist": 8737,
      "Ġbed": 8738,
      "Ġgives": 8739,
      "updates": 8740,
      "arginal": 8741,
      "Ġcomplet": 8742,
      "Prefix": 8743,
      "itute": 8744,
      "strptime": 8745,
      "Ġbootstrap": 8746,
      "classification": 8747,
      "Ġspecimen": 8748,
      "tzinfo": 8749,
      "Ġperson": 8750,
      "tot": 8751,
      "()])": 8752,
      "_):": 8753,
      "Ġadata": 8754,
      "directories": 8755,
      "hint": 8756,
      "runs": 8757,
      "Comple": 8758,
      "ARD": 8759,
      "TEST": 8760,
      "blank": 8761,
      "Ġ2016": 8762,
      "DC": 8763,
      "fcoe": 8764,
      "llegal": 8765,
      "Ġkill": 8766,
      "Ġvelocity": 8767,
      "{'": 8768,
      "quiet": 8769,
      "letion": 8770,
      "venance": 8771,
      "Ġoptimization": 8772,
      "wers": 8773,
      "Ġtp": 8774,
      "Ġtries": 8775,
      "('\"": 8776,
      "pas": 8777,
      "scipy": 8778,
      "setLevel": 8779,
      "Ġangles": 8780,
      "shutdown": 8781,
      "ĠPost": 8782,
      "ĠĠĠĠĠĠĠĠĠĠĠĠĠĠĠĠĠĠĠ": 8783,
      "ocus": 8784,
      "Ġ','.": 8785,
      "CMD": 8786,
      "associ": 8787,
      "lapse": 8788,
      "vy": 8789,
      "Ã©": 8790,
      "decoder": 8791,
      "Ġplain": 8792,
      "ä¸º": 8793,
      "Layout": 8794,
      "MQ": 8795,
      "ĠCPU": 8796,
      "pabilities": 8797,
      "mapper": 8798,
      "intf": 8799,
      "izable": 8800,
      "===": 8801,
      "Ġshown": 8802,
      "SPACE": 8803,
      "equ": 8804,
      "Ġfu": 8805,
      "Ġbank": 8806,
      "angular": 8807,
      "Ġglobals": 8808,
      "boardInterrupt": 8809,
      "continue": 8810,
      "59": 8811,
      "Sk": 8812,
      "einsum": 8813,
      "Ġtc": 8814,
      "plane": 8815,
      "lasticsearch": 8816,
      "jar": 8817,
      "inspect": 8818,
      "Ġmappings": 8819,
      "Ġmeasurements": 8820,
      "Ð¸": 8821,
      "Ġreject": 8822,
      "anza": 8823,
      "Ġdl": 8824,
      "literal": 8825,
      "Ġexecutor": 8826,
      "Ġmeaning": 8827,
      "åĽŀ": 8828,
      "oral": 8829,
      "topology": 8830,
      "Ġbases": 8831,
      "received": 8832,
      "Ġcss": 8833,
      "ĠEC": 8834,
      "Ġavg": 8835,
      "grp": 8836,
      "adratic": 8837,
      "DoesNotExist": 8838,
      "COMM": 8839,
      "Ġmedian": 8840,
      "ĠShow": 8841,
      "abc": 8842,
      "Ġlooks": 8843,
      "Ġomitted": 8844,
      "Ġance": 8845,
      "Ġhits": 8846,
      "ĠPart": 8847,
      "ĠColor": 8848,
      "hts": 8849,
      "inline": 8850,
      "ROOT": 8851,
      "TT": 8852,
      "ĠKE": 8853,
      "initialize": 8854,
      "Ġaggregation": 8855,
      "Ġ{:": 8856,
      "phone": 8857,
      "SR": 8858,
      "land": 8859,
      "ĠTag": 8860,
      "ased": 8861,
      "special": 8862,
      "ĠPY": 8863,
      "Ġxs": 8864,
      "Ġleave": 8865,
      "Idx": 8866,
      "Tool": 8867,
      ")\"\"\",": 8868,
      "nom": 8869,
      "mous": 8870,
      "SEPAR": 8871,
      "peaks": 8872,
      "ftp": 8873,
      "Ġfits": 8874,
      "Ġii": 8875,
      "ĠReplace": 8876,
      "void": 8877,
      "Ġaliases": 8878,
      "Ġoverrides": 8879,
      "SOURCE": 8880,
      "Ġbroker": 8881,
      "ups": 8882,
      "ĠEng": 8883,
      "accounts": 8884,
      "Ġreadable": 8885,
      "ĊĊĉĉ": 8886,
      "Ġ;": 8887,
      "ĠEnvironment": 8888,
      "Stop": 8889,
      "clock": 8890,
      "Ġtools": 8891,
      "Ġforms": 8892,
      "ripts": 8893,
      "sgi": 8894,
      "LOAD": 8895,
      "Ġlikelihood": 8896,
      "Ġcombine": 8897,
      "Ġroutine": 8898,
      "]{": 8899,
      "Ġxmax": 8900,
      "spin": 8901,
      "figsize": 8902,
      "Ġphysical": 8903,
      "ĠHttpResponse": 8904,
      "ĠSu": 8905,
      "Ġjump": 8906,
      "QUEST": 8907,
      "Edit": 8908,
      "maybe": 8909,
      "Pi": 8910,
      "Ġnr": 8911,
      "ament": 8912,
      "ambda": 8913,
      "Ġcn": 8914,
      "Ġfaster": 8915,
      "One": 8916,
      "recognized": 8917,
      "ANT": 8918,
      "Ġscene": 8919,
      "Ġidentified": 8920,
      "oct": 8921,
      "leting": 8922,
      "imal": 8923,
      "ĠMO": 8924,
      "ĠNotFound": 8925,
      "GO": 8926,
      "gi": 8927,
      "Ġdistrib": 8928,
      "ĠSH": 8929,
      "pacing": 8930,
      "macro": 8931,
      "Ġ---": 8932,
      "rogram": 8933,
      "()['": 8934,
      "CHAR": 8935,
      "Ġipv": 8936,
      "Ġ'(": 8937,
      "Ġ180": 8938,
      "Required": 8939,
      "ĠCustom": 8940,
      "readlines": 8941,
      "crop": 8942,
      "follow": 8943,
      "igure": 8944,
      "ĠRGB": 8945,
      "Ġsubsequent": 8946,
      "Timestamp": 8947,
      "decl": 8948,
      "']}": 8949,
      "ĠMy": 8950,
      "###": 8951,
      "\"]))": 8952,
      "ĠBackends": 8953,
      "Wait": 8954,
      "ota": 8955,
      "Ġrx": 8956,
      "Ġprotein": 8957,
      "iline": 8958,
      "Ġhad": 8959,
      "Writer": 8960,
      "cates": 8961,
      "æį": 8962,
      "éĢ": 8963,
      "atural": 8964,
      "raster": 8965,
      "Ġtok": 8966,
      "middle": 8967,
      "attachment": 8968,
      "ificant": 8969,
      "syntax": 8970,
      "Ġpprint": 8971,
      "Ġinject": 8972,
      "Ġcare": 8973,
      "Unexpected": 8974,
      "Items": 8975,
      "Ġann": 8976,
      "ĠthisObj": 8977,
      "utions": 8978,
      "charge": 8979,
      "livery": 8980,
      "Ġlistener": 8981,
      "idxs": 8982,
      "Ġchr": 8983,
      "Ġdeal": 8984,
      "Ġalphabet": 8985,
      "nonce": 8986,
      "allele": 8987,
      "Region": 8988,
      "STRING": 8989,
      "around": 8990,
      "lask": 8991,
      "Ġdecoder": 8992,
      "Ġarticle": 8993,
      "quad": 8994,
      "caller": 8995,
      "ERS": 8996,
      "Ġsudo": 8997,
      "Ġ128": 8998,
      "ĠYANGDynClass": 8999,
      "YANGDynClass": 9000,
      "PM": 9001,
      "finish": 9002,
      "čĊĠĠĠĠĠĠĠĠĠĠĠĠ": 9003,
      "ĠSkip": 9004,
      "Stats": 9005,
      "Segment": 9006,
      "partitions": 9007,
      "ĠURLs": 9008,
      "radians": 9009,
      "OM": 9010,
      "Shape": 9011,
      "Ġorientation": 9012,
      "Ġunexpected": 9013,
      "started": 9014,
      "Protocol": 9015,
      "quality": 9016,
      "pedia": 9017,
      "Ġcontour": 9018,
      "newaxis": 9019,
      "levation": 9020,
      "300": 9021,
      "Ġbalance": 9022,
      "Section": 9023,
      "Ġpartitions": 9024,
      "prod": 9025,
      "Ġprocessor": 9026,
      "sudo": 9027,
      "Jo": 9028,
      "Ġcolour": 9029,
      "Ġlinked": 9030,
      "bindings": 9031,
      "Ġclause": 9032,
      "Cate": 9033,
      "gui": 9034,
      "Ġexchange": 9035,
      "Ġdeep": 9036,
      "weep": 9037,
      "good": 9038,
      "Ġprobabilities": 9039,
      "activate": 9040,
      "hyper": 9041,
      ")['": 9042,
      "Gra": 9043,
      "Stack": 9044,
      "Volume": 9045,
      "ulations": 9046,
      "etree": 9047,
      "licable": 9048,
      "Ġoverlay": 9049,
      "åį": 9050,
      "ĠApi": 9051,
      "Extra": 9052,
      "Ġletter": 9053,
      "}:{": 9054,
      "illiseconds": 9055,
      "Custom": 9056,
      "}-": 9057,
      "Ġmer": 9058,
      "Ġresidual": 9059,
      "developer": 9060,
      "åĬ": 9061,
      "poses": 9062,
      "Ġvcf": 9063,
      "Ġencountered": 9064,
      "ĠLa": 9065,
      "ĠPoint": 9066,
      "Split": 9067,
      "Ġincorrect": 9068,
      "Ġbi": 9069,
      "Ġaddition": 9070,
      "Namespace": 9071,
      "ANCE": 9072,
      "Ġscaled": 9073,
      "46": 9074,
      "Title": 9075,
      "exposure": 9076,
      "hop": 9077,
      "regular": 9078,
      "mappings": 9079,
      "ĠHere": 9080,
      "Ġinfer": 9081,
      "routes": 9082,
      "namespaces": 9083,
      "ĠValues": 9084,
      "Ġunused": 9085,
      "Ġrestriction": 9086,
      "minute": 9087,
      "ATED": 9088,
      "MD": 9089,
      "ansion": 9090,
      "Ġsear": 9091,
      "']=": 9092,
      "Ġln": 9093,
      "Ġfire": 9094,
      "pients": 9095,
      "SEPARATOR": 9096,
      "2000": 9097,
      "Rect": 9098,
      "SB": 9099,
      "squeeze": 9100,
      "utures": 9101,
      "123": 9102,
      "flu": 9103,
      "Definition": 9104,
      "Package": 9105,
      "Pay": 9106,
      "\")[": 9107,
      "Ġremoving": 9108,
      "hazard": 9109,
      "Ġints": 9110,
      "ĠPAT": 9111,
      "Ġservers": 9112,
      "Ġupdating": 9113,
      "Ġndim": 9114,
      "Ġsink": 9115,
      "ĠYAML": 9116,
      "stable": 9117,
      "ising": 9118,
      "grains": 9119,
      "rotation": 9120,
      "ĠSplit": 9121,
      "((\"": 9122,
      "Ġspatial": 9123,
      "UTF": 9124,
      "ĠNullArgument": 9125,
      "ele": 9126,
      "rn": 9127,
      "Ġ2015": 9128,
      "tls": 9129,
      "Ġcm": 9130,
      "domains": 9131,
      "Ġdatatype": 9132,
      "ticipant": 9133,
      "floor": 9134,
      "Mask": 9135,
      "Ġhold": 9136,
      "999": 9137,
      "ĠLook": 9138,
      "Ġskipped": 9139,
      "Ġgrant": 9140,
      "*,": 9141,
      "AX": 9142,
      "starting": 9143,
      "Ġtrajectory": 9144,
      "ĠGenerates": 9145,
      "Ġrepos": 9146,
      "peg": 9147,
      "fir": 9148,
      "chi": 9149,
      "Ġrpc": 9150,
      "Ġaccuracy": 9151,
      "Ġemit": 9152,
      "places": 9153,
      "/',": 9154,
      "TAG": 9155,
      "half": 9156,
      "Ġregard": 9157,
      "Ġ404": 9158,
      "Ġinvoked": 9159,
      "gid": 9160,
      "Ġscheduler": 9161,
      "ĠDocument": 9162,
      "ĠJob": 9163,
      "secure": 9164,
      "resize": 9165,
      "icles": 9166,
      "ĠUp": 9167,
      "!\"": 9168,
      "Go": 9169,
      "Gui": 9170,
      "ĠCF": 9171,
      "Attemp": 9172,
      "Ġkwarg": 9173,
      "ĠHelper": 9174,
      "Extension": 9175,
      "Ġminute": 9176,
      "markup": 9177,
      "uc": 9178,
      "spf": 9179,
      "rength": 9180,
      "thernet": 9181,
      "strain": 9182,
      "ĠProper": 9183,
      "Ġdescribe": 9184,
      "lick": 9185,
      "mpath": 9186,
      "Ġpreferred": 9187,
      "Ġmarked": 9188,
      "ĠValidationError": 9189,
      "Validate": 9190,
      "Ġsheet": 9191,
      "Ġ[%": 9192,
      "nums": 9193,
      "Ġadjac": 9194,
      "tests": 9195,
      "Transaction": 9196,
      "Buffer": 9197,
      "Ġgrouped": 9198,
      "REG": 9199,
      "Ġfake": 9200,
      "ĊĉĉĊĉ": 9201,
      "ĠComm": 9202,
      "Ġartist": 9203,
      "Op": 9204,
      "Ġpys": 9205,
      "Ġprog": 9206,
      "Ġthreading": 9207,
      "Factor": 9208,
      "seen": 9209,
      "lace": 9210,
      "Ġ---------": 9211,
      "Ġ400": 9212,
      "theme": 9213,
      "2018": 9214,
      "vanced": 9215,
      "styles": 9216,
      "Stat": 9217,
      "Msg": 9218,
      "cmp": 9219,
      "Ġins": 9220,
      "Ġsolve": 9221,
      "Ġelapsed": 9222,
      "Ġbs": 9223,
      "serts": 9224,
      "ĠDownload": 9225,
      "ĠMI": 9226,
      "ä¸Ģ": 9227,
      "TOKEN": 9228,
      "FLAGS": 9229,
      "fiers": 9230,
      "Den": 9231,
      "Try": 9232,
      "izations": 9233,
      "Ġurlparse": 9234,
      "Ġconverter": 9235,
      "Accept": 9236,
      "Word": 9237,
      "routing": 9238,
      "ĠReference": 9239,
      "Success": 9240,
      "DED": 9241,
      "Ġsens": 9242,
      "reated": 9243,
      "prime": 9244,
      "Lookup": 9245,
      "}_": 9246,
      "correlation": 9247,
      "Creating": 9248,
      "WE": 9249,
      "Ġ([": 9250,
      "Ġoptimizer": 9251,
      "ÑĤ": 9252,
      "__'):": 9253,
      "Checks": 9254,
      "Ġdead": 9255,
      "provision": 9256,
      "RECT": 9257,
      "Ġrhs": 9258,
      "ĠTimeout": 9259,
      "Ġ[{'": 9260,
      "Flags": 9261,
      "att": 9262,
      "illa": 9263,
      "ĠFa": 9264,
      "Ġdiagonal": 9265,
      "samp": 9266,
      "xi": 9267,
      "]/": 9268,
      "Ġstuff": 9269,
      "Ġ\"#": 9270,
      "Ġnotify": 9271,
      "ĠINT": 9272,
      "typ": 9273,
      "Ġfollowed": 9274,
      "*\\": 9275,
      "CD": 9276,
      "vcs": 9277,
      "Ġencrypt": 9278,
      "Ġtenant": 9279,
      "ĠSSL": 9280,
      "ĠEl": 9281,
      "Keep": 9282,
      "Pix": 9283,
      "{\\": 9284,
      "encryption": 9285,
      "Ġwallet": 9286,
      "Ġunion": 9287,
      "desk": 9288,
      "cipher": 9289,
      "ĠNULL": 9290,
      "ĠSelect": 9291,
      "letter": 9292,
      "PH": 9293,
      "Ġfloating": 9294,
      "topics": 9295,
      "predicate": 9296,
      "Random": 9297,
      "erance": 9298,
      "mails": 9299,
      "Ġproduced": 9300,
      "trunc": 9301,
      "Ġhide": 9302,
      "='%": 9303,
      "Interval": 9304,
      "Plugin": 9305,
      "klass": 9306,
      "urname": 9307,
      "tegr": 9308,
      "additional": 9309,
      "centric": 9310,
      "ĠYields": 9311,
      "factors": 9312,
      "Ġquick": 9313,
      "bon": 9314,
      "Ġ'\\\\": 9315,
      "too": 9316,
      "Ġregistration": 9317,
      "Ġinteractive": 9318,
      "URN": 9319,
      "hn": 9320,
      "uit": 9321,
      "termines": 9322,
      "Ġmouse": 9323,
      "orders": 9324,
      "feat": 9325,
      "TES": 9326,
      "prefixes": 9327,
      "Ġshutdown": 9328,
      "[...,": 9329,
      "Ġlif": 9330,
      "Ġpb": 9331,
      "PR": 9332,
      "Space": 9333,
      "ium": 9334,
      "Ġdag": 9335,
      "Ġlv": 9336,
      "branches": 9337,
      "Ġreload": 9338,
      "Ġmargin": 9339,
      "Ġinf": 9340,
      "Ġorbit": 9341,
      "projection": 9342,
      "overwrite": 9343,
      "Ġexpired": 9344,
      "prediction": 9345,
      "Ġmail": 9346,
      "Ġboard": 9347,
      "]`": 9348,
      "Ġslices": 9349,
      "stackoverflow": 9350,
      "allenge": 9351,
      "ulary": 9352,
      "umor": 9353,
      "Ġrid": 9354,
      "Ġclosing": 9355,
      "Ġlargest": 9356,
      "180": 9357,
      "Http": 9358,
      "Ġhaz": 9359,
      "Authorization": 9360,
      "Ġembedded": 9361,
      "****************": 9362,
      "infer": 9363,
      "Ġtreated": 9364,
      "enchmark": 9365,
      "Called": 9366,
      "centers": 9367,
      "ĊĠĠĠĠĊĠĠĠĠĠĠĠ": 9368,
      "Ġbracket": 9369,
      "Bin": 9370,
      "Ra": 9371,
      "Pe": 9372,
      "Ġary": 9373,
      "Ġmv": 9374,
      "logits": 9375,
      "tier": 9376,
      "Cluster": 9377,
      "ffe": 9378,
      "Integer": 9379,
      "Ġplaceholder": 9380,
      "Close": 9381,
      ")?": 9382,
      "queries": 9383,
      "Exp": 9384,
      "Ġ\"{}\"": 9385,
      "(':')": 9386,
      "xmin": 9387,
      "arily": 9388,
      "ĠND": 9389,
      "Ġimpro": 9390,
      "Ġrequirement": 9391,
      "Ġshortcut": 9392,
      "AV": 9393,
      "sci": 9394,
      "Ġupon": 9395,
      "omega": 9396,
      "Ġrespectively": 9397,
      "inux": 9398,
      "Ġalert": 9399,
      "Running": 9400,
      "Ġadapt": 9401,
      "Ġspi": 9402,
      "ĠOK": 9403,
      "hashes": 9404,
[...]
